#version: 0.2
Ġ t
Ġ a
i n
h e
o n
r e
a t
Ġt he
e r
Ġ s
o r
e n
Ġ c
Ġ o
a l
e s
i s
i t
Ġ w
i on
Ġ p
a n
in g
e d
Ġ f
Ġa n
a r
Ġ in
Ġ b
Ġo f
l e
Ġ m
Ġ d
r o
i c
Ġt o
Ġan d
c t
ä ¸
a s
e t
Ġt h
Ġ \
en t
Ġ $
e l
Ġ e
u s
i m
Ġ re
Ġ n
u t
o m
at ion
Ġ is
ç ļ
çļ Ħ
i g
r a
Ġ l
Ġ T
Ġ h
c h
o u
s t
c e
i l
v e
o t
l y
{ \
o l
Ġth at
Ġf or
o d
a m
Ġp ro
i d
o w
Ġ (
Ġ g
Ġ I
Ġb e
u n
it h
Ġ on
ä »
Ġ A
u r
i f
v er
u l
Ġc on
a b
Ġs t
å ı
g e
u m
Ġa s
Ġa l
Ġ S
m at
} }
ĠT he
e ct
Ġe x
Ġw ith
ä º
Ġw e
s e
ï ¼
Ġc om
_ {
Ġa re
Ġ us
u re
Ġ$ \
Ġ C
mat h
Ġ it
è ¿
Ġd e
q u
at e
Ġ -
t er
Ġ v
æ ľ
p l
Ġ [
r i
a y
ä ½
Ġc an
æ ĺ
Ġw h
Ġ 1
i r
is t
ï¼ Į
å Ī
it y
ig h
p t
o re
å ħ
e m
å ®
t a
p er
he r
Ġcom p
ã Ģ
ç Ķ
Ġ W
a d
ct ion
o s
Ġ F
es s
Ġ y
Ġb y
m ent
Ġs u
i z
re s
Ġ M
ä¸ Ģ
2 0
a c
Ġ le
Ġ im
p p
f or
i ve
er s
æĺ ¯
Ġ or
i v
è ¯
es t
Ġn e
a ge
} $
æ Ī
Ġ P
å ¤
å Ĳ
igh t
Ġs e
å ľ
e re
i al
ĠI n
or k
in e
Ġ r
a ch
ro m
Ġ =
o c
o g
Ġ B
Ġth is
p e
p le
an t
ç »
ä¸ ª
e p
t h
Ġy ou
an d
Ġm od
ä ¹
l d
ul t
Ġ R
en d
Ġd at
æ ķ
Ġf rom
ãĢ Ĥ
i es
for m
Ġ &
Ġ "
Ġa t
ic al
æ ĸ
Ġ D
n t
Ġ H
il l
Ġc l
Ġin t
k e
Ġ L
Ġh a
as s
Ġn ot
e x
ic h
Ġ un
çĶ ¨
^ {
ation s
å °
b le
å Ĵ
ig n
an g
è ®
Ġs h
Ġ *
Ġre s
Ġw he
å Ń
å Ĭ
åĴ Į
Ġ E
a g
el l
ar t
Ġ N
it ion
ab le
å º
åľ ¨
et w
p h
al l
at ed
Ġ[ @
Ġwh ich
ar n
Ġha ve
math b
' s
Ġmod el
m a
20 1
ra in
en s
d s
ra m
Ġc h
ä» ¥
f t
Ġ 0
ĠT h
en ce
Ġm a
an ce
] {
or t
re d
å ¼
c al
Ġ 2
Ġ G
} \
Ġal l
æķ °
è ¡
Ġa d
f ere
t her
æľ ī
Ġ\ [
ra c
Ġdat a
åı ¯
c c
o p
Ġ he
ou ld
å ĩ
å ¯
u p
Ġ O
ĥ ½
u d
et h
é ĩ
ac k
d u
è¿ Ļ
f f
Ġp er
om e
é Ģ
æ Ĺ
r u
ion s
Ġo b
Ġf un
ex t
an s
us t
( \
æ ī
ĠW e
) $
ä¸ į
j ect
in t
Ġle arn
ä ¼
Ġs y
if ic
ä¸ Ń
en er
å Ĩ
o st
ç ¨
æ Ŀ
al u
) .
d er
Ġa b
id e
c l
o ut
Ġa pp
Ġf e
u al
ç¨ ĭ
Ġfun ction
]{ }
Ġm ore
ar i
a ct
v el
g or
o us
Ġs et
el y
Ġd if
im e
Ġ en
mathb f
ä¸ º
Ġcl ass
äº Ĩ
Ġa r
Ġh as
æ ³
Ġ 3
e g
p ut
è ¦
Ġm e
a re
eth od
å Ľ
è¦ ģ
Ġ k
a v
æ ŀ
ĠTh is
s o
m s
Ġd o
m b
) ,
æ Ģ
Ġim p
g ram
b er
å¯ ¹
æĪ ĳ
è §
è Ģ
ar d
Ġw ill
r ight
Ġcon t
am e
as e
Ġus e
ä¸Ģ ä¸ª
ri b
as t
Ġm ethod
ent s
æ ł
i e
etw ork
Ġe v
å ¾
å ¹
at ure
è ĥ½
Ġon e
Ġo ut
gor ith
ou r
ut ion
Ġo ur
é Ĺ
a ce
Ġ qu
Ġg ener
st em
math cal
Ġt rain
ä» ¬
Ġt r
Ġus ed
ar y
å ¸
or s
Ġ {
¦ Ĥ
n d
Ġs im
Ġ ro
g h
Ġo ther
ta in
Ġdif fere
ç İ
Ġw ork
c es
Ġre c
$ ,
o se
Ġe ach
Ġcomp ut
å Į
æĹ ¶
s um
è¡ Į
ic t
od e
Ġw as
ç §
} _
d ing
Ġwhe re
Ġs p
] .
åı¯ ä»¥
Ġ j
p res
f rac
Ġb ut
as ed
Ġ J
} {
le ft
e ch
Ġpro gram
Ġsu ch
l ow
æĸ ¹
Ġs c
Ġa cc
é Ŀ
Ġal so
Ġ U
Ġn etwork
Ġal gorith
c ess
ç Ľ
on g
Ġd is
å ¦Ĥ
Ġlearn ing
Ġres ult
ver s
å ·
ab el
Ġd es
Ġn um
$ .
å į
ç ±
Ġsy stem
Ġs o
Ġ if
Ġus ing
ang u
Ġs ome
et a
t he
il ity
Ġper form
c on
i ent
w o
Ġv ari
Ġs pe
a in
k s
æ³ ķ
Ġl i
Ġapp ro
Ġp art
Ġt ime
ç± »
i le
æ Ń
Ġin ter
Ġthe ir
Ġp o
k ing
Ġsh ow
Ġex am
t ext
Ġm an
Ġp l
ĠF or
a p
iz e
æĿ ¥
Ġp re
å ½
Ġp ar
Ġit s
Ġin d
Ġpro ble
Ġ +
Ġth an
s i
Ġd ist
æ İ
ag es
ver y
re e
Ġdiffere nt
Ġthe re
i re
al ly
Ġl angu
at es
Ġv alu
Ġ 4
Ġt wo
Ġcon s
n ow
Ġo ver
, \
ä ¾
d ition
Ġw or
ign ed
a us
Ġthe y
Ġ @
= "
in d
Ġde f
pl ic
ç ī
Ġfe ature
Ġm at
åĪ °
Ġ {\
ä¼ ļ
i p
Ġt y
] ,
Ġthe se
ir st
y s
Ġ 5
p ect
ic s
ul ar
ãĢ ģ
ç ®
at ive
Ġpro v
äº İ
at ing
o o
ot s
iz ation
_ {\
Ġh ow
Ġg o
ru ct
ä½ ľ
it e
ech n
Ġon ly
Ġn o
ol og
or y
Ġan y
d e
Ġwhe n
è ĩ
ĠI t
ar g
} ^
ur al
ĠA I
Ġp os
ä½ ¿
æ Ĭ
e en
é ¢
p on
} _{
Ġsu b
æ į
ar ch
h at
Ġne w
Ġ |
1 0
Ġ up
} ^{
u b
form ation
Ġtr ans
o b
p os
Ġc or
äº º
etw een
ç Ĳ
å ĳ
ç Ń
Ġb etween
Ġint o
Ġob ject
æĪĳ ä»¬
Ġnum ber
æ Į
ic e
ou nd
Ġtrain ing
æĪ Ĳ
Ġab out
Ġre l
å® ŀ
ol low
ä¸ Ĭ
Ġ V
} (
am et
is e
ä ¿
ï¼ ļ
ä¸ ĭ
æ ¯
Ġthe n
Ġo pt
åĪ Ĩ
æ Ķ
è ¾
ç º
Ġe ff
Ġre g
ç ¼
å¤ ļ
ect ion
im es
Ġde c
n ce
è¿ ĩ
Ġpro cess
å® ļ
Ġex per
Ġre pres
ra ct
Ġf ollow
Ġcon st
} )
ment s
Ġbe c
a k
å ¿
Ġf irst
Ġin st
å° ±
' t
Ġt echn
é ľ
e c
Ġk now
å ¥
res s
Ġun der
i x
ä» £
çİ °
å Ģ
éĿ ¢
åĩ º
c ed
ç ł
l abel
Ġp red
Ġa p
Ġa g
ot h
åº ı
on e
er v
æ ı
u e
Ġ K
Ġs ol
iz ed
å¼ ı
Ġne ed
è¯ Ń
ack age
Ġw ould
ro w
Ġcom m
çĲ Ĩ
éĩ ı
Ġw ay
éľ Ģ
åı ĳ
al igned
ä½ ł
å¤ §
cl ud
Ġde vel
he s
Ġyou r
å İ
Ġm ay
ä½¿ çĶ¨
å® ĥ
Ġan al
Ġh um
m in
Ġg ra
æ ĥ
åĲ Į
Ġin formation
Ġalgorith m
i ed
the ta
å ±
ce pt
æ ĭ
Ġ Y
Ġp at
ç ¬
Ġexam ple
ab ility
Ġ .
ab l
ter n
ical ly
Ġt est
as k
è¿ Ľ
Ġspe c
Ġproble m
Ġcomp le
Ġ\[ ]
çĶ Ł
æ Ħ
Ġs ame
Ġbe en
å¹ ¶
eg in
æ Ľ
Ġa ct
at or
äº Ľ
Ġlangu age
e ver
æĢ §
Ġex t
l l
as et
ç§ į
Ġin c
d a
Ġst r
Ġresult s
us ep
Ġrepres ent
usep ackage
\ ]
b egin
pl es
iv en
it ies
æŀ ľ
Ġpred ict
Ġc ode
åħ ¶
ph a
è ´
o v
Ġc ol
le ct
è ±
f ul
Ġopt im
Ġli ke
Ġa ut
} ,
mb ol
am b
Ġ x
åŃ ¦
av a
Ġ1 0
Ġpar amet
Ġdis c
r it
è µ
n e
ä¹ Ł
ol ds
Ġm ult
æį ®
Ġp a
it s
Ġs am
Ġpo int
Ġ$ {\
al pha
Ġm ach
ĠA s
Ġm ost
Ġmodel s
Ġe m
èĩ ª
un d
å ŀ
Ġin put
Ġperform ance
aus e
æī Ģ
l ine
Ġd et
è§ £
çł ģ
è± ¡
Ġ 6
o ve
Ġdevel op
Ġdat aset
åĲ İ
Ġs ign
u gh
) \
çŃ ī
ig ma
s p
Ġwe re
å¸ ¸
ou gh
Ġfor m
mathb b
åĩ ½
éĢ ļ
Ġthe m
Ġprogram m
Ġmethod s
ing s
å° Ĩ
ĠS t
i b
Ġl ay
Ġc ould
. ,
ç¼ ĸ
Ġs m
èĢ Į
åĩ½ æķ°
en c
r m
Ġro b
Ġwh at
å ĵ
Ġst ate
{ {\
ĠC on
è¡ ¨
åº Ķ
Ġin clud
e ar
Ġdist rib
éľĢ è¦ģ
l p
ĠH ow
æĸ ĩ
è °
ent ial
æľ ¬
Ġc re
x im
Ġas s
amb da
è ½
f ore
N N
Ġdef in
] (
Ġimp ro
t y
iv ely
åŀ ĭ
Ġp res
æ µ
æĽ ´
ou nt
or m
Ġre qu
åĨ ħ
éĹ ®
å Ł
i a
Ġhe lp
åľ °
i ous
é Ļ
v ol
Ġ '
en g
ure s
Ġw ell
åı ĺ
s et
al ity
ific ation
er r
Ġb ased
il ar
an ge
Ġ i
ĠP ro
p ar
è® ¡
a il
Ġ est
éĹ ´
Ġb oth
olog y
t s
um ent
æľ Ģ
i er
Ġcons id
p ro
y mbol
æĸ¹ æ³ķ
Ġhum an
id ent
Ġc all
Ġst ud
Ġfeature s
Ġman y
ple ment
é¢ ĺ
ep s
Ġvalu e
n ot
at a
Ġex pl
ation al
æı Ĳ
Ġh igh
Ġdo es
Ġ `
b m
Ġt er
åĬ ł
el ta
as es
Ġl oc
Ġpro pos
ç Ĥ
åŃ ĺ
åĮ ĸ
Ġf in
ç ľ
å¼ Ģ
Ġpro du
Ġp r
Ġo per
Ġdes c
t ing
s s
ç¨ĭ åºı
f ig
ĠC om
ur n
oo k
Ġ :
æĪ ĸ
Ġim age
t e
é Ķ
ä¹ ĭ
åŃ Ĺ
ro ugh
b olds
Ġma ke
og n
in es
bolds ymbol
ä» ĸ
w id
è ¨
Ġe qu
é ĥ½
è¨ Ģ
o ver
Ġn on
Ġpro b
} {\
å¥ ½
åħ ¥
Ġc ase
Ġb u
åĬ ¨
åĽ ł
Ġ ve
) {
ä» ¶
u ch
if y
ĠI f
r y
åħ ³
Ġ 8
Ġp h
ie w
ay s
ell ig
ç» ĵ
ĠT o
Ġst ruct
is ion
ur ing
Ġm in
er n
ç® Ĺ
Ġmult i
ä»£ çłģ
1 2
h o
åŃ Ĳ
ç ³
Ġeff ect
r ic
ç «
i ence
ed ge
Ġim plement
å Ļ
l ambda
Ġat t
å¯¹ è±¡
Ġsystem s
al s
Ġappro ach
Ġ 20
f er
ĠU n
é ¡
pp ort
ri pt
i qu
Ġ <
åĻ ¨
Ġsh ould
1 9
in ce
Ġf act
Ġg iven
ar k
Ġmach ine
and om
Ġg et
åĢ ¼
ä¾ ĭ
ow er
he n
e w
Ġimp ort
å ģ
æķ° æį®
Ġ 7
Ġap plic
Ġty pe
Ġ ent
å ī
Ġj ust
le q
Ġre se
Ġb l
re at
it ive
ur re
èĢ ħ
Ġty p
éĩ į
si ble
i el
ere d
æ ²
t en
çĤ ¹
c k
s igma
ent ion
é ģ
Ġre al
a ke
Ġar t
el f
ar ge
ä¹ Ī
Ġ 9
ens ure
\ _
am ma
Ġad d
ri x
Ġalgorith ms
é ĺ
Ġ very
" }
ç Ħ
Ġbec ause
t imes
re ad
in k
- \
è¯Ń è¨Ģ
Ġm em
Ġ err
$ \
å· ¥
Ġse e
åĲ Ī
Ġpart ic
v ing
Ġa m
åº ¦
il on
st r
ction s
t o
å½ ĵ
ĠF ig
c d
Ġt ra
ĠA l
o f
Ġprov id
Ġest im
Ġsim ilar
Ġwh o
ĠThe re
a pt
å »
è¿Ļ ä¸ª
Ġ 201
ual ly
Ġ #
æ ¬
ĠHow ever
ä½ ĵ
m u
å¦Ĥ æŀľ
Ġ ident
Ġexper im
Ġsm all
Ġl ine
fere nce
ç ¤
Ġwh ile
Ġth rough
o x
çĦ ¶
et ter
y n
Ġp e
os s
Ġ }
Ł ¥
ä½ Ĩ
is h
e f
Ġ !
Ġpropos ed
Ġre du
ro und
æ °
Ġev en
Ġinc re
ist s
çĽ ¸
ol d
ç³ »
å¾ Ĺ
ç ½
æİ ¥
wid th
ot e
Ġgener al
Ġa c
Ġim ages
ç ¡
Ġ\ \
Ġout put
çº ¿
b f
æ ±
Ġve ct
é «
Ġ{ #
è® ¾
t il
w are
y th
Ġor der
Ġc o
è° ĥ
é« ĺ
Ġvalu es
å» º
ä¸ İ
Ġall ow
. "
å¾ Ī
Ġev alu
Ġprogramm ing
n ess
Ġa v
Ġe very
æľ º
Ġne ural
Ġd ire
éĹ® é¢ĺ
oc ument
Ġcomple x
Ġl arge
Ġre t
b eta
Ġwe ight
Ġ ke
}} \
Ġb etter
Ġr andom
}$ ,
st and
Ġnetwork s
Ġfunction s
i an
urre nt
enc y
ro du
Ġ! [
ic es
Ġse qu
s f
= \
Ġfollow ing
Ġr un
o ple
) ;
Ġob s
he d
c om
yth on
s u
ens ion
è ¢
* ]{}
æ¯ Ķ
Ġs ize
ic ient
f ter
_ \
v ed
n g
åĪ ¶
é ĥ
æĮ ĩ
| \
Ġ X
ang le
a red
ç ´
ys is
å Ŀ
ellig ence
b ased
Ġ ,
Ġde p
Ġh and
p ort
o y
Ġimpro ve
p r
æŃ ¤
) }
Ġ[ *
Ġprov ide
åī į
Ġob tain
}$ .
or d
æŀ Ħ
Ġpres ent
è¢ «
è¯ ¥
Ġdistrib ution
å° ı
l og
Ġp ers
æĦ ı
i vers
æĸ °
Ġp ri
éĥ ¨
s c
Ġs ing
i or
â Ģ
p s
w ard
æł ·
v es
u rac
r t
Ġgra ph
Ġf ram
Ġ1 9
æ ¨
Ġbu il
åĨ Ļ
Ġsp ace
an n
con d
abl es
è¿Ľ è¡Į
pres s
ist ic
Ġ Ð
Ġpa per
Ġcon dition
Ġt ask
é Ĥ
æ ´
Ġconsid er
5 0
è¯ ´
Ġpe ople
æ¨ ¡
åĬ Ľ
æĥ ħ
Ġst and
Ġsu pport
Ġparamet ers
Ġpos sible
Ġpre v
æ ¸
ç» Ħ
Ġme an
, "
åį ķ
Ġ( \
ä¿ Ŀ
l i
Ġm uch
Ġs a
Ġcor re
Ġbe h
Ġb as
çī ©
ph i
ro up
è ¶
l o
^ {\
our ce
Ġcomput er
res pon
ç¬ ¦
Ġle vel
Ġl abel
Ġres pect
Ġin v
iv es
p i
oc i
Ġma in
åĮ ħ
è Ĭ
[ @
T he
ç» ı
Ġad v
Ġl oss
ro ss
Ġrec ogn
urac y
ar row
Ġm y
ur ther
Ġth ose
ĠE x
on s
}} $
Ġb el
arg et
0 1
Ġbe ing
^ *
Ġ Q
il y
Ġe le
oc k
ra y
åĽ ŀ
Ġme as
ĠA n
ut ions
ä» İ
Ġlay er
è¿ Ĳ
Ġcon tain
in al
ch ie
Ġunder stand
Ġimport ant
o int
Ġen c
g amma
åħ ·
ic k
Ġas sum
ĠJ ava
Ġb ack
e ad
math rm
S T
Ġcor respon
ub l
v ir
Ġcont ro
æĺ İ
è¿ ĺ
Ġe as
Ġa chie
çľ ĭ
ul ation
Ġre ad
Ġb ound
Ġsing le
iv id
éĤ £
g et
} (\
ere st
Ġb est
Ġpartic ular
cd ot
Ġwith out
ch it
Ġerr or
åı ª
ç±» åŀĭ
Ġle ad
d ata
om ain
vir on
Ġdesc rib
Ġmat rix
Ġcomm un
Ġqu est
Ġth ree
as ks
Ġstruct ure
is ed
ut e
Ġ et
éĢļ è¿ĩ
if ied
Ġshow n
en ces
ou n
Ġproble ms
Ġv is
çī ¹
Ġanal ysis
Ġb i
Ġd en
g y
b in
re f
Ġrese arch
åĬ ¡
Ġst at
å ¢
Ġl at
Ġacc uracy
è ī
Ġlangu ages
çĽ ®
^ \
Ĥ ¨
Ġto p
im ension
i red
" ,
N et
åŁ º
Ġdep end
Ġsign ific
ver t
Ġpro per
d elta
g g
ific ial
Ġclass ification
Ġad dition
Ġst art
å¤ Ħ
ä¹ ī
us s
åħ ¨
ĠC h
Ġin it
m on
ĠR es
åĳ ĺ
Ġpat tern
l edge
Ġl ong
er t
ç ©
ĠIn t
Ġl og
Ġdes ign
r on
Ġ end
$ -
Ġf ind
æ Ļ
a pp
ä¹ ł
an ces
Ġt arget
^{ (
Ġch o
é ļ
eng th
Ġ /
ter s
Ġen viron
p re
æĢ ģ
ä½ ķ
ä¸Ń çļĦ
Ġint rodu
Ġ z
å®ŀ çİ°
l es
_ _
chit ect
ad e
Ġobs erv
o per
Ġex press
åĲ į
Ġy ear
åĵ ģ
Ġf ul
Ġgo od
è ·
Ġanal y
åĪ Ļ
Ġcon c
Ġh y
( )
til de
ĠThe se
arn ing
ç¬ ¬
Ġ ra
Ð ¾
ç» Ł
Ġtechn iqu
Ġprob ability
Ġt asks
Ġmin im
i ble
d ocument
Ġint erest
Ġwor ld
u le
eps ilon
æ¯ ı
n ect
w n
Ġp ol
ç¤ º
çº¿ ç¨ĭ
Ġw rit
ç¡ ®
æł ĩ
é ħ
Ġch ar
im it
ä» »
vol ution
Ġl ist
Ġt ake
Ġm ight
å §
å® ¶
)$ .
åĲ ĳ
åı¯ èĥ½
Ġt ext
}} _
Ġpro ject
ta u
Ġg u
Ġde ep
iel d
Ġ ide
1 6
Ġp ot
éĩ Į
Ġres pon
Ġw ant
b r
Ġsignific ant
æĬ Ģ
æ ĵ
o id
Ġb en
ent ly
Ġvect or
v en
Ġdire ct
ä¸ ¤
b ig
y le
201 7
ĠB ut
am s
Ġre as
æ² ¡
Ġint eg
el s
éĿ ŀ
æī §
Ġg roup
åıĺ éĩı
Ġf il
pe c
Ġn ow
Ġse cond
ivers ity
s h
Ġs ur
Ġtechn ology
Ġd i
åı Ĥ
åħ ĥ
yn am
Ġexam ples
Ġstand ard
Ġp ract
æ ¡
ä¿ ¡
b ar
æī§ è¡Į
Ġpot ential
Ġaut om
p or
ä¸ ļ
ĠB y
Ġs ince
Ġint elligence
n er
at ch
Ġar chitect
Ġdefin ed
ot her
Ġact iv
le ction
Ġfe w
Ġit er
Ġbeh av
æ ģ
Ġe mb
å°± æĺ¯
ow n
åĪ Ĺ
Ġret urn
ensure math
Ġf ound
od es
Ġin f
å· ±
Ġc urrent
Ġd omain
Ġloc al
eta il
g an
Ġappro xim
Ġs em
ĠL e
Ġp ubl
ä¸Ģ äºĽ
Ġmem ory
çİ ¯
èĩª å·±
ut ure
Ġ ed
Ġst ill
å® ¹
ä¸ »
i o
Ġh ad
ĠL et
Ġso ft
ma x
al th
ĠS o
ĠR e
æ¬ ¡
Ġpers on
at her
æ³ ¨
orm al
Ġar g
Ġt e
éĢ ī
at ely
Ġm ust
Ġinit ial
en se
Ġspec ific
å¼ ķ
Ġex ist
is m
Ġex pect
Ġcomp ar
ra ph
Ġs um
ĠS c
cl ass
Ġa ble
æĮ ģ
ç ķ
æŃ £
ep end
äº ĭ
Ġcont ext
ç Ŀ
Ġor ig
Ġ vers
Ġsim ple
å¤ ĸ
åİ Ł
Ġtyp es
Ġa fter
ç¼ĸ ç¨ĭ
Ġof f
1 5
ew ork
Ġst ep
p ose
Ġdet er
Ġind ivid
g ment
æĦ Ł
in u
+ \
^{ -
æ ·
ä¾ Ľ
Ġtrain ed
Ġs cal
ul es
Ġc ost
é £
201 8
Ġchar act
Ġab ove
æĥ ³
pl oy
Ġg reat
Ġline ar
ĠFig ure
åı Ĭ
Ġvari ables
ç Ł¥
Ġav ail
ĠY ou
m e
Ġs er
ä¸į åĲĮ
cc ess
æŃ ¥
b s
et y
Ġse ver
Ġsam ples
é Ľ
is s
Ġc al
Ġr ight
Ġcall ed
)$ ,
Ġwor ds
ä½ į
in s
ĠA nd
er tain
Ð µ
Ġobject s
ar ds
æĵ į
Ġprev ious
Ġknow ledge
è Ļ
è¿Ļ äºĽ
ru e
è® ©
Ġc le
oc us
åĪ Ľ
Ġre m
Ġse arch
åħ ¬
äº §
\ |
Ġh is
Ġwor d
ent al
iz ing
s q
Ġsever al
ty pe
ĠD e
Ġparamet er
Ġ$ (
æ± Ĥ
Ġshow s
åģ ļ
Ġp ower
Ġth ink
Ġrob ot
å® Į
Ġindivid ual
201 6
1 3
æĵį ä½ľ
Ġl ow
Ġdisc uss
Ġclass es
Ġof ten
è¯ ķ
çĶ ±
v iew
Ġto ol
é ª
Ġse lect
al id
Ġl ess
Ġin s
ĠW h
p m
Ġd etail
s w
Ġs ent
Ġcontro l
1 4
é ķ
0 2
Ġl imit
Ġh ig
ro p
Ġconst rain
ant s
Ġch ange
Ġch ang
Ġsol ution
per v
åı ĸ
y m
ĠS e
Ġd on
å¹ ´
* ,
p art
r ite
as h
Ġs om
or ding
1 8
æ²¡ æľī
Ġle t
Ġhe re
æĹ ł
an k
Ġter ms
Ġme ans
èĬ Ĥ
r ho
Ġcom bin
Ġbe fore
è®¾ è®¡
Ġpoint s
Ġup d
ĠA d
im in
Ġmeas ure
Ġwith in
æ ®
Ġdevelop ment
æıĲ ä¾Ľ
Ġenviron ment
ĠH ere
x t
c ing
å¿ ĥ
ac hes
Ġch all
Ġfram ework
Ġstud y
æľ ¯
æ º
Ġapplic ations
Ġt ri
Ġc he
ç® Ģ
l ation
ver age
Ġacc ess
at ural
Ġavail able
Ġf ocus
Ġinclud ing
Ġmulti ple
Ġdif f
Ġr ate
g es
Ġrepresent ation
Ġc ap
Ġg l
Ġgra d
Ġp op
Ġus er
Ġemb ed
å§ ĭ
Ġcomm on
éĢ Ĥ
Ġre f
A N
Ġinst ance
ar ly
id d
t ime
Ġcon nect
ĠO ur
w ise
us ion
t r
ç´ ł
Ġsequ ence
sp an
ç» Ļ
Ġs ens
Ġt ak
Ġrecogn ition
Ġd uring
çĿ Ģ
( {\
è ģ
ĠG o
Ġs ource
Ġreas on
Ġn ode
åħ Ī
pl ied
å¤ į
éķ ¿
k es
Ġcl us
Ġf uture
c ript
ä¸Ģ ç§į
åĪ «
Ġm ed
Ġstr ate
Ġprodu ct
Ġd ynam
}_ {\
Ġvari able
Ġke y
2 5
ĠW hen
Ġcre ate
Ġan other
Ġp ost
Ġlay ers
h ip
åŃ¦ ä¹ł
èµ ·
1 7
he re
Ġqu ant
æĪ ·
Ġde v
3 0
Ġdataset s
sq rt
Ġpa ir
b ers
åĨ ³
a x
è°ĥ çĶ¨
Ġma xim
ĠThe n
Ġfollow s
æĹ¶ éĹ´
Ġl it
Ġ >
å± ķ
Ġp ass
Ġcomp on
Ġl arg
ld ots
Ġag ain
Ġsu ccess
[ ]{
' re
Ġth ough
ab il
ä» Ģ
Ġcon f
ĠH e
ä»Ģ ä¹Ī
Ġ el
ar s
Ġ Z
Ñ Ĥ
ial ly
Ð °
é Ĵ
p en
Ġexperim ents
ç³» ç»Ł
æķ Ī
Ġt em
Ġ\[ ].
Ġconst ruct
n ame
Ġf urther
Ġhe alth
å¼Ģ åıĳ
Ġ åľ¨
Ġo wn
Ġm et
è Ĥ
n ing
m an
ir c
Ġpl ay
Ġaut h
Ġli k
Ġsy n
Ġcal c
å¤Ħ çĲĨ
æķ ´
æ Ĥ¨
ä¼ ĺ
éģ ĵ
ac es
Ġ{# }
Ġv iew
Ġs ay
Ġex ec
Ġm on
a ve
Ġrequ ire
Ġh ard
Ġcon ver
Ġoptim ization
w ays
Ġclass if
åı £
æĶ ¹
æĸ¹ å¼ı
< /
æł ¼
Ġm ade
Ġrob ots
æ ¶
l ess
Ġyear s
in c
Ġart ificial
Ġen g
Ġs k
Ġne xt
ä¸ Ķ
Ġcon cept
}} _{
Ġcorre ct
Ġto o
Ġs at
) :
Ġorig inal
w e
Ġcorrespon ding
Ġus es
a ir
Ġc ent
ĠW hat
Ġre le
ç© º
åĽł ä¸º
åĬ Ł
ress ion
å®ļ ä¹ī
im al
e q
perv ised
s im
our ces
è®¡ ç®Ĺ
o od
Ġind ic
æĶ ¾
Ġsoft ware
Ġ& \
ĠM ore
çĽ ´
Ġb r
is on
ĠUn iversity
ab ly
å½ ¢
A R
Ġin vol
èī ²
t t
Ġs ection
Ġpri or
ate gor
Ġsc ore
æº Ĳ
Ġcharact er
Ġsam ple
ç½ ®
it her
o ch
å¤ Ł
Ġf ix
Ġl o
Ġad apt
6 9
ĠO ne
Ġknow n
ge q
Ġpredict ion
Ġs erv
ly ing
e qu
Ġadd ress
éħ į
Ġde mon
Ġo cc
Ġanaly z
er o
r al
in ess
Ġan sw
right arrow
ar c
s ub
åĮ º
è¾ ¾
Ġreg ular
Ġset s
i ents
Ġpol ic
0 3
Ġeff icient
ic ult
t al
pt ion
Ġdemon str
ĠS ection
Ġre port
åİ »
n ces
D elta
æ Ł
ĠThe y
è¯ »
Ġgener ated
i j
Ġquest ion
201 5
è¾ ĵ
æģ ¯
ĠC l
t ed
Ġn atural
é ¦
b ack
Ġc ases
Ġpubl ic
ut ed
åºĶ çĶ¨
ĠCom put
Ġident ify
è´ ¨
at ors
Ġvis ual
Ġdiff icult
Ġimp act
is f
Ð ¸
Ġapplic ation
Ġle ast
Ġrespect ively
æ´ »
oc ial
Ġass oci
gg est
if e
eth ing
Ġprogram s
l u
Ġinclud e
ĠI m
J ava
æ® µ
ust om
Ġappro aches
Ġtechniqu es
è¾ ĥ
a w
Ġadv an
f ace
ç ¾
[ \
ä½Ĩ æĺ¯
Ġhig her
Ġben ef
Ġrel ations
Ġcons ist
åĨ µ
Ġ(\ [
}} }
Ġne ur
Ġal ways
od er
8 0
Ġsem ant
Ġcomp il
Ġpro t
é¡ ¹
Ġsu ggest
Ġl ast
éĢ ł
ĠO n
m ar
éĿŀ å¸¸
Ġdec ision
Ġc ertain
Ġobtain ed
]( #
v alu
å¿ ħ
il d
Ġvari ous
å° ĳ
an y
æīĢ æľī
Ġsc en
Ġl ook
a king
Ġab st
Ġth ings
Ġse par
Ġtr y
as ing
Ġc rit
ob al
Ġb in
er ing
Ġap plied
Ġt rue
u c
æľ Ł
ff icient
å¹ ³
Ġwhe ther
åŃĹ ç¬¦
æµ ģ
è¯ ĳ
ur s
åħ¶ ä»ĸ
}} (
Ġdefin ition
Ġd ue
Ġarchitect ure
èĢ ĥ
qu ad
åĬ ©
Ġcon volution
æĭ ©
" >
Ġ ensure
åĨħ åŃĺ
ĠN ote
ru ction
Ġd er
è¯ ·
al le
pl ing
Ġ1 2
m ed
} ,\
Ġst yle
g ree
od ing
I n
éĢī æĭ©
Ġa verage
Ġimplement ation
3 2
Ġa round
Ġv alid
Ġdef ine
ore m
am es
=" }
0 5
le vel
Ġwork s
ol ution
\ \
Ġcalc ul
Ġembed ding
Ġd own
å·¥ ä½ľ
t op
Ġj ob
Ġt re
pl it
ĠP ython
ĠW ith
æµ ĭ
o ol
Ġcont inu
Ġma king
Ġgrad ient
ft y
åı ¥
plic it
ä¼ ł
åĽ ¾
ç»ĵ æŀĦ
em s
S S
Ġre ally
Ġa ction
Ġweight s
è® ¤
Ġor gan
Ġma kes
äº ¤
ff ect
æĭ ¬
Ġcl os
å¥½ çļĦ
Ġno ise
ch an
åĢ Ļ
Ġ ut
in fty
Ġn odes
Ġr ange
ĠS ince
Ġway s
Ġsat isf
Ġdet ect
è§ Ħ
æł ¹
å· ²
Ġb rain
Ġsom ething
Ġcomplex ity
Ġf ield
iz es
Ġt imes
Ġc ategor
part ial
ĠTh at
Ġbehav ior
Ġne g
æ° ´
è¯ Ĩ
Ġoptim al
ĠT able
as ter
] :
Ġsa id
ra ction
x i
å¯ ¼
0 4
se qu
er y
ab or
Ġter m
Ġn ormal
æĺ¯ ä¸Ģä¸ª
Ġind epend
an c
{ }
ver se
g ence
ask ell
Ġinter pre
or ing
Ġf re
æĬ Ĭ
Ġk ern
s ing
èµ Ħ
Ġpat h
Ġprocess ing
Ġme chan
ist ics
Ġallow s
è¿ĩ ç¨ĭ
Ġs elf
Ġstr ong
æĢ »
æŀ Ĳ
è¿Ļ æł·
Ġw rite
è º
sp ace
pp ing
æĬĢ æľ¯
æĥħ åĨµ
. \
å® ī
i res
ç Ĭ
Ġl ower
çĶ µ
è¿ °
Ġac ross
ç ĥ
åį ³
éĽ Ĩ
Ġdet ection
v al
Ġpattern s
olog ical
Ġpos itive
ore d
Ġpro f
Ġth us
E E
æ Ł¥
Ġg r
" .
Ġprovid es
Ġc ustom
t le
è½ ¬
y stem
Ġd imension
m ing
å¦Ĥ ä½ķ
iv ity
r angle
è¿Ĳ è¡Į
ĠH askell
ĠTh us
Ġdiffere nce
l ight
Ġcomp ared
\ ].
rac k
å¤ ©
åľ º
æĶ ¯
* ~
Ġd one
åĽł æŃ¤
Ġpos ition
èº «
åĿ Ĺ
å¼ º
in ally
è £
æīĢ ä»¥
Ġc ount
Ġdeter min
å £
Ġm ot
åıĤ æķ°
iv al
Ġinst ead
Ġ& =
E R
um ber
Ġ çļĦ
ç® ¡
Ġre ma
ç½ ĳ
Ġ\[ ],
Ġd id
ust r
Ġb ook
æĶ ¶
us iness
Ġbel ie
o pt
2 4
read y
æī ĭ
éĩį è¦ģ
å®ĥ ä»¬
Ġmat ch
Ġ ill
F ig
Ġr ather
Ġne cess
Ġdist ance
Ġclus ter
ag n
å¯¹ äºİ
Ġcan not
è İ
ç Ī
å½ ±
Ġst re
Ġpro ced
åı ·
n abl
t ies
el i
Ġredu ce
æĸĩ ä»¶
Ġp ur
Ġide a
Ġchall eng
Ġuse ful
oper ator
Ġs ocial
her s
æį ¢
Ġvers ion
th ough
Ġ ess
om m
Ġam ount
ä¸ ī
in ed
Ġexpl ain
et s
Ġinv est
nabl a
è® º
Ġcomput ation
éª Į
is ing
æĢ Ŀ
} )$
A S
åĲ Ħ
Ġ[ ^
Ġdevelop ed
Ġ\ {
Ġf ar
Ġal ready
Ġe ither
idd en
g a
an e
Ġ â
Ð¾ Ð
Ġem ploy
Ġs it
at h
æķ° ç»Ħ
Ġ )
he mat
Ġm ark
Ġt ree
Ġat ta
èĥ½ å¤Ł
Ġrel ated
æī ¾
åı Ĺ
Ġcommun ic
Ġc apt
Ġele ments
alle l
ĠC NN
Ġatt ention
du ct
Ġr ules
ar ray
end ed
ĠS im
åĪ ©
operator name
ä¾ĭ å¦Ĥ
ay es
] )
Ġd ra
ä»ĸ ä»¬
éĶ Ļ
ut h
s id
Ġw id
re g
Ġl ength
Ġv ide
Ġag ent
Ġre pl
Ġdescrib ed
Ġfin al
ĠThere fore
it ed
Ġex p
d ots
ï¼ Ł
text bf
åºĶ è¯¥
el ine
6 4
æİ Ĵ
éĤ£ ä¹Ī
Ġbec ome
äº Į
æĸ Ń
a ction
ĠN e
Ġg row
ap s
Ġex act
Ġdirect ly
æĹ¶ åĢĻ
Ġst ates
Ġgener ate
Ġg en
ä¸į æĺ¯
h i
Ġconsid ered
Ġext ract
v ar
è¿ Ķ
6 0
ä¸¤ ä¸ª
Ġcont rib
åĨ į
Ġc ur
' ll
cept ion
M L
Ġpro m
Ġacc ording
Ġha pp
Ġg ive
Ġ5 0
ç« ł
æĿ ¡
Ñ ģ
ast ic
le t
b it
Ġhum ans
ict ion
}^ {\
Ġqu ality
at ic
Ġs ense
è¿Ķ åĽŀ
um n
Ġgl obal
od el
è Ī
im age
. $
Ġr is
ho od
Ġf ac
201 4
ĠR ec
Ġgo al
Ġc ar
r imin
ut es
Ġc our
ĠA ll
Ġma p
ra d
Ġmach ines
Ġst eps
201 9
Ġen ough
ĠA t
åĩ Ĩ
Ġset ting
ĠC an
w ards
Ġf am
ç¾ İ
n on
Ð ½
Ġexper ience
p ly
Ġful l
ç®Ģ åįķ
Ġt urn
Ġfix ed
}^{ (
åĪĽ å»º
mb ox
æľ į
ic i
åħĥ ç´ł
o pe
å¢ ĥ
ĠWh ile
å¢ ŀ
åĲ ¦
ĠLe arning
åĮħ æĭ¬
éĻ ¤
ç ²
Ġli br
Ġlearn ed
åŁ Ł
å± ŀ
Ġ\[ [@
iv ed
dition al
Ġachie ve
Ġc are
Ġbuil d
P U
l ing
å¸ ®
Ġsub ject
p oint
å¼ Ĥ
si b
is hed
Ġ ener
~ ~
l angle
Ġpolic y
Ġspe ech
Ġcomput ational
çĬ ¶
ç®Ĺ æ³ķ
se c
èĩªå·± çļĦ
Ġo pen
ĠIn st
at er
Ġm ov
a pe
Ġlarg er
åĲĮ æĹ¶
è¿Ļ ç§į
ä¹ ¦
i k
Ġevalu ation
V M
id ence
ps ilon
Ġpro of
Ñ Ģ
Ġ{ {\
c ent
f for
ve c
Ġn ame
Ġab ility
) ^
Ġto get
Ġtoget her
' ve
Ġr ule
Ġchang es
Ġle ft
Ġcondition s
it al
Ġtrans form
Ġconst ant
si an
Ġam ong
4 0
Ġspec ial
Ġrequ ires
Ġcontain s
vers ar
' ,
Ġneed s
b e
æĪĸ èĢħ
ç ĭ
t rain
Ġcomput ing
Ġsc he
ri es
od y
åı į
Ġv ia
Ġaddition al
Ġact ually
æ »
em pt
è® ¸
Ġatt rib
è§£ åĨ³
ç« ĭ
ä¿¡ æģ¯
Ġgo ing
ic ro
Ġfe ed
se e
* .
ç¼ĸ è¯ĳ
Ġ u
res h
math sf
m er
Ġf our
b y
Ġ\ |
Ġh ist
S igma
è£ ħ
éĥ¨ åĪĨ
V ert
d ay
åº ĵ
e e
Ġ es
Ġpre c
ul l
ot t
ome ga
} =
7 5
at ively
Ġproper ties
r ast
ĠS h
åĬŁ èĥ½
. []{
: "
åĵ į
ä¸ ²
Ġs ays
Ġdes igned
Ġrelations hip
èİ ·
ar ies
å ĸ
Ġsh ort
Ġrequ ired
éĿ¢ çļĦ
Ġapp ear
Ġpri v
\ {
éĩ Ĭ
Ġclassif ier
Ġexist ing
ĠT r
Ġener gy
iqu e
Ġph ys
Ġev ent
Ġfact or
arg in
Ġto tal
ä»¥ ä¸ĭ
ĠE ng
è® ®
ç§ °
Ġtak es
Ġus ers
Ġb usiness
Ġprovid ed
c ol
ĠP er
Ġexperim ent
Ġhow ever
' m
Ġthe ory
v are
I T
iel ds
Ġden ot
åı ¸
åĲ «
ĠS u
é »
Ġh idden
æĺ ĵ
C A
çĶ¨ æĪ·
æł¹ æį®
P ython
å ķ
abil ities
Ġhy per
æ¡ Ī
Ġre st
Ġinteg r
æ° Ķ
ic le
vare psilon
Ġpro pose
Ġunderstand ing
Ġsu per
Ġpresent ed
Ġbl ock
ç»ĵ æŀľ
le x
ĠA pp
Ġsim ul
m ost
ç ģ
}} }}
versar ial
Ġlik ely
P I
w ay
Ġ ver
åĩ ł
Ġsc ience
Ġkern el
om et
Ġl ife
Ġtest ing
B ig
ĠPro gram
æ¯ı ä¸ª
in ter
Ġfre qu
Ġre ce
on d
èĩ ´
re l
Ġeas y
ĠN ew
Ġb ig
æ¸ ħ
Ġv ol
Ġse en
Ġtool s
um ents
th ing
Ġm ove
Ġcompar ison
Ġse c
de f
Ġind ust
ä¿ ®
\ !
åĳ ½
Ġc ross
Ġansw er
Ġl ot
çº §
igh b
Ġc ell
Ġsim ply
p ri
Ġits elf
Ġwrit ten
imension al
çİ ĩ
Ġ$ {
Ġ3 0
Ġf ail
m et
par amet
u g
åĪĨ æŀĲ
j or
Ġwork ing
è§ Ĥ
l ength
è¯ Ŀ
Ġsign al
çİ¯ å¢ĥ
f e
Ġav oid
ç» ´
Ġvect ors
Ġ1 5
å¿ «
are nt
b l
v ant
Ġse gment
aus sian
Ġb re
Ġrob ust
Ġagain st
Ġexpect ed
og raph
n al
Ġbe g
éĺ Ł
è® °
C R
Ġstrate gy
S cript
ag ing
Ġrese arc
Ġele ment
2 3
c er
æ¨¡ å¼ı
åħ¬ åı¸
Ġse lection
æ £
Ġsol utions
è Į
ir d
Ġdisc rimin
w or
) =
li ke
pt h
ĠF irst
Ġbin ary
Ġacc ount
Ġperson al
ĠF urther
ä»¥ åıĬ
y pe
ĠB e
Ġf ace
if t
çļĦ æĺ¯
Ġwh y
Ġ( $
ĠB ayes
é ĵ
p si
Ġobject ive
éĴ Ī
A T
Ġabst ract
p ot
Ġoper ations
ĠF inally
Ġspe ed
Ġz ero
æ· ±
Ġauth or
Ġful ly
å¸® åĬ©
è¯ ģ
Ġdesc ript
çĦ¶ åĲİ
é ¥
Ġnum bers
è ĭ
Ġd ig
ä» ·
Ġeffect ive
Ġdetail s
Ġassoci ated
og le
Ġsol ve
8 9
Ġeng ine
A I
å¤ ĩ
Ġadvan ta
S E
éĢ Ł
è Ħ
Ġapp ly
æŁ Ĳ
Ġpo ly
ĠM ach
t ic
å± Ĥ
Ġcol lect
m ore
Ġill ustr
Ġg ame
éĶ ®
æī į
] $
Ġin ference
Ġacc ur
olog ies
al k
Ġal ong
is c
Ġrec ent
Ġha ving
åĪ Ŀ
Ġrec omm
Ġcomp are
ind ow
s on
i ate
ir t
åħ ±
Ġlabel s
Ġincre asing
Ġm us
ion al
o h
ac y
ur ity
Ġ eth
and s
Ġf ore
ST M
å® ¢
Ġneg ative
Ġreg ression
ĠD ata
Ġs ort
p d
su pervised
a z
æİ ¨
Ġrepresent ations
Ġ q
Ġdoes n
Ġfunction al
ç» Ĩ
Ġequ ival
ing u
ĠN etwork
Ġcour se
åĨħ å®¹
E x
Ġpr inc
oun ds
) (
w h
4 5
0 9
ĠE ach
Ġfil ter
d imensional
Ġ1 6
Ġsc ient
å¼Ģ å§ĭ
Ġbec om
Ġe p
éĻ ħ
å¾Ī å¤ļ
å¸ Ĥ
æĹ ¥
é¦ ĸ
Ġm ess
Ġincre ase
3 5
ä½ľ ä¸º
Ġma jor
Ġpl ace
Ġd ri
Ġke ep
Ġp ix
line ar
å·² ç»ı
c m
b ject
m it
Ġl oo
Ġc aus
s ens
æĸ Ļ
pl ies
çķ Į
n u
åı ¦
I D
er ial
è¡¨ è¾¾
Ġcompon ents
Ġf l
Ġ vert
æķ Ļ
Ġother s
pos ition
re t
w ide
Ġf it
Ġquest ions
åİ Ĩ
è¯ ¯
ĠA rt
un ction
ä¸įåĲĮ çļĦ
å½± åĵį
Ġconc ern
åĽ ½
ce ed
Ġ$ {{\
Ġcomput e
çĲĨ è§£
Ġus ually
Ġsit u
Ġre ference
Ġis su
im its
ĠN ow
Ġpop ular
c hes
\ ],
é£ Ł
ç» §
çĶ¨ äºİ
}} {\
8 5
Ġs ide
ĠO ver
Ġmean ing
er ve
l ed
ä¹ĭ éĹ´
Ġwho le
Ġ edge
. )
Ġro w
ä» ¤
èĩ ³
gorith m
cl usion
Ł ³
$ )
Ġperform ed
Ġhe ad
ç±» çļĦ
æİ §
ĠS ome
ä» ħ
ar se
8 4
Ġon line
Ġa ctions
e arch
Ġk ind
ä»» åĬ¡
Ġex plicit
Ġbas ic
g er
Ġcomp et
Ġproced ure
Ġindepend ent
Ġassum e
è¡¨ ç¤º
Ġevalu ate
Ġconvolution al
2 9
Ġb it
Ġp ut
Ġpar allel
8 7
Ġsim pl
Ġf ile
Ġe ffor
con om
age ment
ã ģ
Ġobserv ed
å¾ ª
Ġare as
6 5
Ġimplement ed
Ġsub set
eg a
Ġlit er
ä¾ ¿
Ġsent ence
Ġne ighb
Ġform ul
Ġcho ice
re c
I N
Ġneed ed
æľį åĬ¡
è§ ģ
Ġent ire
ĠE n
Ġsk ill
Ġvide o
çĲ ĥ
äº Ĵ
hes is
Ġinc or
Ġare a
Ġcle ar
per form
äºĨ è§£
Ġsy mbol
ç¤ ¾
end s
Ġcol l
é¡ »
Ġneur ons
P ro
Ġpr int
g ing
æ¯Ķ è¾ĥ
0 7
Ġne ver
Ġres ources
at form
Ġscal e
Ġexpress ion
Ġass ign
Ġal tern
æ³¨ æĦı
å¸ ¦
Ġche ck
2 7
over line
æİ¥ åı£
è Ĳ
S t
ens ity
ĠTr ans
é£ İ
Ġissu es
mat rix
åŃĹç¬¦ ä¸²
Ġmat hemat
; \
Ġcon v
Ġun it
Ġsam pling
Ġanalyz e
Ġestim ate
Ġstr ing
}} ,
Ġa im
Ġsmall er
Ġconstrain ts
ç ¦
}} )
ne w
éĥ½ æĺ¯
. *
åŃĺ åľ¨
æĶ¯ æĮģ
u ro
k now
ĠG aussian
ä¸» è¦ģ
[ ^
ĠR ob
Ġcommun ity
Ġsemant ic
Ġa u
æıĲ é«ĺ
on al
p ir
ib ility
or ies
Ġpract ice
çľ Ł
Ġa ffect
Ġprocess es
6 7
am ple
P hi
Ġch ann
pl ay
b ox
Ġmaxim um
O m
Ġcol umn
ĠSc ience
ĠF rom
ici ency
sub set
Ġwrit ing
ex p
le arning
C on
fere nces
non umber
g round
Ġdynam ic
è ĥ
âĢ ľ
âĢ Ŀ
o ff
Ġoper ation
å¿ħ é¡»
re en
it ing
Ġc y
Ġtrans lation
Ġcre ated
Ġ2 5
re n
Ġestim ation
æ¯Ķ å¦Ĥ
Ġinterest ing
Ġs w
éļ ¾
ĠT echn
Ġdat ab
ï¼ ī
Ġb o
Ġsyn ta
Ġag ents
is ions
id es
t able
Ġf low
Ġlo op
Ġde cl
ve x
Ġselect ed
æ ¼
for ce
Ġthere fore
iz ations
Ġequ al
æĬ ¤
åŁº æľ¬
Ġerr ors
ä»» ä½ķ
t on
cal e
Ġind ex
Ġt reat
Ġcomput ed
Ġconver gence
Ġstruct ures
ult s
Ġnecess ary
Ġsignificant ly
or ph
ĠRes earch
Ġon es
Ġcom e
å ĥ
Ġscen ari
:" ){
Om ega
å®ī åħ¨
m id
L P
g ress
Ġinvest ig
Ġun ique
al se
Ġeas ily
æ¶ Ī
ç Ļ
if ically
Ġden ote
Ġprodu ce
ĠGo ogle
Ġth read
; ">
Ġess ential
in ing
Ġm ix
Ġg round
3 4
i ers
Ġem ot
=" ;">
in king
æ ¦Ĥ
ful ly
è¶ ³
Ġc am
ç§ ĳ
ĠA r
) }\
Ġupd ate
è· ¯
Ġris k
ens ive
Ġbuil ding
Ġnot e
Ġan not
ç» Ń
A C
æ¸ ¸
ip s
Ġf ree
Ġbel ow
n et
Ã ©
iv ing
Ġqu ite
Ġsy nt
Ġresearc hers
S P
Ġar ray
ens or
ä½ł çļĦ
pec ially
Ġc irc
N I
ä» ĭ
Ġproper ty
æĿ Ĥ
Ġre view
Ġg ives
æĺ¯ åĲ¦
Ġre fer
æī ĵ
Ġsu pp
ier arch
Ġ her
ĠS ystem
è į
201 3
O P
å®Į æĪĲ
Ġcomput ers
åĥ ı
åħ³ ç³»
å¹¶ ä¸Ķ
r ing
on om
Ġinst ances
ist ical
math it
Ġb ase
a h
Ġcomp os
å¼ķ çĶ¨
è® ¿
Ġe arly
ĠP h
Ġs he
Ġgener ation
Ġinter face
op y
Ġintrodu ced
Ġlimit ed
ur b
st ruct
Ġapproxim ation
æ Ĳ
Ġcontinu ous
A M
ä¸º äºĨ
Ġno vel
Ġbeg in
G amma
Ġs us
Ġro le
è¯Ń åı¥
ĠEx per
ï¼ Ī
è½ ¯
Ġad versarial
Ġrecomm end
è§ Ĩ
Ġf ig
Ġarg ument
Ġcompil er
Ġresult ing
Ġrepres ents
Ġrele vant
Ġ\ ,
Ġas pect
ĠThe orem
Ġsp ect
och astic
ord in
å£ °
ç ¥
Ġet c
9 5
å®ŀ ä¾ĭ
r ary
B M
Ġtechniqu e
id em
è¯ į
Ġdo ing
2 1
W e
Ġnum er
Ġtra ditional
or der
å±ŀ æĢ§
Ġdistrib utions
Ġcont ent
app a
Ġtrans ition
Ġd ocument
Ġte am
Ġrec on
è¶ Ĭ
l er
Ġth ing
\ }$
ĠDe ep
Ġpredict ions
Ġs qu
éĶ ģ
Ġlit tle
} |
ĠMore over
ç ħ
çļĦ æĹ¶åĢĻ
O S
m ark
è½ ½
ĠD es
Ġn am
Ġj oint
Ġf lo
Ġinput s
ç ĸ
åħ į
Ġ1 4
Ġth resh
ĠU sing
Ġhy pot
é¢ Ħ
åĳ ³
éĢļ å¸¸
Ġmod ule
Ġ1 3
Ġs ure
Ġpart s
Ġcomple te
æµĭ è¯ķ
å Ĥ¨
æĸ° çļĦ
éĹ ¨
Ġm ind
c up
Ġser ies
ç®¡ çĲĨ
Ġm ention
Ġis s
Ġpl atform
åıĳ å±ķ
æĺ ¾
}} {
w as
Ġprovid ing
Ġrespon se
irt ual
eli hood
Ġut il
Ġa ud
\ [
Ġiss ue
ellig ent
if orm
Ġde al
çĬ¶ æĢģ
ç©º éĹ´
é¢ Ĩ
Ġfin ding
Ġcompon ent
å®ļ çļĦ
know n
Ġpos sib
åĩ ı
n um
Ġoper ator
çĽ´ æİ¥
Ġ è¿Ļ
Ġstat ic
d i
) }$
éĶĻ è¯¯
on ts
èĥ½ åĬĽ
é¡¹ çĽ®
ĠMach ine
Ġeffect s
A P
set length
Ġun til
Ġad j
ĠN o
8 6
cd ots
t ical
pp ed
por al
un ing
ä¸į èĥ½
it le
Ġstud ents
Ġlat er
Ġon ce
a ult
èĻ ĳ
Ġcapt ure
æı ı
Ġm ill
Ġcons ists
Ġlog ic
0 6
Ġm iss
Ġf aster
åħ· æľī
Ġcl ose
Ġ( *
pl ed
å¤§ çļĦ
éļ ı
ud e
}} ^
Ġsp at
k appa
ä¸į ä¼ļ
Ġpair s
p ag
ens ions
Ġmain tain
Ġindividual s
ç´ ¢
min imal
åĳ ¢
æĻ ¯
O N
ç¨ĭåºı åĳĺ
Ġcho ose
Ġwh ose
m od
Ġcon fig
wide hat
Ġlevel s
Ġex ists
Ġ å¦Ĥæŀľ
Ġover all
Ġinclud es
ĠG iven
å®ŀ éĻħ
a im
y mb
re te
a ctions
E T
å¾ª çİ¯
Ġma ps
å®ĥ çļĦ
Ġt aking
}{ -
è®¿ éĹ®
ĠN ot
Ġqu ick
Ġbenef its
ar ant
å¸ ĥ
T h
Ġintrodu ce
Ġre ward
is es
Ġdevel oper
sens ors
Ġed uc
Ġde pth
Ġal most
Ġt able
Ġcomple t
k en
Ġcommunic ation
çİ° åľ¨
å¤į æĿĤ
Ġfe el
Ġiter ation
g ies
Ġch ild
ĠBayes ian
è´ ¹
Ġg ain
Ġdec re
os en
od ds
r sf
æī ¿
( "
Ġcont rast
rsf s
math rsfs
ä¹ Ĳ
bs y
document class
ff ic
Ġsu fficient
éĩ ĩ
am ss
am sf
ams math
amsf onts
ĠAl gorithm
amss ymb
ams bsy
he ad
gree k
Ġp ast
ç¼ĸ åĨĻ
Ġlat ent
Ġgroup s
_{ {\
up greek
8 3
Ġthe ore
æľ ª
Ġl ight
ys ym
was ysym
p ng
å¿ µ
Ġreg ard
em ma
idem argin
odds idemargin
Ġsimilar ity
]{} ]{}
Ġe conom
Ġconnect ed
ĠA cc
å»º è®®
å¤ ´
åĪ Ĵ
ĠIn tern
oc ks
Ġbuil t
å¤ ª
ĠA fter
Ġinf lu
Ġpr im
Ġexact ly
Ġeff iciency
éĻ Ĳ
ĠG ener
i i
__ __
ĠI s
ĠComput er
Ġes pecially
Ġbecom es
Ġf ast
Ġbi as
äº§ åĵģ
çī Ī
Ġab s
Ġdistrib uted
I F
èģ Ķ
åĮħ åĲ«
2 6
}) \
è¾ĵ åħ¥
an ies
å¯¹è±¡ çļĦ
st ar
ĠC ol
Ġprof ess
i ke
se m
ä½ľ çĶ¨
Ġdescrib e
Ġart icle
Ġh ar
Ġchalleng es
è½ ¦
éĢ Ĵ
Ġs oci
Ġof fer
ar ily
s ide
Ġfin ite
v ious
Ġprinc i
Ġlibr ary
Ġcon duct
Ġachie ved
çŁ¥ éģĵ
b ib
ä¼ ¼
Ġinter act
èĮ ĥ
Ġre d
c le
D P
m ine
7 0
C NN
Ġout perform
Ġbas eline
Ġfact ors
Ġrepresent ed
äº «
Ġh olds
Ġappro pri
Ġph ase
ĠE q
Ġex c
2 8
Ġtrans fer
ĠFurther more
g o
é Ł³
Ġgu arant
ä½ İ
Ġcon vers
ä¾ Ŀ
I C
R e
Ġy et
Ġmechan ism
i ation
ra p
Ġs l
ĠInt elligence
Ġt ell
Ġhigh ly
Ġcomp any
æĽ´ åĬł
cl us
Ġev ents
s elf
pd f
Ġ2 4
er ior
ç Ł
Ġ$\ {
æĻ º
il de
Ġinterpre t
ult i
å± Ģ
ç¡ Ģ
Ġautom at
a ut
åŁº ç¡Ģ
er c
en ge
so ft
Ġcluster ing
ä¸ ĵ
Ġtak en
201 2
Ġd ay
ä¸Ģ ä¸ĭ
æĿ¥ è¯´
Ġsequ ences
is p
Ġass ist
Ġaccur ate
re am
Ġse ems
ĠO r
ĠArt ificial
Ġvari ance
Ġdec isions
The ta
Ġf air
æĪĳä»¬ åı¯ä»¥
c ome
Ġcombin ation
im ate
Ġrun ning
not her
Ġtechn ologies
Ġcan d
æ£ Ģ
] ).
s m
ĠD o
s er
b i
çĭ ¬
3 9
æĮ ī
Ġas k
æľĢ åĲİ
æİ§ åĪ¶
Ġreg ion
\ %
Ġrandom ly
Ġst ack
æ» ¡
Ġinteg er
ch ron
åħ³ éĶ®
' $
è§ Ĵ
Ġconstrain t
) -
ä¹Ł æĺ¯
ĠAl though
çŃ Ķ
è¾ĵ åĩº
Ġr at
Ġd el
ç» Ī
æĮĩ éĴĪ
å ł
om ial
C M
Ġmark et
Ġe lect
ç» į
ur ation
Ġh ierarch
å Ķ
{ {
um an
Ġre str
æŀ ģ
ä»ĭ ç»į
çŁ¥ è¯Ĩ
ç ¯
Ġstud ies
Ġadd ed
Ġequival ent
i ences
Ġac cept
Ġeth ical
il i
èĢĥ èĻĳ
ç² ¾
Ġ ~
ous ly
o oth
c ks
Ġel se
ric es
Ġpl an
Ġvalid ation
c are
å·¥ åħ·
Ġde gree
Ġphys ical
Ġexpl ore
ar l
Ġincor por
Ġcom es
Ġcol lection
ĠQ u
Ġcand id
ĠA nother
L E
Ġmodel ing
Ġmat erial
æ ¤
åĳ Ĭ
Ġb ro
æŀ ¶
for all
0 8
3 7
M M
var phi
D A
g ed
ĠL emma
Ġtrans l
Ġdeter mine
Ġstat istical
Ġskill s
i able
Ġun its
y p
åħ· ä½ĵ
Ġch osen
r r
b ra
Ġpartic ip
c irc
Ġl ink
æĺ Ł
line width
u es
ĠExper im
åģ ¥
Ġ Â
èĬ ±
ogn itive
Ġbehav i
Ġcre ating
è ı
ĠSim ilar
Ġev olution
Ġactiv ation
ay er
ç» ĥ
pr int
åĪ ĩ
åĵ ª
Ġdire ction
çĶŁ æĪĲ
æĽ´ å¤ļ
Ġc ore
å° ½
Ġs low
è¿Ĳ ç®Ĺ
Ġtyp ically
cess ing
Ġvari ety
pon e
Ġspe ak
Ġen h
end ing
s k
æł ¸
Ġfeed back
Ġg e
åŃĺ åĤ¨
Ġc over
Ġfun d
C l
Ġadvanta ge
}$ \
Ġn ature
Ġpract ical
Ġv ision
çĽ® æłĩ
å¾Ĺ åĪ°
G AN
Ġauth ors
å½ ķ
enc ies
Ġcon sum
Ġb ox
Ð »
oun ter
Ġstrate gies
æĸ¹ éĿ¢
ri e
çĽ¸ åħ³
åı °
Ġl ines
Ġpro ve
Ġben ch
Ġeas ier
æł Ī
Ġn orm
è½¯ ä»¶
Ġatt empt
Ġb ody
* )
it or
æĪĳä»¬ çļĦ
æıı è¿°
oh n
el ves
æľ Ľ
Ġmatch ing
å¹ ¿
Ġimport ance
un der
æĿ Ĳ
Ġgener ally
ĠT uring
Ġw on
s es
}} ^{
Ġest abl
ct or
ag ed
Ġsec urity
Ġdemonstr ate
r ics
4 9
Ġsegment ation
pport un
Ġloc ation
et ilde
e ed
wid etilde
Ġpost erior
Ġpro gress
Ġco ordin
Ġthough t
O R
Ġjob s
rop y
Ġide as
Ġre ach
åķ Ĩ
Ġpower ful
Ġex pon
an ced
é¦ĸ åħĪ
em ber
Ġ1 7
Ġad opt
éģ ¿
et ic
ĠM at
c he
ĠNe ural
é ©
angu age
Ġdatab ase
Ġrem ov
st yle
Ġmat rices
f ect
rodu ction
Ġm om
iz er
ĠP l
Ġv irtual
æĺ¯ ä¸Ģç§į
Ġin equ
Ġm ut
æĺ¯ ä¸Ģ
it ute
3 6
éĶ Ģ
Ġed ges
Ġem pir
ann ing
ç§ ¯
ta int
Ġatta ck
Ġar bit
en e
Ġdra w
Ġco e
äº§ çĶŁ
' )
Ġqu ery
Ġex cept
åĩº çİ°
Ġto day
ĠProgram ming
çĶ± äºİ
L U
ĠM odel
*]{} ,
l ish
Ġsub st
ä» ½
Ġcomp anies
æİĴ åºı
Ġun iform
Ġlead s
Ġthresh old
Ġsp arse
A E
Ġem er
at ory
Ġcol or
ä¸Ĭ çļĦ
/ \
Ġf ine
s cale
Ġbas is
Ġoutput s
ify ing
Ġreg ions
ou ra
n ov
Ġc ult
Ġcontro ll
åħ¶ ä¸Ń
å¯¼ èĩ´
Ġf ive
Ġrel ation
Ġparticular ly
Ġto wards
iven ess
] ;
Ġcom b
Ġmeas ures
ch ool
Ġst ochastic
ma p
ac ed
Ġexec ution
Ġcont in
ĠB l
Ġassum ption
l n
Ġmet ric
r ation
å¦Ĥ ä¸ĭ
} -
éĵ ¾
Ġgu id
ĠM ark
w here
Ġprogramm ers
Ġde m
Ġr ank
L e
çļĦ ä»£çłģ
Ġimprove ment
è§ ī
çļĦ æĸ¹æ³ķ
Ġ[ [
Ġexpl o
D E
æĬ ½
ç Į
Ġup per
æ¨¡ åŀĭ
l imits
å¤ļ ä¸ª
ä¸ ĸ
Ġcrit ical
Ġo pportun
it ch
P S
è® ²
er a
oc al
ç¯ ĩ
Ġs ources
è¾ ĳ
Ġo ld
Ġsh ared
ĠH ence
pr ime
P R
Ġse em
Ġma pping
çł Ķ
Ġindust ry
7 9
ig en
Ġsol ving
Ġactiv ity
ĠCon sid
i od
} =\
Ġsche me
Ġbelie ve
s plit
åħ ī
Ġimpro ved
s pec
ç« ¯
h ib
ç§ »
or n
Ġ ;
æľī ä¸Ģä¸ª
éĿ Ļ
Ġwe ak
ĠCom p
a u
Ġdist in
Ġdenot es
h ing
Ġman agement
éĩ ĳ
Ġspat ial
c ap
ĠCl ass
Ġloo king
Ġ ]{}
Ġscore s
æ¬ ¢
è¿Ļ éĩĮ
us e
G D
Ġcustom er
Ġmus ic
ĠAn al
p us
Ġcl aim
Ġhist ory
is ms
w ith
ou d
åĲĦ ç§į
è¿Ľ ç¨ĭ
Ġevalu ated
Ġquant um
Ġconcept s
Ġtest s
}^ \
Ġfor ward
Ġiter ations
Ġsynta x
Ġb atch
éľĢ æ±Ĥ
Ġrel ative
Ġcon vex
å¾ Ģ
èµĦ æºĲ
åıĳ çİ°
Ġst ore
a f
Ġm is
le ase
Ġserv ice
æĪĲ åĳĺ
ne q
Ġst age
Ġ ç¬¬
è¿ ŀ
Ġminim um
Ġth ird
ograph y
çļĦ äºº
ĠO ther
Ġrec ently
ĠOver all
Ġdiscuss ed
Ġappropri ate
ä¿Ŀ æĮģ
Ġunder lying
Ġsum mar
Ġre pe
Ġl aw
Ġact ual
n c
C om
c hed
æŀĦ éĢł
ĠS pec
lo ad
ĠO bject
Ġ _
ar ing
}} }\
at t
b u
æľ Ī
valu e
subset eq
ient ed
å¼Ĥ å¸¸
Ġfig ure
Ġp ort
æĸĩ ç«ł
y ond
çĶŁ æ´»
ä¾ĭ åŃĲ
ott om
Ġd ensity
Ġsy m
H P
Ġarchitect ures
Ġpo ol
è¡¨è¾¾ å¼ı
ec ause
Ġext re
éģ¿ åħį
Ġgraph s
w ord
our s
it able
Ġm ental
g ener
C C
Ġpredict ed
Ġhapp en
å ¡
se mb
Ġautomat ically
Ġins ight
è®¡ç®Ĺ æľº
al f
Ġsepar ate
="} ](
ĠIn d
A L
cer taint
9 0
Ġexperim ental
ĠY es
Ġlead ing
Ġf ields
Ġembedding s
Ġdynam ics
ĠL STM
Ġrec urs
Ġgreat er
Ġs plit
ĠJava Script
t est
Ġincre ases
in ite
el ines
Ġbre ak
Ġdec om
Ġ4 0
Ġdepend s
Ġint elligent
Ġ å½ĵ
Ġ1 8
Ġinter action
è§£ éĩĬ
è¿ĺ æĺ¯
ari ance
Ġp ie
Ġpur pose
çŃ ĸ
ĠAl so
m m
t ings
O C
Ġau gment
Ġw ater
åį ı
å¸ Į
çķ ¥
Ġhand le
Ġarg uments
ç¦ »
ĠM e
O M
ĠM on
Ġf ood
Ġ$ (\
ç© ¶
Ġlik elihood
Ġprob ably
Ġprev ent
g s
åħ ħ
st e
Ġt itle
Ġsign als
å¢ŀ åĬł
et er
åĽ ´
Ġocc ur
Ġdiffere nces
Ġform al
\] )
Ġrestr ict
æ¨¡ åĿĹ
è®¸ å¤ļ
\ }
è¡Į ä¸º
wor ld
Ġass ess
ĠM L
Ġeffect ively
ĠInt roduction
ĠS p
Ġprogramm er
Ġsa f
è½ »
Ġp p
Ġcrit er
å¤ ±
è®¤ ä¸º
Ġlong er
æĿ¡ ä»¶
l and
o ot
Ġsim ulation
åį ĩ
Ġall oc
Ġcoll abor
Ġchall enge
Ġim plies
ĠM icro
r id
ä¹ĭ åīį
å£° æĺİ
Ġ %
ç»§ æī¿
çħ §
Ġregular ization
4 8
s l
e es
Ġsh are
Ġfram e
ç¼ĸç¨ĭ è¯Ńè¨Ģ
Ġdev ices
çī ĩ
å¸ Ī
}( {\
ä¹Ł åı¯ä»¥
Ġprot ect
Ġobserv ations
Ġt rac
çļĦ æķ°æį®
Ġstate ment
åıĳ çĶŁ
ĠA ut
Ġequ ation
al e
åĽ ¢
å®¹ æĺĵ
Ñ ĥ
Ġpop ulation
ç ª
èĻ ļ
Ġdi ag
Ġpart ition
Ġredu ction
Ġal ign
æĻº èĥ½
Ġbl ocks
åĨħ éĥ¨
æĢ§ èĥ½
Ð° Ð
çº ¦
is ual
om in
}} $,
è ¥
Ġper cent
he tic
æĪ ı
a res
n ection
Ġquick ly
è¿ ĳ
èµ· æĿ¥
è¥ ¿
for ward
Ġad ding
dition ally
n omial
Ġper iod
Ġfam ily
end ix
r ong
sc ript
çĪ ±
Ġback ground
force ment
æĥħåĨµ ä¸ĭ
n o
plic ation
om s
Ġch ain
ĠD ef
h a
Ġlabel ed
æł ĳ
å½ Ĵ
n eg
b ook
at ives
ĠWe b
u ff
Ġsh ape
om en
Ġliter ature
ĠA PI
ir ing
pt ions
Ġtem poral
æ¦Ĥ å¿µ
Ġdevelop ing
ic les
çĶ¨ çļĦ
è¾ ¹
o le
S A
Ġref lect
æķ° åŃĹ
Ġconsist ent
èģ Į
4 7
Ġserv ices
Ġep och
z z
Ġw ar
Ġâ Ī
Ġgo ver
Ġmed ical
Ġcondition al
æĹł æ³ķ
Ġman ner
v ent
Ġcon sequ
èĪ ¬
il ities
è¯Ń æ³ķ
Ġwe b
Ġtr uth
æłĩ åĩĨ
Ġth inking
3 1
f act
Ġwid ely
Ġis n
le ment
Ġin du
Ġf alse
Fig ure
Ġtre es
Ġmention ed
Ġs light
Ġtrans formation
\ ,
9 7
å¾ ħ
un e
Ġsu pervised
Ġexper t
çļĦ éĹ®é¢ĺ
Ġtry ing
ell ing
Ġexpl an
S R
Ġhealth care
ĠR eg
Ġapp lying
ç» ľ
åĸ ľ
ĠTechn ology
Ġdomain s
Ġobs erve
é¢Ĩ åŁŁ
g reg
ru ctions
Ġqu e
Ġestim ated
Ġattrib utes
Ġde ploy
Ġb al
Ġobserv ation
}} }$
P i
I M
Ġoff ers
Ġrepl ace
" )
Ġor d
äºĨ ä¸Ģä¸ª
Ġtop ic
Ġcategor ies
Ġd ou
Ġter min
oo ks
Ġmem bers
Ġdig ital
um e
ä½į ç½®
f it
ĠM ethod
ĠF e
os ing
Ġcategor y
ĠM od
è½¬ æį¢
Ġmot iv
d o
Ġhard ware
NN s
ä¸Ģ æ¬¡
Ġ3 2
ous e
Ġbel ong
s y
Ġmed ia
ĠW ork
}} (\
Ġperform s
Ġaltern ative
3 8
Ġn ames
Ġw ide
Ġredu ced
Ġs al
d d
ĠIm age
åı¯èĥ½ ä¼ļ
ç Ĺ
ç½ĳ ç»ľ
ĠEng lish
an ch
ç¡® ä¿Ŀ
Ġstart ing
Ġe ver
}_ \
Ġsus tain
Ġreport ed
æ¸¸ æĪı
Ġset tings
éĿ¢ åĲĳ
Ġrel atively
åı Ī
20 9
de ep
Ġne ar
åĳ ¨
med iate
æ ħ
ĠP ar
Ġpat ient
Ġw indow
Ġl ack
it ude
Ġ( [
ĠCon t
ĠM y
ä¿® æĶ¹
Ġsent ences
certaint y
Ġa way
st ruction
æĭ Ł
Ġsemant ics
ri end
' d
Ġsatisf y
Ġpers pect
èı ľ
è¯ Ħ
ä¹ĭ åĲİ
åĪĿ å§ĭ
Ġapproxim ate
Ġrat io
åł Ĩ
el er
èĩª åĬ¨
Ġf lex
Ġt rack
Ġd im
Ġper fect
Ġmat ter
Ġm ass
Ġ: =
éĢĤ åĲĪ
}} $.
Ġproduct s
Ġredu cing
Ġclassif iers
} [
ig m
ĠM O
ç¼ º
Ġany thing
èĩª çĦ¶
t ri
çļĦ åĢ¼
æĬ ¥
h ang
il it
ä¸ĭ éĿ¢
Ġpriv acy
Ġneur on
Ġtheore tical
Ġdescript ion
Ġdeveloper s
a it
Ġcontin ue
: *
åħ »
e k
o very
Ġgover n
ob ile
Ġt ag
Ġchalleng ing
in a
ä¸Ģ æł·
ĠR el
çĻ ½
em ent
ad em
Ġsoci ety
G o
çĥ Ń
b rack
æŃ ¢
Ġexpress ions
ä¹ĭ ä¸Ģ
201 0
Ġaut onom
Ġder iv
m ut
Ġr ates
å®¢ æĪ·
åĪĨ éħį
ä¸Ģ èĪ¬
Ġfollow ed
Ġc ognitive
Ñ ı
Ġfrequ ency
, -
Ġm eta
æĪ ĺ
Ġr an
c o
Ġh old
app ro
Ġfund am
æĪĲ ä¸º
äºº çļĦ
Ġm agn
Ġinterest ed
åħ³ äºİ
Ġmess age
Ġenviron ments
ĠB ecause
Ġc r
) =\
æ· »
c ast
Ġc ou
æ¡ Ĩ
Ġv ary
æĬ½ è±¡
Ġcorre lation
Ġins ide
ĠConsid er
æ Ĥ
åĩ½æķ° çļĦ
Ġgeneral ization
Ġenc oder
pag ation
=" \
os ed
Ġeduc ation
è® Ń
text rm
Ġpoly nomial
9 6
é¡ º
d ed
æĸĩ æľ¬
Ġl and
b b
Ġb ounds
åĪĹ è¡¨
æĪ ¿
Ġinvol ved
Ġdi agn
{ (
å¯ Ĩ
Ġact ive
h aps
oc ol
Ġarbit rary
] \
Ġev idence
j ava
ĠJ ohn
Ġprevious ly
åĪ© çĶ¨
con t
Ġbenef it
çľĭ åĪ°
Ġret rie
ĠE qu
Ġcomplet ely
Ġbound ed
plic ations
idd le
u it
Ġexpon ential
Ġinequ ality
ac c
Ġchann el
ul ate
Ġrelationship s
Ġwork ers
Ġother wise
EE E
Ġlo ad
æĸ¹ æ¡Ī
ĠIn ter
Ġoptim ize
æī¾ åĪ°
ĠT est
åº ·
æľº åĻ¨
ĠRes ults
ow ered
Ġit ems
]{} ,
äºº ä»¬
Ġcorrespon ds
9 8
éĩįè¦ģ çļĦ
Ġ- \
Ġdef ault
p ol
s ize
å· ®
pl ace
Ñ ĭ
) ^{
Ġinclud ed
ĠA g
) }{
Ġinvol ves
a i
Ġhypot hesis
åĪ ¤
Ġmom ent
æī ©
Ġc ov
åŃ ©
on es
R L
Ġb its
ish ing
Ġp arent
ve y
ĠP art
ĠSu pp
Ġper t
Ġcorrespon d
é ¸
Ġv s
rain ing
NI ST
Ġc opy
çĽ¸ åĲĮ
Ġl a
Ġincre ased
ig u
o ice
Ġactiv ities
c or
L ambda
ention al
Ġ ir
ç¥ ŀ
Ġfor mat
åıĺ åĮĸ
S C
o ph
l in
æ¸ ©
Ġtem pl
i um
Ġindic ates
Ġsm ooth
è¦ģ æ±Ĥ
ac ity
ä¹ĭéĹ´ çļĦ
Ġle g
Ġreason ing
ä¸į æĸŃ
f low
Ġo p
Ġpriv ate
èĢĮ ä¸Ķ
Ġac qu
æķĪ çİĩ
Ġbe yond
Ġhe nce
ĠM ost
] \].
m iss
ç ¢
Ġs id
æŃ£ ç¡®
Ġg ames
Ġefficient ly
n ormal
fere nt
is ation
Ġcurrent ly
tern al
Ġpat ients
çłĶ ç©¶
Ġconnect ions
ma il
æĿ¥ çļĦ
Ġo pp
Ġexplicit ly
D e
æ´» åĬ¨
train ed
Ġdiscuss ion
Ġclus ters
Ġpredict ive
C T
åĬ ¿
Ġhelp s
or ation
æµ ·
Ġ$ [
Ġdetail ed
Ġin sp
Ġrun s
ĠC ent
Ġbro ad
è¶ £
Ġpix el
ĠC or
} +
Ġh ope
arl ier
L ist
{ -
Ġaspect s
Ġadj ust
in forcement
è¿ĩç¨ĭ ä¸Ń
Ġbeh ind
Ġc ause
Ġreturn s
he st
è´ Ł
æ·» åĬł
ĠAs sum
åģ¥ åº·
Ġfor ms
Ġstat istics
Ġt alk
Ġp en
Ġmet rics
ç ¿
éĺ ¶
ove red
Ġcorre l
ĠSe cond
l ist
Ġup on
er ies
Ġe igen
ĠMicro soft
6 8
it er
Ġenc oura
æĿ ĥ
ĠA b
A D
\% $
Ġsuccess ful
Ġdis e
our nal
abil istic
Ġev ol
å»º ç«ĭ
p are
}} }_
Ġcle an
. '
Ġprec ision
Ġs ound
in ds
), \
Ġun certainty
éĢ »
Ġmod ern
Ġrec ord
Ðµ Ð
Ġdim ensions
Ġag greg
åĿ Ģ
}\ |
Ġinter nal
Ġeffor t
éģ į
Ġin nov
ĠS ub
Ġgener ator
ĠInst itute
Ġconst ruction
Ġperform ing
Ġtra ject
éĢ» è¾ĳ
ĠInst ead
Ġgo als
sem ble
Ġph ot
éĩı çļĦ
æ¼ Ķ
Ġover l
Ġproject s
ms elves
ĠL anguage
Ġtreat ment
ĠP r
Ġempir ical
Ġprob abilities
ron t
Ġal though
if ies
Ġ æĢ»
m ary
Ġdist ingu
wh ich
Ġthe mselves
Ġsitu ation
ĠA p
( );
Ġopt ions
Ġcalcul ated
Ġinter actions
ä¸ ľ
ĠM any
æ ļ
Ġ ens
left arrow
Ġt end
]{ }\
ç Ĩ
ire ct
Ġimpro ving
Ġder ived
ĠE ven
Ġ8 0
t ics
Ġpl ot
p ite
) *
Ġallow ing
r ank
mer ic
Ġconf idence
S tr
Ġim ag
7 8
im ent
at s
g ments
Ġpert urb
Ġfil es
èĢ ģ
å½¢ å¼ı
Ġt al
S M
Ġestim ates
Ġmill ion
Ġun supervised
S L
P r
åĲ Ĺ
Ġprodu ced
Ġadvan ced
ob ject
n orm
è´ Ń
Ġcall s
ä¼ĺ åĮĸ
åŁº äºİ
è ĳ
èİ· å¾Ĺ
Ġv oid
is y
b old
Ġst ra
åº ķ
Ġ(\[ ])
Ġman ip
Ġs sid
Ġph r
åĿ ĩ
od ed
åºĶçĶ¨ ç¨ĭåºı
] \]
Ġ( $\
Ġun known
éª ¤
ä¸ĸ çķĮ
R E
com es
Ġpix els
ber t
: \
h u
in it
æŃ¥ éª¤
Ġcombin ed
å½ĵ åīį
Ġcon nection
g l
è¯ ¾
Ġshow ed
å°± åı¯ä»¥
Ġ6 0
Ġp ure
Ġstre ng
d ist
ç±»åŀĭ çļĦ
å· §
æ£Ģ æŁ¥
ĠAd ditionally
pro d
b o
Ġconcern s
ĠS uch
è¶ ħ
æ³ Ľ
èµ ĭ
æ¤ į
Ġgrow th
åħ ¸
Ġ- >
ĠS et
7 4
Ġ$ |
Ġsu ff
Ġmathemat ical
ĠAs s
æĢ İ
åģ ĩ
Ġ6 4
ĠIn formation
Ġfram es
åĩı å°ĳ
Ġbl ack
p a
ul ations
Ġe arlier
it ation
Ġpubl ished
Ġdetermin ed
éĩĩ çĶ¨
ç¼ĸè¯ĳ åĻ¨
æ¬ ¾
èİ· åıĸ
c os
Ġc oding
éĺ ħ
w rit
Ġident ity
ad d
Ġhigh light
ĠS T
\| _
per ative
ol l
f aces
us h
èĲ ¥
Ġob vious
for mat
clud e
Ġext ended
Ġaut o
ter m
p owered
paramet ers
spec ific
Ġ Î
ure d
9 4
å¹ ²
ä¸Ģ å®ļ
b ot
Ġslight ly
Ġch at
Ġachie ves
Ġh im
Ġde g
Ġthe orem
art ment
ult ane
éĻ ©
Ġ åĴĮ
Ġd rop
Ġscenari o
Ġs izes
Ġ< >
Ġg ram
Ġtest ed
åĬ¨ æĢģ
il os
ĠPer l
Ġflo ating
b re
Ġg ot
ĠNetwork s
in ks
Ġread ing
â Ī
éĿĻ æĢģ
h space
s ection
æĸĩ åĮĸ
Ġcon vert
S I
Ġsom et
Ġres id
Ġc ounter
åĽ Ľ
åĲ ¬
at aset
ma z
Ġcontain ing
æķ´ ä¸ª
ogn ition
Ġres olution
åĽ¢ éĺŁ
Ġstre am
åį ģ
åĬł åħ¥
ĠM an
Ġex ception
S D
f ree
ç®Ģåįķ çļĦ
ĠS VM
Ġcandid ate
or iented
æ Ĵ
Ġanal og
Ġint u
U n
$ ]{}
Ġextract ed
Ġindic ate
åŁ İ
Ġ\[] ).
ĠC al
Ġmot ion
è¯´ æĺİ
mat ic
m ma
å°± ä¼ļ
e y
) [
ç¼ ĵ
L L
Ġmod ules
Ġdistin ct
Ġget ting
è®¾ ç½®
Ġext ension
Ġeffor ts
ĠB oth
Ġgener ating
M T
å¸Į æľĽ
Ġt ensor
ĠA meric
}} _{\
Ġchang ing
Ġsupport ed
Ġsm art
Ġgener ic
}\ \
Ġcharact ers
Ġattrib ute
è¿ ľ
Ġevery thing
æľī æķĪ
ed ia
ĠR ep
ĠG u
Ġa ge
Ġd est
ature s
Ġdes ired
åŃ© åŃĲ
Ġwhere as
Ġp ages
ä»İ èĢĮ
Ġstart ed
t un
Ġcap able
um p
æĿ ¿
ä¸ ¾
Ġdisc rete
ç¡® å®ļ
ĠAcc ording
ro un
ell ow
Ġcell s
Ġsaf ety
Ġsequ ential
Ġm icro
ç¤¾ ä¼ļ
Ġrema ins
Ġstud ent
8 2
æĶ¹ åıĺ
Ġwor th
Ġw rong
ari ant
è´ £
Ġ æĪĳ
Ġcle arly
ut ing
Ġge omet
Ġp ay
def ined
ĠSystem s
Ġneighb or
èĭ ±
un c
av ing
Ġcol le
çĪ ¶
ĠS m
Ġa ware
Ġst ored
Ġ ä¸Ń
at en
it ative
ĠG AN
C N
Ġinflu ence
Ġenc oding
or ld
. </
èĻ ½
Ġp ose
Ġout comes
Ġgr id
åľ° åĿĢ
ç§° ä¸º
Ġ Ã
ï¼ Ľ
äºĭ ä»¶
re ct
G B
åıª æľī
7 6
Ġcost s
Ġsomet imes
Ġc ut
åĪĿå§ĭ åĮĸ
åºĶ çļĦ
d es
è° ¢
æĭ ¥
C h
IF AR
Ġfil ters
ĠÐ ¿
ä¸ª äºº
Ġext ra
Ñ Į
] ),
} -\
ĠP at
æĺ¯ åľ¨
ä½ł åı¯ä»¥
5 6
ĠO f
u ck
ĠEng ine
Ġreas ons
n ers
ot imes
Ġweight ed
A l
äºº åĳĺ
å®Į åħ¨
ver gence
epend ent
Ġlibr aries
Ġm er
Ġassum ptions
èĬĤ çĤ¹
' _
tr ans
åħ¶ å®ŀ
Ġout side
E N
ĠC PU
s up
ĠD isc
Ġscen e
Ġbr ing
Ġd iction
æĸ ½
u zz
Ġstra ight
ĠL i
å¤§ å°ı
Ġpart ial
math tt
æİ ¢
Ġpar ad
è¯Ńè¨Ģ çļĦ
ä¿Ŀ è¯ģ
av or
èµ ĸ
Ġsym met
Ġrun time
Ġupd ates
am p
Ġc ru
Ġbelie f
Ġt im
ub y
Ġres ource
çº ¢
Ġinst ructions
è¿ĺ æľī
Ġpract ices
Ġclass ical
Ġdepend ing
æıĲä¾Ľ äºĨ
% "}
d ot
ular ity
Ġcons c
paramet er
Ġy ields
æ ĳ
Ġ201 4
ä¼ ģ
d ri
Ġnon linear
ac he
Ġme et
Ġcorrect ly
plic ated
å¸Ĥ åľº
Ġcap abilities
æ¡Ĩ æŀ¶
z e
Ġit em
Ġbench mark
æĬ ķ
ĠP re
d own
ĠDe vel
Ġf all
Ġst ory
Ġspec ies
Ġdesc ent
red ict
Ġpass ed
Ġsim ultane
èĻ½ çĦ¶
Ġeffect iveness
* \
re es
ĠSpec ifically
Ġ ign
Ġenh ance
æİ Į
ed u
5 4
) ]
æľº åĪ¶
Ġrobot ics
ĠN ational
ã Ĥ
Ġgener ative
Ġcur ve
Ġcent er
). $
Ġengine ering
ä¸į è¦ģ
R es
æĪĲ åĬŁ
Ġb ad
Ġsitu ations
20 8
Ġacc eler
ĠSt ud
ä¸º ä»Ģä¹Ī
p ace
Ġmiss ing
Ġh or
ĠSimilar ly
} ]
å° Ŀ
Ġtechn ical
Ġd ial
Ġh ome
we ight
Ġcent ral
Ġsome one
Ġconsc ious
çī¹ æĢ§
åĪ° äºĨ
Ġrecon struction
è® ¨
åº Ń
Ġgo es
ut or
æĽ´ å¥½
ä¸Ģ èµ·
Ġa ver
Ġget s
åħ ĭ
r um
r ist
Ġan g
Ġma x
æĿ Ł
Ġdev ice
åı ĭ
) +
ĠN ext
Ġrecogn ize
çļĦ æĸ¹å¼ı
å¹³ åı°
ä¾Ŀ èµĸ
Ġh alf
ĠB as
Ġent ropy
Ġconsider ing
Ġlat ter
Ġabs ol
Ġrema in
Ġsam pled
åİ ĭ
Ġcor pus
Ġscenari os
Ġcap acity
Ġd oc
P si
çŁ Ń
, $
Ġin fer
st ep
Ġdi verse
æı ¡
ĠS ec
è´¨ éĩı
ç§ĳ åŃ¦
Ġimplement ations
è¿Ļ ä¸Ģ
ä¹Ł å°±æĺ¯
b al
ĠMO SS
end er
Ġformul a
Ã £
5 7
Ġstud ied
Ġro ot
nc y
ap ter
Ġhig hest
s am
or age
Ġallow ed
çīĪ æľ¬
Ġperspect ive
æīį èĥ½
Ġupd ated
Ġ2 1
z eta
ot ype
Ġ9 0
Ġaud io
å¯ »
R I
Ġconstruct ed
å¯ Į
c all
Ġsu itable
Ġcommun ities
Ġj ud
* :
Ġoutperform s
A B
Ð¸ Ð
Ġoper ators
Ġconfig uration
con st
åĲ ¸
now ledge
Ġcharacter istics
Ġbegin ning
åŃĹ èĬĤ
Ġscient ists
åİŁ åĽł
Ġpen al
Ġsens ors
) }{\
Ġan im
é» ĳ
le an
Ġsc ope
4 6
C L
Ġtrans port
Ġ æĪĳä»¬
N ET
c ase
I t
Ġfundam ental
Ġexper iences
in ary
ul ated
Ġun ivers
ri ed
å¾ ®
Ã£ o
èĤ ²
é» ĺ
æĮĩ ä»¤
Ġadv ance
Ġvert ices
ph as
Ġsuggest s
*~ *
Ġn or
åºı åĪĹ
Ġrece ived
Ġspec ifically
è¯ ¦
ĠB i
o k
ri ef
pt y
anc y
Ġsynt hetic
9 2
A r
Ġ201 2
Ġsc ript
c ases
O L
l ayer
Ġnot ion
Ã ¡
ä¼ģ ä¸ļ
éĻ į
Ġex ternal
4 2
å¤§ å®¶
è¿Ļæł· çļĦ
ing er
Ġpolic ies
ç»ı éªĮ
Ġmov ing
çī Į
Ġass igned
for d
é¡º åºı
Ġatta cks
Ġsqu are
in ation
å ¦
as c
Ġdis play
Ġtyp ical
ro s
if ferent
& \
g raph
Ġautonom ous
ä¸į ä»ħ
Ġqu al
éĺ ²
Ġwe bs
Ġvers ions
Ġno isy
Ġdec oder
Ġpl anning
Ġdenot ed
A s
çĶ¨ æĿ¥
com p
çļĦ ä¸Ģ
ĠG e
Ġe y
Ġnam ed
st ate
Ġsub sequ
I I
çŃī çŃī
c ode
åħ ´
ar th
p id
ĠS ch
ĠWh y
èī ¯
Ġcalcul ate
Ġ ult
èī º
èĤ ī
id ed
st ack
Ġl ove
Ġin her
b ered
Ġrema ining
Ġadapt ive
Ġen able
Ġmechan isms
Ġconv entional
Ġve h
Ġre ly
ĠM ulti
Ġfac ial
ĠE d
åĸľ æ¬¢
Ġnot ation
Ġlearn s
m y
ĠRes Net
20 7
ç« Ļ
av es
Ġcam era
Ġbr anch
hen s
ç±» ä¼¼
Ġwid th
Ġautom ated
Ġdemonstr ated
Ġinst ant
Ġsatisf ies
Ġrequire ments
Ġd eli
è¿Ļ æĺ¯
Ġim plicit
Ġb ottom
ĠC o
ar r
Ġ201 3
Ġspec ified
Ġp ack
Ġ\ ;
éĢŁ åº¦
éĺ ³
Ġrespon ses
5 9
Ġident ified
' \
å° Ħ
è Ľ
Ġy ield
Ġcru c
Ġorgan izations
ĠC IFAR
ĠS w
Ġk inds
¤ Ĳ
Ġbusiness es
re ed
ib li
Ġtra de
br id
Ġas semb
Ġmod e
Cl ass
Ġ201 5
ur y
Ġel imin
ch i
Ġs ect
Ġre ve
Ġsur pr
"} ](
Ġ[ $\
Ġext end
Ġprob abilistic
ĠE m
7 2
ĠCon ference
Ġext raction
ĠIntern ational
inu x
Ġ( [@
Ġanalyz ing
rain ed
ra ft
Ġcomp re
Ġst able
Ġprot ocol
ä¸Ģ æŃ¥
Ġent ity
ĠMark ov
åĬł è½½
Ġprinci ple
ffic ients
C E
e le
O T
Ġexp and
se ud
ac ing
Ġro t
} +\
é ¤Ĳ
å¦Ĥæŀľ ä½ł
ĠH uman
Ġvert ex
ĠC L
Ġinter val
Ġnumer ical
Ġb ar
Ġg ap
è§Ħ åĪĻ
S N
è· Ł
6 3
Ġprodu ction
Ġhe ur
Ġl ive
ot ing
Ġex hib
ru pt
Ġstreng th
å¹¶ åıĳ
Ġlarg est
éĽĨ åĲĪ
Ġopportun ities
c king
I m
ĠSe e
Ġn ull
st ream
le y
ĠP o
Ġextre m
P C
Ġautom atic
äº ī
ä¿Ŀ æĬ¤
Ġd ays
Ġinf inite
Ġfocus ed
Ġ[@ ]
) |
av ig
Ġsp ars
Ġd ivid
Ġen semble
Ġw in
Ġinst ruction
Ġscient ific
Ġl ed
20 6
in y
m odel
Ġinvol ve
Ġnot hing
t ure
f lo
Ġdescrib es
8 1
pos ed
æĻ ®
L M
ĠM NIST
as ible
äºĭ æĥħ
ic ial
C V
pro cessing
ĠApp endix
å¥ ¹
Ġchild ren
Ġ[ $
éĺħ è¯»
com put
éģ ĩ
indow s
train ing
p ath
Ġin form
å®¶ åºŃ
ĠSupp ose
å¾ ģ
G G
æ² ¹
I nt
æ ¢
m un
Ġsp aces
Ġamount s
str ing
å¹¶ ä¸į
i ol
Ġd iv
Ġcon clusion
Ġadapt ation
Ġcl imate
un g
Ġsol ved
é£İ æł¼
Ġb ibli
Ġst im
b ots
Ġchann els
æķ ħ
Ġenvironment al
åľ° æĸ¹
Ġimpro ves
$ ).
æ¯ į
Ġ201 6
il es
ä¼ł éĢĴ
Ġstr ict
Ġsuccess fully
u ge
ä¸Ĭ éĿ¢
Ġhe av
ĠU se
åı¯ä»¥ åľ¨
P L
Ġrequ est
Ġdecom position
9 3
ĠO nce
Ġepoch s
ro ll
Ġl ives
Ġcustom ers
L STM
åĩł ä¸ª
çī¹ çĤ¹
Ġp ackage
ä»· åĢ¼
ĠG PU
Ġcoe fficients
èĻļ æĭŁ
ĠUn der
Ġspeak er
èº« ä½ĵ
ä»£ è¡¨
Ġthrough out
, {\
ãĢ ĭ
op s
ĠAnal ysis
ãĢ Ĭ
âĢ Ļ
ĠA da
4 3
Ġhe ight
Ġexpl oration
Ġh om
æĢ§ çļĦ
Str ing
Ġpo or
Ġf ill
æī© å±ķ
Ġl ab
ĠO pen
* (
Ġpie ce
k y
Ġrespon sible
Ġcollect ed
N A
Ġhapp ens
Ġsens or
g en
j oy
ĠC ar
Ġemploy ed
Ġbehavi our
ple x
il ing
Ġf ra
Ġsubject s
ä» Ĭ
big g
ast e
æŃ¤ å¤ĸ
æĽ ¿
çĨ Ł
Ġrepresent ing
Ġmod ified
Ġnew s
åı¦ å¤ĸ
åĪ¤ æĸŃ
ä½¿ å¾Ĺ
Ġrobust ness
ash ion
7 1
Ġpo inter
Ġd ual
Ġpre fer
{ {{\
Ġem phas
Ġcompar ing
åı¯ä»¥ éĢļè¿ĩ
Ġte ach
ĠA m
æİĮ æı¡
ĠD ec
ä»¥ ä¸Ĭ
us ed
ĠD r
Ġpro port
åį ł
ä¸į åı¯
d is
7 3
å¾ ĭ
å°Ŀ è¯ķ
erv ation
Ġp age
æľ¬ ä¹¦
ĥ åľ
Ġdid n
Ġclos ed
f ra
yn chron
ç¬¬ äºĮ
Ġre p
Ġt w
åŀ ĥåľ
åŀĥåľ ¾
q quad
ition s
ç¿ »
Ġhierarch ical
åĶ ®
Ġpres ence
æľĢ ç»Ī
Ġcruc ial
Ġrec urrent
ra ble
r an
Q L
Ġimp os
å¸¸ è§ģ
Ġpre t
hen omen
Ġimprove ments
Ġ ì
rr or
Ġa mb
å¿« éĢŁ
ruct ure
Ġst orage
éŁ³ ä¹Ĳ
Ġrepe ated
Ġbibli ography
f l
ĠÐ ²
éĺŁ åĪĹ
ç± ³
here nt
D F
T able
Ġtr ust
rel ated
Ġminim ize
6 2
b matrix
åŁİ å¸Ĥ
de c
v ial
ĠM c
åĳ½ ä»¤
Ġopt ion
ad es
Ġra pid
Th is
Ġpotential ly
éĹ Ń
Ġf raction
Ġinsight s
Ġloc ations
Ġ2 3
ber g
Ġsw itch
Ġassign ment
ak es
is ter
` ,
Ġs chool
l en
anc ial
Ġexpress ed
it es
ä¸ľ è¥¿
ke y
Ġcommon ly
ro id
Ġ æĺ¯
Ġexper ts
con nect
Ġp ick
ta ct
Ġinterpret ation
r ate
z ero
é¢ Ŀ
ĠR em
Ġb and
Ġd omin
Ġacc om
if f
E M
p o
é¥ °
Ġst ay
æĭ¥ æľī
Ġgrad ients
) }}
åĪ¶ ä½ľ
Ġsum mary
Ġtop ics
éĺ¶ æ®µ
å ²
æĢİ ä¹Ī
Ġvol ume
æĮĩ åĲĳ
- $
] ^
Ġ ä½¿çĶ¨
if ier
Ġmem ber
Ġautom ation
Ġus age
ĠR NN
ĠB ased
Ġtem per
Ġstr ings
ot ic
Ġbound ary
Ġresid ual
5 2
åħ³ æ³¨
ĠD ep
Ġin ner
åĲĮ æŃ¥
n n
g u
min us
åı ²
Ġsh all
Ñ ĩ
Ġs ix
Ġth ous
Ġshow ing
O bject
Ġinter n
Ġabst raction
Ġansw ers
Ġexp ensive
Ġph ilos
å¼ ł
Ġpool ing
åĲį ç§°
åı «
p ython
^{ *
æŁĲ ä¸ª
Ġoper ating
Ġexplain ed
åıª æĺ¯
ä¸Ģ ä»½
w ork
ĠM a
ra ys
os p
Ġre inforcement
Ġem pty
Ġpres ents
en ced
Ġdoc uments
Ġne uro
t es
Ġprodu ces
}^{ -
Ġrec all
å Ħ
Ġnecess arily
v an
Ġ å°Ĩ
èµĭ åĢ¼
D D
sy ch
Ġproject ion
æĿ ¾
è®° å½ķ
æĿĲ æĸĻ
ä¹ °
ĠR o
ĠO pt
å¥ Ĺ
ble m
Ġp henomen
ĠS ing
Ġconduct ed
Ġsa fe
ĠI BM
Ġp ress
5 8
E S
) })
è®¡ åĪĴ
Ġt ail
U C
Ġb ooks
æı Ĵ
or ds
æĮī çħ§
çİ ©
ĠS he
Ġdiction ary
ĠEqu ation
æ´ ģ
Ġsimultane ously
æĽ´å¤ļ çļĦ
x space
on t
Ġimplement ing
Ġ åĩ½æķ°
} )$.
Ġpersonal ized
Ġconc aten
Ġcomb ine
Ġ2 8
^* $
è¿Ĳç®Ĺ ç¬¦
num bered
4 1
è¿ŀ æİ¥
Ġgra du
Ġcho ices
ĠF ace
ç¼ĸ çłģ
Ġposition s
Ġnormal ization
appro x
Ġmon th
åį °
f ill
p g
åĽŀ çŃĶ
ä¸ī ä¸ª
æĲ ľ
çģ µ
Ġappear s
é¡ µ
Ġhelp ful
Ġ },
ma king
ĠL isp
r un
Ġrem ove
Ġrecommend ations
mar ks
Ġset up
Ġinvestig ate
as on
um er
Ġent ities
ent ed
åı ³
ĠC ode
Ġlimit ations
æĤ¨ çļĦ
_{ (
åĽŀ æĶ¶
Ġnam ely
Ġestim ator
w edge
æĬĢ å·§
I S
p c
çļĦ å¯¹è±¡
ä¸į è¿ĩ
è¡¨ çİ°
Ġcl oud
Ġparticip ants
åĦ ¿
Ġsyn chron
ĠM ay
Ġm arg
Ġv oice
Ġcov ariance
Ġbi ological
im ately
åĸ Ħ
ĠCom par
æħ ¢
ĠT raining
Ġminim al
Ġre pro
Ġper haps
Ġplay er
æĦı ä¹ī
Ġsimul ations
Ġb rief
çķ Ļ
Ġb all
li k
ĠV isual
Ġsem i
ĠP ri
ĠR ead
wor ds
ĠI EEE
ĠPro f
ç»§ ç»Ń
è ħ
un numbered
Ġind eed
Ġv an
Ġman if
ç¨ĭåºı çļĦ
è¯ ī
Ġc at
Ġdefinition s
åıª èĥ½
Ġassum ed
Ġreason able
Ġrespon d
Ġv oc
Ġm obile
pos es
Ġstructure d
Ġm ist
ĠL og
å· ¦
Ġran king
Ġqu eries
5 1
in f
åĪ° çļĦ
åħ ģ
ĠR L
Ġstrong ly
ple te
set minus
æ»¡ è¶³
ĠM IT
åĮ »
Ġform ulation
Ġcaus ed
Ġanaly tics
Ġcom plicated
5 3
èĦ ļ
Ġprim ary
åħ± äº«
Ġa ir
åı¦ ä¸Ģä¸ª
Ġtrac king
Ġextrem ely
Ġrel ax
sm all
ĠSt ring
Ġfunction ality
Ġtoo k
am ples
Ġadvanta ges
Ġpath s
æĪĳä»¬ éľĢè¦ģ
Ġmeasure d
Ġsh ift
Ġj o
Ġdecl ar
éķ¿ åº¦
Ġd iversity
Ġra re
Ġcomm and
æĥħ æĦŁ
éģį åİĨ
åĲ ¯
I L
X X
Ġth reat
m ann
Ġro ut
åħģ è®¸
med i
Ġloo ks
Ġsustain able
Ġm ac
ĠCon clusion
åĪĨ ç±»
Ġsur face
a ugh
Ġcontrib utions
text tt
ĠA ct
) },
è¯¦ ç»Ĩ
èĢĮ ä¸įæĺ¯
a ur
? "
Ġ Ñģ
ĠEngine ering
Ġinter v
Ġb ill
ron ic
Ġequ ations
sc r
ä¸¤ ç§į
Ġsimul ated
}} }_{
æīĢæľī çļĦ
Ġh uge
è¿Ĳ åĬ¨
ç»´ æĬ¤
è¿ Ń
ili ar
åı¯ä»¥ ä½¿çĶ¨
äºº ç±»
Ġen abl
E D
] }
text width
Ġh ours
are st
en n
Ġcompre hens
Ġ âĢ
ĠL ist
oo lean
æĪĳ çļĦ
å¾ Ħ
Ġessential ly
Ġsymbol s
Ġth row
Ġidentify ing
ç¨ĭåºı è®¾è®¡
åı Į
Ġsub t
ĠW orld
æĽ´å¥½ åľ°
an ks
Ġl ists
Ġen ables
b ound
èĮĥ åĽ´
I G
Ġp ict
Ġredu ces
Ġm ar
+ ,
åħ³éĶ® åŃĹ
er man
Ġex erc
get s
at ur
Ġen joy
åľº æĻ¯
os is
Ġim perative
ri er
ĠY our
B C
ĠSt ate
er as
Ġro om
çĽ Ĭ
Ġ2 6
( {{\
ç¬¬ ä¸Ģä¸ª
Ġser ver
Ġcon ven
ä¸ ¥
h and
a ks
Ġstate ments
e v
Ġdial og
}^ *
9 1
Ġ è¯·
Ġyour self
Ġd r
é»ĺ è®¤
d ag
Ġinter mediate
æĬĢ èĥ½
$ :
Ġint r
ific ations
al y
R U
å® Ŀ
è¿Ń ä»£
ä»£çłģ çļĦ
con s
Ġmon it
fit ting
it ivity
Ġcomm it
Ġvide os
Ġdisc over
ac hed
ä¸ĵ ä¸ļ
Ġper cept
Ġc odes
ĠT wo
ine ar
Ġeconom ic
label ed
Ġchang ed
Ġcompos ition
} '
èµ °
Ġpret ty
åĪ »
ä¸ ĩ
em ory
Ġexplan ation
Ġcolumn s
( -
ra w
out h
å° Ķ
a ff
x y
Ġle x
Ġoptim ized
Ġinc om
P A
ar m
çģ «
Ġ2 7
å¿ Ĺ
åŃ¦ çĶŁ
Ġpaper s
ĠR uby
ĠIntern et
pl o
Ġfin ancial
iz on
Ġemot ional
ĠD NN
Ġn avig
, .,
pe ech
ĠF ollow
ç¨ ³
Ġpredict ing
\| ^
åŁ ¹
Ġp an
st art
Ġdem and
le g
ĠP a
w hat
ge bra
Ġf riend
orph ism
f ram
Ġdev iation
Ġac adem
Ġan n
ĠP ers
Ġinter faces
ĠC re
åĵģ çīĮ
Ġvari ation
Ġc ity
Ġbo ost
20 5
Ġra di
ä¼ Ĺ
éĥ½ ä¼ļ
Ġres ol
Ġfore st
| {\
form ance
text it
Ġorgan ization
Ġra w
\! \!
Ġp ip
Ġview s
æķĪ æŀľ
ĠT ra
Ġv iol
mit ted
Ġas ym
\ }$.
æĢ§ åĴĮ
Ġalign ment
Ġident ical
Ġkern els
Ġrefer red
Ġris ks
èĽ ĭ
éĥ½ æľī
Ġembed ded
æĢĿ èĢĥ
Ġde b
Ġte ac
Ġre ality
R F
re qu
Ġintegr ated
Ġl if
Ġcur ves
b ody
çĶ »
Ġmain ly
. ](
col or
Ġevery one
ub e
ä»ĸä»¬ çļĦ
ĠSo ft
Ġcom ments
åį ´
miss ion
6 1
Ġp seud
Ġwe ek
ä» į
éĹ®é¢ĺ çļĦ
Ġinitial ization
us ing
th is
Ġ è¿Ļä¸ª
éĺ »
Ġent ries
Ġmess ages
ĠRob ot
æĮĩ å®ļ
Ġ7 0
Ġsubst ant
re al
Ġf ront
å° ģ
a o
] $.
çī¹ å¾ģ
l ong
çŃĸ çķ¥
C S
åĽł ç´ł
ĠRob ots
æł¸ å¿ĥ
= (
ä¼ł ç»Ł
Ġ| \
ĠD uring
ines e
ste in
ne y
Ġcy cle
under line
Ġgener ates
Ġtempl ate
Ġintegr ation
id ing
Ġindepend ently
Ġprom ote
ad r
de ed
og ene
æ¡ £
ĠA lex
ĠF unction
om ic
ĠIn deed
ceed ings
Ġprinci ples
é¢ ľ
Ġt ru
Ġincreasing ly
k ern
åıĺ å¾Ĺ
æ ¿
l t
ab ul
Ġfor ce
è¯ ¢
Ġa ff
Ġ201 7
Ġatt ract
m ers
Ġcontrib ution
Ġtra ffic
Ġapproxim ately
ec k
Ġent ry
S h
åĮ ¹
Ġout come
Ġmagn itude
T r
çĹ ħ
Ġpossib ility
____ ____
Ġf lu
Ġguarant ee
ĠRel ated
sh ot
çľŁ æŃ£
Ġrepl aced
plic ity
Ġgrow ing
u fact
æķ°æį® åºĵ
ç¬¦ åı·
é¢ ĳ
Ġemot ions
èĥ Į
r ange
Ġspect ral
valu es
æ± ł
ic y
ĠExperim ents
ĠCent er
Ġaim s
æľ¬ èº«
ole c
çļĦ æĹ¶éĹ´
P T
éļı çĿĢ
for tun
çļĦ ä¸Ģä¸ª
çĶ ļ
Ġ id
lement ary
Ġvis it
é ²
é¥ ®
un ch
Ġstim ul
ĠDep artment
Ġdou ble
en ing
Ġag o
S c
ch ange
Ġocc urs
çŃī å¾ħ
Ġor th
ĠN N
p ass
è®Ń ç»ĥ
Ġpred ic
uro pe
ul a
Ġf avor
m es
Ġfin ally
p y
Ġconf l
} .$
ap es
Ġdistingu ish
Ġcombin ing
or th
Ĩ Ĵ
Ġdise ase
f unction
ĠF ound
Ġto ken
Ġal one
æł¼ å¼ı
Ġillustr ated
ç¤º ä¾ĭ
R eg
ant ic
stand ing
éĢ Ĳ
ç»ĵ æĿŁ
Ġsc reen
ä¸Ń åĽ½
E G
Ġs ounds
æ¿ Ģ
utor ial
Ġon to
Ġsh aring
)\ \
ty p
r is
ter ing
å¸¦ æĿ¥
} .
çĶŁ åĳ½
c re
Ġsc hed
Ġexec uted
Ġs ite
clus ions
Ġbal ance
Ġ[ <
S V
Ġp lease
Ġun d
Ġsens itive
Ġs n
Ġw ave
èį Ĳ
Ġin verse
}} }(
ĠO ut
äº Ķ
Ġimpos sible
ĠD av
Ġl ingu
Ġgen etic
éĻ¤ äºĨ
Ġplatform s
ä½ ı
åĳĺ å·¥
Ġnormal ized
æĸ ¯
Ġdiscrimin ator
act ive
åĩ »
ĠL a
ro l
Ġbi ases
çĽ ĸ
F or
Ġcl in
æİ¨ èįĲ
çª ģ
æĢĿ æĥ³
Ġident ification
ro te
Ġwor se
Ġvari ants
ĠEx t
$ ;
åĲĮ æł·
Ġso on
Ġhas h
l ang
Ġdra wn
Ġr ang
on y
Ġst ability
on ic
æķ° éĩı
åĩĨ å¤ĩ
ĠD ist
Ġgovern ment
}} )$
] $,
Ġm iddle
æĮ ĳ
ä¸į éľĢè¦ģ
Ġcriter ion
one y
Ġro ugh
cl es
Ġder ive
Ġlog ical
% )
v alid
o vers
Ġscal ing
is ely
äºº å·¥
ar b
è¯¾ ç¨ĭ
ã ĥ
20 4
æĹ ħ
çļĦ åĩ½æķ°
ax is
ag er
ess ion
éĩį å¤į
åĮ¹ éħį
Ġintrodu ction
A G
ic ation
ynam ic
çī¹ åĪ«
ĠE l
å·¥ ç¨ĭ
åħ¨ å±Ģ
Ġdepend ent
Ġf usion
ç¨ĭ å¼ı
re w
Ġcompos ed
roun ding
Ã §
Ġanim als
ç»Ħ æĪĲ
Ġop in
æĸ¹ ä¾¿
}{ {\
Ġrobot ic
åĪĨ åĪ«
éļ Ĳ
} )$,
æķĻ èĤ²
Ġwork ed
Ġm it
å® ¤
medi ately
å®ŀ éªĮ
ä¹ İ
Ġthread s
( {
), $
l ock
wh ile
Â ·
Ġstraight forward
]{} .
æĺ¾ ç¤º
hes s
éĩį æĸ°
ip al
ĠW at
rad ient
Ġrem ember
åĨ ²
ell ed
æĥ³ è¦ģ
j pg
Ġconfl ict
ĠDevel op
Ġexpect ation
dri ven
Ġg reen
æ¤į çī©
~~ ~~
Ġpres erv
s ort
Ġdepend ency
æıĲ åįĩ
Ġint ended
ç ı
æ² Ł
abul ary
R M
fig ures
Ġ[ ]{
Ġman age
æľī äºĽ
ĠSc he
P HP
R C
é¢ľ èī²
ä¸Ĭ éĿ¢çļĦ
Ġfe asible
åİŁ åĪĻ
çĶļ èĩ³
æ· ·
Ġf ed
çİ° ä»£
Ġcom ing
æĦı åĳ³
åĽ °
Ġdec ide
Ġmix ture
ĠÐ ½
ĠD ataset
es ides
e ffect
åİĨ åı²
ĠSt ep
Ð º
Ġut ter
Ġcomp at
Ġplay ers
Ġv ar
èĦ ĳ
åĮº åĪ«
Ġpossib ly
Ġ201 0
åį³ åı¯
Ġcomp ile
Ġcompar able
å¿ħ è¦ģ
Ġsp read
Ġwe ather
per s
o e
è· µ
^ +
ä¸Ģ çĽ´
Ġflex ible
Ġm ask
Ġg iving
ri al
Ġabsol ute
Ġv ast
ta ck
ĠH is
Ġa x
C I
Ġclos ely
Ġdetermin istic
ta ge
çļĦ è¯Ŀ
Ġdire ctions
Ġbl ue
p at
åĩº äºĨ
he red
Ġclos er
ĠG r
\ }$,
\] ).
éĿ¢åĲĳ å¯¹è±¡
ER T
err or
i pl
con ds
ä½ĵ éªĮ
math op
Ġask ed
[ ]
ari ate
Ġincre ment
Ġcre ation
Ġim mediately
åģ ľ
al ities
Ġd ang
is ons
' }
ph istic
l im
ä»¥ä¸ĭ æĺ¯
Ġ um
yp es
Ġro und
ĠA re
ï¼ ģ
Ġhist or
æķ° åŃ¦
å®ŀ è·µ
è®¨ è®º
Ġtr ig
ä¸ °
Ġillustr ate
éĩĬ æĶ¾
O f
Ġr ich
ĠS ure
ĠC ertain
åĬ¨ çī©
st o
æŃ Į
å½ĵ çĦ¶
Ġgram mar
Ġfac ilit
ĠS em
ĠG raph
ĠAd v
Ġadv ances
Ġexist ence
press ion
\ {\
ol ding
eter min
Ġmarg inal
Ġtri als
è´ ¢
Ġspars ity
Ġb at
åĩº æĿ¥
Ġgu ess
åĪ ł
æŁĲ äºĽ
æĦıåĳ³ çĿĢ
è®¾ å¤ĩ
Ġcomp ression
Ġdimension ality
Ġf aces
å ©
è¿ ½
Ġmat ches
Ġconsist ency
math scr
et ch
Ġcriter ia
ail y
Ġspect rum
Ġc ame
} |\
ie f
éĢĴ å½Ĵ
Ġfew er
Ġwebs ite
Ã ³
Ñģ ÑĤ
Ġmost ly
Ġre ferences
Ġaccur ately
è¿Ľ åħ¥
Ġbe aut
æĶ¾ åľ¨
Ġref ers
Ġremov ed
ç« ŀ
fortun ately
Ġut ility
ä¸ļ åĬ¡
Ġdifficult y
S ec
ĠG l
c hen
é ¼
Ġcom ment
Ġf ashion
æ·± åħ¥
Ġfam iliar
Ðµ Ð½
ĠCNN s
Ġw rote
! \
æ²Ł éĢļ
Ġrow s
in ters
ä»· æł¼
flo or
Ġ[@ ].
Ġrecurs ive
Ġtra vel
Ġc op
Ġm argin
Ġpur poses
ä¸Ģ ç¯ĩ
ma in
Ġinteg ers
å¹¿ æ³Ľ
åľ° çĲĥ
å®ŀéĻħ ä¸Ĭ
èµ Ľ
os es
éĴĪ å¯¹
Ġreve al
å¡ ŀ
ĠRe LU
Ġevent ually
Ġrecon struct
Ġmeasure ments
Ġc red
ĠCh inese
Ġwh ite
Ġstart s
Ġvari ant
åĵª äºĽ
Ġdimension al
çĸ Ĺ
ĠM in
ct ors
Ġrepro du
åĬ ŀ
Ġmajor ity
ĠE very
Ġrele ase
ĠW ill
f ix
æķ´ æķ°
Ġnot ed
ĠCh ina
Ġdiag ram
b a
Ġ9 5
Ġvari ations
pro cess
Ġexc ell
é¦ Ļ
Ġcoordin ates
æĹ ©
Ġc ard
ur ations
éĢ ģ
æ ĩ
Ġ ]
Ġl abor
èīº æľ¯
Ġst op
Ġh und
Ġhe art
Ġan t
A d
ĠPro ject
ac le
ĠT ype
20 2
åı¯ä»¥ å¸®åĬ©
Ġ\ #
s ol
ve ctor
Ġare n
ff er
åĨ³ å®ļ
Ġconc ent
ĠP e
çĦ¶ èĢĮ
Ġretrie val
bra ce
Ġ( -
Ġso phistic
Ġ2 9
y ear
å½¢ æĪĲ
Ġman ufact
Ġfail ure
Ġsupport s
Ġra d
}} =
R S
equ iv
Ġ æĸ¹æ³ķ
éĶĢ åĶ®
Ġ ^
å¼Ĥ æŃ¥
Ġmaterial s
ir m
Ġdepend encies
ĠComput ing
ĠS V
ç¼ ©
Ġden se
T S
the n
æĶ¶ éĽĨ
çļĦ æľĢ
Ġover come
Ġdecre ase
p arent
å± ±
ĠY ork
Ġhand ling
æĺ¯ ä»Ģä¹Ī
Ġ é¦ĸåħĪ
è¿Ĳè¡Į æĹ¶
Ġinher it
w rite
Ġcomple ment
Ġsimpl er
Ġrece ive
ar p
st ood
$ ),
å¸¸ éĩı
ç»Ĩ èĬĤ
uth or
Ġcho osing
åİŁ çĲĨ
P h
Ġminim izing
çĭ¬ ç«ĭ
ç»Ħ åĲĪ
se en
æĲľ ç´¢
t ask
n ode
ĠâĪ Ĵ
çĽ® åīį
d isc
ĠR andom
}} ({\
å¯ Ł
é ¾
Ġsuggest ed
Ġvary ing
em pl
ĠA M
Ġpl aces
çĽ ĳ
bold math
Ġvari ational
Ġarg ue
ĠF uture
Ġcar ry
åıĤ èĢĥ
ĠE urope
Ġ _{
Ġ201 8
Ġl inks
le v
èĢħ çļĦ
Ġsuper ior
çĥ ¤
enc oder
ĠImage Net
qu e
A n
æµģ ç¨ĭ
Ġst ress
Ġbu gs
\ |\
Ġwant ed
Ġhierarch y
ĠS N
ubl ic
ĠC he
å¥ ³
Ġcoe fficient
volution al
ys et
20 3
Ġphilos oph
éĤ£ äºĽ
çī Ľ
Ġform er
T o
app ing
Ġproced ures
ĠAmeric an
Ġvalu able
Ġne arly
Ġgu ide
Ġour s
fra k
Ġstruct ural
æŀĦéĢł åĩ½æķ°
d en
ç» ĩ
Ġtransport ation
Ġanal ys
æ ¥
" :
Ġparad igm
Ġinsp ired
un ctions
å®ĥä»¬ çļĦ
e per
g roup
ä½¿çĶ¨ çļĦ
Ġ$\ {\
Ġspec ification
I P
Ġestabl ish
% ,
ĠPro cessing
èĭ ¥
Ġp sych
åĪĽ éĢł
ob s
Ġguid elines
R ight
Ġdefin es
` .
Ġneighbor hood
å ĭ
u cl
ĠT op
Ġdep ict
Ġpre ferences
Ġincorpor ate
Ġap plies
Ġrel i
Ġmeaning ful
Ġ æł¹æį®
Ġess ay
Ġsufficient ly
Ġconscious ness
Ġcon clude
empt yset
og ram
Ġ20 9
Ġbehavi ors
s qu
ct ic
Ġmove ment
in st
Ġcor por
Ġdivid ed
- >
è¡ ¡
Ġhelp ed
Ġmov es
Ġmit ig
ĠMe an
}} ^{(
e fficient
Ġver ify
k i
ä¸» é¢ĺ
Ġbec ame
alu e
apt ic
d omain
æ® Ĭ
Ġprov ed
Ġ å¯¹äºİ
O ff
C P
ap an
atur ally
ĠSt and
Ġser ve
Ġread er
sk y
Ġprofess or
M F
){ #
äººå·¥ æĻºèĥ½
Ġsim plicity
ĠN on
ĠM ed
å¤ļ æķ°
Ġre ct
Ġhyper parameters
ĠS GD
h ow
ĠÐ ¸
Ġcon j
19 8
Ġcount ries
Ġ ?
Ġche cking
Ġthous ands
pl us
ĠL ike
math frak
ĠH y
Ġannot ations
Ġext ent
at hered
Ġcult ure
ĠF l
at ivity
f old
ĠCertain ly
Ġdefin ing
ä¸ĭ æĿ¥
Ġpl ans
éĴ Ł
B P
Ġw alk
ĠA c
Ġout l
å® ³
format ive
) /
augh t
ĠA tt
æĽ ²
ĠJ ust
ĠAn y
çī¹ æ®Ĭ
å¥ ĩ
çĽ¸ å¯¹
0 10
Java Script
Ġsur v
yn c
Ġdec oding
çĽ® çļĦ
éħ Ĵ
C D
Ġqu adr
èĳ Ĺ
ĠEx ample
æĬķ èµĦ
ĠN LP
æ° ĳ
Ġcompet itive
od ers
) ^{-
Ġrel iable
Ġcontrib ute
è§ ¦
ĠD i
Ġj ava
T P
æ± ĩ
Ġgeneral ized
k ens
Ġiter ative
éĢł æĪĲ
Ġw ild
in put
Ġprec isely
Ġrest aur
* {
çĶŁ äº§
Ġmeasure ment
Ġadopt ed
ä¸° å¯Į
Ġcomp act
Ġclass ify
Ġsoft max
Ġexplo it
. *]{}
Ġapp e
ĠAut om
Ġser ious
ä»ĸ çļĦ
K L
Ġtraject ory
Ġphr ase
ĠV ari
Ġcommunic ate
Ġspec ify
æľª æĿ¥
rid ge
ad a
Ġs ong
Ġle ave
è¿Ľ åĪ¶
ä¹Ł ä¼ļ
Ġ ä»İ
Ġestabl ished
è¯» åıĸ
Ġcomput ations
å°Ĩ åħ¶
Ġturn s
ĠW ell
Ġaugment ation
brack et
åĩº çļĦ
valu ation
å ¨
Ġentire ly
x x
ç»ĥ ä¹ł
Ġr ise
Ġ\ |\
ä½ Ļ
Ġpro pagation
it ory
Ġtemper ature
Ġunivers al
Ġwor st
Ġdiag onal
Ġtransform ations
m l
Ġoper ate
Ġindust ries
ĠCon v
Ġtarget s
åıª è¦ģ
Ġpol it
le ep
} ;
é¸ ¡
ĠAss oci
Ġcombin ations
Ġart icles
Ġt u
he l
åĳĬ è¯ī
eg er
id s
Ġaccom pl
Ġ\[] )
ri z
Ġ( )
r ical
Ġinit i
æĽ´ å¥½çļĦ
Ġnot ice
ĠI T
Ġcap ability
Ġclass ified
an i
l ife
Ġar ri
Ġexec ute
Ġpass ing
now led
b atch
é¡ ¶
Ġinst all
Ġevalu ating
Ġhor izon
åĲ §
ĠU S
Ġent er
ĠP HP
Ġh ost
Ġfair ly
Ġdist ances
Ġmonit oring
Ġe mail
Ġaccess ible
åı ¤
åĲį åŃĹ
ç¿» è¯ĳ
S et
an cing
å¤ļ çº¿ç¨ĭ
C è¯Ńè¨Ģ
i os
a fe
ĠR et
ĠThe ir
] [
err ing
Ġneighb ors
ĠNew s
è ŀ
m n
connect ed
æķ £
Ġfilter ing
ut ive
Ġens uring
Ġh ab
Ġsophistic ated
åĮĸ çļĦ
re ement
Ġpro te
æŀĦ å»º
ç»ı å¸¸
æĺ¯ æĮĩ
Ġm or
è´Ń ä¹°
con text
Ġhy brid
Ġt ips
Ġc oo
Ġinterest s
ĠT ime
âĪ Ĵ
åĮº åŁŁ
Ġprom ising
Ġexcell ent
åĪĨ ä¸º
ĠWat son
Ġtyp ed
åıĹ åĪ°
ĠI D
O W
hes es
clud ing
çĭ Ĺ
Ġread ers
ĠOpt im
æĮĳ æĪĺ
}, $
]{} ;
ire ction
Ġc ars
ĠMat hemat
Ġregard ing
h y
| ^
Ġst d
ĠS cal
æ¶ ī
Ġre v
Ġfrequ ently
it ter
Ġconsequ ences
Ġins ert
Ġc row
Ġt en
Ġle mma
æŁ¥ æī¾
Ġrele ased
ĠFound ation
R R
Ġdiscrimin ative
Ġro ad
ĠÃ Ĺ
ĠFace book
' (
Ġprocess or
è®© æĪĳä»¬
æŃ£ åľ¨
ĠFollow ing
Ġst ages
ĠW indows
Ġinterpre ted
Ġcomputation ally
bo ard
Ġguarant ees
ç½ĳ ç«Ļ
åŃĲ ç±»
å¤ª éĺ³
æĮģ ç»Ń
Ġconfig urations
è°ĥ æķ´
Ġuniform ly
ç¾ ¤
Ġprec ise
ç´ §
Ġequ ality
åĪĽå»º ä¸Ģä¸ª
Ġm olec
ic on
ç§¯ æŀģ
ĠT w
ĠI N
Ġide al
èĢĮ æĺ¯
æľº ä¼ļ
Ġcre ates
Ġopportun ity
æĥ ¯
ĠÐ ¾
Ġd ate
ĠA N
Ġmon itor
Ġpr uning
ĠH ar
Ġframework s
è§ Ī
ĠProf ess
Ġloc ated
åģĩ è®¾
Ġ å°ı
ĠA D
Ġ }\
Ġprogramm ed
åį Ĺ
Ġst ri
æ¶Ī è´¹
ĠB en
| _
ĠDes pite
åĳ½ åĲį
so le
çĽ ĺ
Ġar rays
é© ¬
çľ ģ
S F
Ġdif fer
è¯· æ±Ĥ
ĠIn it
Ġan om
M ap
Ġ= \
ĠDes ign
in ition
Ġc hess
æĵįä½ľ ç³»ç»Ł
Ġcollabor ation
æ¶Ī æģ¯
h uman
Q u
æķ°æį® ç»ĵæŀĦ
Ġdrop out
neg ative
ic ious
Ġt uning
ĠP ress
Ġ\ _
Ġscal es
orph ic
g ra
åĪł éĻ¤
ĠUn ited
ĠÐ º
ä¸Ģ æ®µ
èĩª çĶ±
è§ī å¾Ĺ
ä¸ ´
Ġdri ve
g est
æĶ ¿
x ili
reed y
æĸ¹æ³ķ çļĦ
o ust
Ġdri ving
Ġpar sing
f ield
Ġmix ed
ĠS P
å± ħ
Ġconsist ing
ĠJ apan
t rue
r Vert
ist ent
è§Ħ èĮĥ
Ġun labeled
Ġ3 1
Ġ[ \
opt imal
ä» ĺ
Ġpropos al
Ġl iving
C F
éĻĲ åĪ¶
v x
maz on
Ġele g
ĠP ol
ĠL ab
Ġ æľī
åĬ ±
æĿ¥ çľĭ
n ds
åıĺéĩı çļĦ
ĠJ ournal
xili ary
Ġunder stood
Ġt ack
äº ²
Ġstand ards
A V
Ġcl ient
text sc
> ]{}
Ġemploy ees
l ocal
Ġcertain ly
Ġcomm erc
æ² »
Ġconver ge
rast ructure
s uch
Ġvers us
^{ -\
ide an
Ġcontain ed
ith met
ch ar
w ang
Ġst e
Ġvoc abulary
ĠB u
Ġd u
çŃ ĳ
ç³» åĪĹ
ucl idean
Ġ( "
Ġleg al
on ym
Ġ+ \
Ġcoordin ate
Ġ æľ¬
ro g
th read
Ġreal istic
l Vert
Ġcomp r
], [@
åĽ º
Ġcontrol s
M D
im ages
T ype
Ġw aste
M S
Ġsu perv
Ġrepresent ative
åħ¬åı¸ çļĦ
åħ´ è¶£
ĠDav id
Ġproper ly
ĠS um
Ġadj ac
Ġenc oded
E C
f rom
è¾¾ åĪ°
Ġmill ions
Ġbl og
ĠExperim ental
m ulti
Ġcandid ates
ĠB ig
Ġag ree
el se
ĠMethod s
t ab
Ġsepar ately
Ġtyp ing
ç¡ ¬
Ġcontext s
çĽ´ åĪ°
Ġconstruct or
B N
å¼Ģåıĳ èĢħ
Ġman ually
ĠGener al
Ġview ed
æ´ ¾
æİ¥ åıĹ
Ġsched ul
Ġinv ariant
Ġdetect ed
Ġcompar isons
che ck
Ġtre nds
ĠU s
le arn
Ġor ient
) }_{
Ġlat est
Ġep is
é«ĺ çļĦ
ä½ľ èĢħ
æĭ ī
æĹł è®º
ra ce
Ġd am
Ġdec ay
Ġpseud o
ç³ ĸ
Ġst ru
ing ly
èĻļæĭŁ æľº
Ġsubsequ ent
æ¸ Ĳ
ĠSt at
Ġv al
Ġred und
Ġ3 5
Ġproduct ivity
Ġcon ference
Ġ __
Ġinitial ized
in v
en et
Ġ&= &
ç ĵ
. [
as p
est ed
M C
ç² ī
] \],
point s
ĠCal if
Ġinter pol
pro gram
ç» Ŀ
: =
å¤ļ å°ĳ
). \
} ),
~ \
Ġ* (
åĲİ çļĦ
Ġsur vey
Ġ20 8
æĺİ ç¡®
Ġhar der
ä¹Ł æľī
å»º çŃĳ
ĠÂ ±
Off set
ä½ľçĶ¨ åŁŁ
æĸĩ æ¡£
ĠRec all
Ġn et
ce il
ate ver
ç¬¬ ä¸Ģ
Ġext ensive
T ML
Ġrestrict ed
Ġper ception
å£ «
ĠV GG
å¤ļ ç§į
pro pagation
Ġrem ark
Ġch ance
åį Ĭ
sequ ently
b on
Ġim plications
uzz y
éĿ ł
å¯¹ è¯Ŀ
åį İ
ä¼ĺ åħĪ
è¡Į çļĦ
ĠF L
æľįåĬ¡ åĻ¨
Ġcalc ulation
Ġt utorial
Ġaffect ed
Ġdemonstr ates
èĦļ æľ¬
ib ri
ĠN P
Ġany one
E L
æ¯ı æ¬¡
Ġtri ed
ogene ous
ch ang
Ġsymmet ric
Ġsubset s
Ġdec ades
Ð¾Ð ²
s ource
p mb
ch o
Ġcult ural
ç§» åĬ¨
M P
oc ation
ĠB ack
Ġf oot
"} .
Ġfocus es
Ġencoura ge
Ġoptim izing
Ġ$ .
Ġover head
ĠG P
Ġtal king
å¤§ å¤ļæķ°
Ġde eper
' .
ç»Ħ ç»ĩ
o pping
ĠE r
Ġ20 7
Ġhe ld
n etwork
ĠCom mun
}} })
ta il
Ġover view
ul let
å° ¾
Ġrel ies
Ðµ ÑĤ
Ġselect ing
Ġdeal ing
è· ³
Ġbound aries
h old
Ġwon der
Ġto kens
Ġ ä½ł
Ġd aily
è¯» èĢħ
Ġrec over
Ġcontinu es
Ġal gebra
Ġper mut
åį ¡
çļĦ å½±åĵį
ar ity
çļĦ å·¥ä½ľ
ĠH am
é«ĺ çº§
Ġconver ges
go ing
ĠG roup
Ġle ver
Ġmaxim ize
it ely
call ed
ĠW here
ot ed
æ ½
O D
Ġ12 8
Ġn aturally
Ġfit ness
pare ncy
writ ten
æķ°æį® çļĦ
duct ive
B F
Ġse ed
å¤ĸ éĥ¨
Ġdel ay
]( )
Ġpenal ty
Ġappear ance
çĶµ å½±
åľ¨ äºİ
Ġcirc uit
Ġult imately
æĺ ł
Ġmin ing
Ġey e
Ġm al
ĠFor m
un ed
ä¼ °
å¯» æī¾
èī¯ å¥½çļĦ
st er
Ġclin ical
Ġsa ve
ÑĤ Ð¾
Ġst uff
Ġmin i
ithmet ic
Ġfore cast
ĠD ifferent
b x
Ġre ached
% .
Ġexpl ored
Ġsub space
Ġsent iment
Ġre wards
æľ ĭ
æ¯ı ä¸Ģä¸ª
Ġchat bots
Ġveh icles
Ġb ud
Ġmathemat ics
Ġasym pt
ore s
bu gg
è¶³ å¤Ł
pect ed
ĠUn fortunately
Ð ²
Ġman ual
éĺ» å¡ŀ
åĲĪ éĢĤ
èĲ ½
æĦŁ åĪ°
æľī çļĦ
pro t
Ġpro ceed
äº¤ éĢļ
I f
12 8
Ġ$ |\
ĠIt s
Ġpl us
Ġre volution
ĠW ar
Ġsur rounding
em poral
Ġdi vergence
æİ ī
è¿ İ
the less
urre nce
el t
ist ically
Ġmod ify
Ġcomp ress
v d
Ġcont ract
æ´ ŀ
è§£ æŀĲ
Ġcomprehens ive
Ġche m
æłĩ è®°
Ġmon ot
Ġannot ation
çļĦ éĩįè¦ģ
ĠæĢ» ä¹ĭ
out put
Ġacadem ic
ç«ŀ äºī
å±ŀ äºİ
Ġcapture d
ĠPro position
b all
or g
ul ner
æıĴ åħ¥
ĠS chool
) -\
um b
Ġkeep ing
" );
Ġmethod ology
. /
Ġprofess ional
Ġpoly m
Ġbecom ing
ĠG erman
å®ī è£ħ
ĠRec ognition
Ġb row
Ġhar m
mod els
Ġcontroll ed
Ġdisc overy
ilit ary
ĠS pr
Ġphys ics
Ġcall ing
ĠTh rough
ve re
Ġcompet ition
ĠPat tern
Ġto ward
}} ^{\
Ġin herent
ent ions
Ġad ds
Ġsatisf ied
dag ger
Ġpl ant
Ġprot otype
Ġanalyz ed
æĪĲ æľ¬
um s
éĿ¢ è¯ķ
Ġh ot
æĿ¥ è¶Ĭ
Ġprinc ipal
Ġse conds
Ġsynt hes
Ġis ol
ĠE lect
Ġachie ving
Ġgen e
erv ice
d om
çŃĶ æ¡Ī
Ġplay ing
Ġpat ch
Ġyou ng
Ġcaus es
rom ise
R NN
ad o
f irst
æĽ´ æĸ°
Ġd ro
du c
Ġsche mes
éĩĮ éĿ¢
Ġheur istic
Ġinteract ive
è· Ŀ
col umn
åĪ¶ å®ļ
Ġemot ion
Ġvis ible
æĸ¹ åĲĳ
Ġintrodu cing
Ġre ject
å°Ĩ ä¼ļ
h ou
Ġapp rec
t ically
åįķ è¯į
Ġorgan ized
o ke
ĠK ur
S ection
Ġst y
Ġmay be
è¿ĶåĽŀ åĢ¼
ĠUn like
Ġtechn ological
Ġintrodu ces
æĲ Ń
Ġlaw s
è¶Ĭ æĿ¥è¶Ĭ
ĠD ue
Ġassemb ly
ä»¥ ä¾¿
æ¶ī åıĬ
å®¹ åĻ¨
åįķ åħĥ
çļĦ ç»ĵæŀľ
Ġdirect ed
é£İ éĻ©
he ll
Ġsimilar ly
Ġs ke
Ġ7 5
Ġ\ !
æľĭ åıĭ
z hang
çł ´
Ġtre nd
ect or
Ġw al
åĿ ļ
og onal
Ġcaus al
ç»ĵ åĲĪ
s ign
çĲĨ è®º
arb age
Ġm en
ro b
I R
è§Ĵ èī²
Ġtri al
Ġexp ans
Ġinnov ation
éĻį ä½İ
Ġext ensions
* -
Ġconst ants
i verse
T R
Ġrec ords
è´ Ŀ
ç§ ģ
ĠC O
ĠL ib
Ġamb igu
Ġbound ing
Ġrespon sib
Ġau xiliary
i pped
Ġc atch
a ware
mb er
k in
èĪ Ĵ
Ġconstrain ed
Ġconvers ation
Ġsay ing
ĠM ar
Ġconc rete
. (
Ġutil ize
ĠApp ro
I O
( '
D ata
Ġne arest
ĠW ik
Ġtraject ories
c s
re p
Ġalgorithm ic
}) }
j s
ĠAd am
ĠA v
}} [
Ġattempt s
Ġreg ret
ç» ¼
overs et
è§Ħ åĪĴ
Ġcre ative
Ġapplic able
Ġenc ode
omet ric
Ġperform ances
æ³ ¢
å±Ģ éĥ¨
un k
Ġ[ `
åĬ ª
L S
Ġstru gg
Ġst ation
Ġprocess ed
Ġpat ches
Ġcompil ed
Ġ ä¸Ģ
è§£åĨ³ æĸ¹æ¡Ī
Ġsubst it
Ġdou b
ri ends
Ġl ost
ĠF r
Ġtr ick
) }_
Ġpr ice
ĠB ro
Ġpip eline
Ġb ag
Ġpo inters
um ul
è Ĵ
il ibri
he ight
Ġsearch ing
Ġdetermin ing
d ependent
) }(
Ġaddress ed
cript ion
Ġorig in
Ġhelp ing
Ġs il
ĠM o
Ġinvol ving
me an
ä¹ ĺ
Ġwhen ever
äºĨ ä¸Ģ
å®ĥ æĺ¯
o ost
ĠPro of
Ġincor rect
10 1
Ġsurpr ising
çļĦ è¯Ńè¨Ģ
orn ia
Ġtra ce
Ġar m
å°ģ è£ħ
æĢĿ ç»´
Ġlet ter
ĠT e
èģĮ ä¸ļ
Ġexper i
Ġm oney
map sto
i ated
Ġexpl oring
N e
ĠNot ice
ĠSche me
" },
Ġtransform ed
Ġextre me
éļ ľ
Ġminim ization
Ġclass ic
"} ).
åĲĪ çĲĨ
ĠS ol
P P
çĽ¸åħ³ çļĦ
å¸¸è§ģ çļĦ
Ġexcept ions
å¤įæĿĤ åº¦
}$ )
Ġdatab ases
èĢ Ĺ
éģĩ åĪ°
n a
Ġl ate
Ġsepar ation
Ġm ere
Ġtru ly
ĠSt e
ĠSe arch
é«ĺ æķĪ
å¾ ·
Ġ\ (
æĸ¹ éĿ¢çļĦ
Ġdiagn osis
Ġre tain
Ġrecord ed
é ±
Ġimpact s
iv ariate
Ġconsum ption
ĠBe fore
Ġc os
åĬª åĬĽ
ä»į çĦ¶
éģ µ
con dition
Ġintu itive
mat ically
ici ans
ost ic
ç¬¦ åĲĪ
å µ
ĠP ost
Ġrequire ment
Ġmin utes
F T
N ame
åĪ ļ
Ġver ification
Ġvisual ization
pc bi
Ġcan cer
Ġloop s
ĠSt an
å¥ ¶
æĦŁ è§ī
t ered
ĠA mazon
enc ing
éħį ç½®
S O
å¼Ģåıĳ äººåĳĺ
Ġalloc ation
èŀ į
é» Ħ
ĠT ensor
ic ode
Ġun seen
Ġun s
é± ¼
20 20
j oint
is hes
up s
Ġfinding s
du le
ĠL inux
ĠAd d
Ġcommerc ial
Ġ( {\
Ġ å¥½çļĦ
Ġpresent ation
Ġw ent
Ġun less
Ġcar ried
in i
con v
ĠProfess or
ĠSt ates
åľ Ł
æĹ ¢
ï ¿
Ġs end
Ġrough ly
ä¸Ĭ ä¸ĭ
Ġmanif old
åµ Į
èį ī
Ġ }{
sam pling
Ġ3 6
Ġdeg rees
Ġbi ased
Ġreg ister
Ġlarg ely
Ġreturn ed
Ġ[@ ;
ic ks
ĠEx pl
Ġover fitting
g t
çĶµ åŃĲ
}_{ {\
) _{
Ġannot ated
Ġbe gan
åĿ ı
re ference
Ġpair wise
åıĳ å¸ĥ
Ġlog istic
rib ution
)$ -
ä¿Ŀ åŃĺ
æĬ Ľ
igm oid
äº¤ æµģ
Ġgreat ly
l or
Ġsatisfy ing
Ġactiv ations
S VM
æľī åħ³
ç¨ĭ åº¦
iz ers
Ġv ulner
Ġal b
è¿ĺ åı¯ä»¥
Ġinf rastructure
< \
le vant
es e
cos ystem
åĲĪ ä½ľ
Ġn a
Ġspecial ized
\ }_{
res ent
Ġsh if
ç´¢ å¼ķ
Ġpar a
Ġflex ibility
åĲ¦ åĪĻ
Ġb ir
ä¸ ½
Ġrespect ive
\] ),
ĠE st
ĠEn c
ĠL u
mat ch
ĠPro blem
Ġdesign ing
ä¹ł æĥ¯
s ample
ic a
æł ¡
ä»£çłģ ä¸Ń
åģ ı
Ġprior it
k a
ph one
Ġoverl ap
ĠPro cess
Ġst ated
Ġsignific ance
ĠW ord
å® ĺ
L R
ann el
Ġse gments
æĢ» ç»ĵ
Ġinherit ance
U T
é² ľ
Ġsimul ate
h am
çĮ «
k er
æĭ ħ
c rib
Ġeconom y
ĠCalif ornia
ric ult
Ġsome what
ä½ ³
al ing
r ated
ç Ł³
è¿Ļä¸ª éĹ®é¢ĺ
Ġn ative
ç»Ļ åĩº
ĠI I
ĠM T
Ġsynta ctic
Ġgeneral ize
Ġgraph ical
å¿ĥ çĲĨ
åĴ ĸ
Ġdes pite
Ġevolution ary
Ġlink ed
Ġsens itivity
Ġpart ially
U R
t arget
Ġsh or
r andom
ç¦ ı
Ġcy ber
Ĺ ı
Ġdiscrimin ation
Ġreport s
ĠB esides
Ġ éĢļè¿ĩ
åº Ĺ
Ġsmall est
Ġsect ions
M I
A nd
å±ķ ç¤º
*]{} .
Ġcover age
Ġknow s
ĠRec ently
Ġthan k
i ant
å¤į åĪ¶
Ġloss es
P er
tri ang
æŁ ĵ
con vex
Ġtri vial
Ġ. ,
Ġob st
Ġsynt hesis
Ġorder ing
gorith ms
ä½ľ åĵģ
èģ ļ
å¤§ éĩı
l oss
con cept
n ext
Ġbas elines
Ġsp ike
Ġadv ice
me ans
Ġdecre ases
Ġan imal
Ġ ä¸º
Ġequ ally
ĠStand ard
çļĦ åĨħåŃĺ
åħ± åĲĮ
Ġcon tact
Ġl imits
æ³¨ éĩĬ
az y
Ġjoint ly
Ġde le
Ġpie ces
Ġp ush
valid ation
ç§ Ģ
ç® ±
Ġupd ating
ĠH igh
Ġstat us
Ġstrong er
Ġac oust
Ġdocument ation
å¹¶ ä¸įæĺ¯
Ġrout ine
åŃĹ æ®µ
Ġme ant
è¡Į ä¸ļ
act er
ĠTh anks
Ġtransition s
j i
Ġe cosystem
ĠSoft ware
Ġbu y
Ġ$ ,
Ġinter view
Ġm ilitary
æķ°æį® ç±»åŀĭ
ĠM ac
ograph ic
çī© è´¨
ĠAssum e
åį³ ä½¿
æ°´ å¹³
Ġdescrib ing
od al
Ð ¼
Ġ æľĢåĲİ
Ġgen es
ĠE uclidean
ĠM ich
Ġtri ple
i rable
çļĦ åĨħå®¹
ä¸ĭ éĿ¢çļĦ
d et
Ġfail s
ĠO OP
Ġrec ording
èģĶ ç³»
Ġprofess ion
il s
per son
_ *
ĠP CA
ort ex
Ġd ru
Ġ er
Ġext ends
valu ed
h av
Ġexam ine
am ent
Ġ4 5
ĠN et
æ´ Ĺ
åĪĨ äº«
æľĢ è¿ĳ
æŃ »
ç¤¾ äº¤
ĠL ast
Ġcorrel ations
P ar
Ġ$ -
ĠDisc uss
ins ic
| $
ic ine
ĠF ram
b ut
ĠR E
ĠCom mon
æ± ½
ç¼º çĤ¹
ĠP lease
éĺ µ
S u
Ġgeomet ric
ĠP y
å¯¹ åºĶ
Ġassum ing
et al
Ġsur ve
Ġ9 6
Ġde ad
Ġr ating
C PU
ĠIm plement
ĠR GB
Ġass ert
Ġte ams
Ã ¶
æĿ¥ å®ŀçİ°
Ġres erv
par allel
m ult
U I
Ġb ur
it z
åħ¨ çĲĥ
åħ¶ å®ĥ
Ġopp os
ic ed
Ġconsequ ence
ĠL abor
Ġm id
Ġsupp ose
æĩ Ĥ
Ġremov ing
Ġcontroll er
æĶ¹ è¿Ľ
und ers
Ġmult ip
Ġ@ ;
Ġc ache
Ġprov en
I ON
F low
ell o
f ast
M SE
ĠC E
Ð ´
ĠN atural
Ġspe aking
l s
re y
ent y
Ġrepl acing
Ġ$\ |
Ġ ë
ç§ĳ æĬĢ
Ġindic ating
Ġpict ure
M A
Ġnumer ous
Ġ\ {\
Ġm ag
H e
Ġmat h
D L
Ġperturb ation
çļĦ ç±»
æķħ äºĭ
ut s
Ġadapt ed
Ġt ax
Ġbench marks
Ġintu ition
ĠP redict
ĠS ur
æ¸ħ æĻ
çĽ¸ äºĴ
s pect
ry pt
Ġa ffor
Ġex ceed
ĠCh rist
Ġ åı¯ä»¥
st ract
ot es
bl ock
y cl
ĠTrans form
Ġbrain s
ä¹ ħ
åĬ© äºİ
ç¨³ å®ļ
Ġindu ction
Ġun c
Ġillustr ates
Ġph one
b ase
å¯¹ åºĶçļĦ
Ġ3 4
Ġf riends
ind ex
We b
A pp
Ġmulti plication
æľ ¨
è ĸ
res olution
çª Ĺ
uc le
h ard
at ile
clus ive
Ġsy ste
çĶŁ çī©
éĢ ı
åĩĨ ç¡®
ĠPer formance
i king
Ġcent ury
chit z
Ġar ithmetic
Right arrow
Ġconsist ently
åĵ Ī
åĲ ĥ
é¡ ¾
Ġexplain s
Ġ25 6
f il
an a
çŃ ¾
Ġn one
Ġw ait
çĶŁ æĢģ
Ġwh atever
æīĵ åį°
ĠComput ational
we il
Ġind ices
an o
Ġcom for
ynchron ous
åıį åºĶ
åķ ¡
Ã Ń
ï¿ ½
ç¤¾ åĮº
i ver
æµ ı
p ool
W hat
çĻ ¾
st ra
æµ İ
Ġg ender
dis play
æµı è§Ī
plex ity
Ġcorrel ated
çļĦ ä½¿çĶ¨
Ġsu c
Ġch apter
l ib
è´ ¥
Ġregard less
Ġl ots
$ '
Ġmin or
) +\
Ġl ies
Ġt we
Ġmac ro
Ġk ill
d ent
åİŁ åŀĭ
Ġinterv als
èĪ ŀ
åĪĨ éĴŁ
T C
æ ¹
Ġenabl ing
g ent
Ġ[@ ],
å½ ©
Ġdepend ence
åĴĸ åķ¡
Ġlead ers
ĠD en
ĠR un
Ġgr ant
Ġmonth s
Ġexerc ise
D R
Ġprof ile
è¡ ¥
Ðµ ÑĢ
éĢ Ķ
m ethod
O r
v a
Ġg ave
s ur
å¤ļ çļĦ
bl ack
G P
is ition
z weil
Ġrapid ly
Ġfor get
Ġpl ays
çĽ¸åĲĮ çļĦ
) ^{\
ut ely
1 50
è§Ĥ å¯Ł
Ġestim ating
Ġdist ort
ç»ı è¿ĩ
Ġexplan ations
è° Ī
ach ine
qu ality
I A
Ġteac her
Ġd ed
è ĵ
Ġ{ {
ä¸Ĭ è¿°
Ġtri es
è·¯ å¾Ħ
id ge
éĢ Ģ
ç» ª
Ġdec ided
19 7
Ġrec overy
åıĤ ä¸İ
Ġsit es
Ġcomput es
æ¸ħæĻ °
è¿Ľ ä¸ĢæŃ¥
ĠIn f
Ġcam eras
Ġarg u
æŀ¶ æŀĦ
ĠL aw
s in
ç¼ĵ åŃĺ
Ġsuc ceed
Ġ ~~
reg ular
k ers
Ġconvers ion
æŃ£ç¡® çļĦ
Ġimag ine
re ds
Ġdefin itely
æĻ® éĢļ
Ġpl ots
ĠB er
Ġprodu cing
B e
Ġ20 6
}) ^
Ġbox es
Ġre verse
æĢ» æĺ¯
ĠS i
Ġpossib ilities
ç ¹
g athered
åľ¨ è¿Ļä¸ª
,\ ,
Ġrele v
Ġinvestig ated
Ġbu ffer
æľĢ å¤§
l a
ĠMod els
re levant
v ari
Ġwor ry
Ġt ends
å¤įæĿĤ çļĦ
ä¼ĺ çĤ¹
atch ing
in ity
Ġ åĽłæŃ¤
Ġens ures
ç¹ ģ
ip edia
åĽ Ń
Ġinv ention
Ġmut ual
åŃ £
\ *
ide o
Ġderiv ative
if ul
Ġj our
Ġdeli ver
Ġhistor ical
Ġn ice
ç»ı æµİ
åĪĨ å¸ĥ
åĲĦ ä¸ª
Ġsymbol ic
sl ant
éļ Ķ
Ġmaintain ing
t uning
åį ļ
i ot
Ġdetect or
Ġus ual
ç» ¿
Ġconsider ation
Ġcons ervation
E q
Ġang le
Ġ[ .
od ot
Ġhe ter
Ġc ro
Ġteach ing
Ġbenef icial
Ġ Ï
Ġt ight
ä¼ĺ ç§Ģ
ĠT od
Ġacoust ic
ĠS E
Ġ20 5
ĠT ake
å®Į æķ´
Ġpl aced
è¡¨ æł¼
Ġle verage
Ġto ur
å° Ĭ
å¢ŀ å¼º
Ġle aves
æİ¢ ç´¢
å¼ķ åħ¥
\ '
Ġcomm ands
ì Ŀ
Ġt ables
al es
Ġaver aged
Ñ ħ
Ġ9 7
\_ [
Ġ Ã©
ĠB ar
é º
all oc
a fter
t an
Ġr ig
is her
ot al
Ġright s
åı¥ åŃĲ
æķ°ç»Ħ çļĦ
Ġconst it
( ),
Ġim aging
Ġheav ily
çĽ¸ åºĶçļĦ
Ġrot ation
Ġm aster
åı ¶
çģµ æ´»
ä¿ ĥ
åľ Ĩ
ĠO S
ips chitz
Ġd og
Ġde bugg
ĠD is
Ġp ain
é£ ŀ
ĠA ck
Ġreview s
Ġquadr atic
éĽ ¶
Ġsp ent
æµ ª
unders et
Ġmass ive
Ġab ilities
ĠPh ys
Ġconven ient
æ¬¢ è¿İ
ĠD et
Ġpre ced
25 6
el ess
Ġcare fully
Ġdeploy ment
æį Ł
Ġbud get
Ġsp ot
ĠN ever
ĠN umber
å¹ ¸
Ġorth ogonal
Ġdeploy ed
æĪĲ éķ¿
Ġrep et
Ġrecurs ion
æŃ£ å¸¸
ĠF ort
ç £
Ġdang er
Ġpercent age
ĠHe alth
ĠH er
Ġopin ion
Ġstrict ly
Ġinst r
Ġ ing
Ġlabel ing
çľ ¼
Ġcontext ual
Ġtrans parent
Ġtrans parency
å¾Ģ å¾Ģ
ĠCon sequently
Ġdecl are
ä¸Ĭä¸ĭ æĸĩ
O n
è¦ Ĩ
åīį éĿ¢
ä¿¡ åı·
Ġintern ational
è¶ ĭ
çĸ ĳ
amb ridge
Ġsche dule
e ff
Ġm orph
Ġserv es
Ġimp ress
er ver
ag raph
ä¼ĺ åĬ¿
èĪĴ éĢĤ
Ġfin ds
Ġtre ated
ĠSu pport
Ġexpans ion
Ġsort ed
Ġa w
Ġbill ion
èĢĮ è¨Ģ
èģĶ ç½ĳ
}\ ,
ĠMon te
el oc
Ġ4 8
ab et
tr uth
vd ash
ĠE valuation
fig ure
}$ ]{}
on ly
Ġed itor
fere d
ĠM et
Ġar ise
Ġdig its
Ġ9 8
ĠB usiness
åĳ ¼
ĠS y
Ġun iverse
åİĭ åĬĽ
ou ble
Ġequ ilibri
ol t
æĦ ¿
rib uted
ĠO bs
Ġsqu ared
Ġf ire
}} },
ĠN a
ĠO b
Ġpos it
Ġindu ced
i ency
Ġmodel ed
Ġhealth y
çī¹ å®ļ
æ¨¡ æĿ¿
åŃĹ æ¯į
D K
}$ -
script style
Ġutil ized
a el
å®ļä¹ī çļĦ
äº ĳ
c ell
Ġaugment ed
ĠW ang
Ġ= >
Ġpro pag
ĠAg ain
Ġcou ple
Ġanalys es
ĠCom bin
Ġcal ib
Ġdialog ue
Ġcon vol
æĪĳä»¬ å°Ĩ
ĠS oci
N o
Ġp ython
ä»Ĭ å¤©
Ġcre ativity
Ġ8 5
ĠS ocial
ill a
Ġsh apes
b ed
ç»ı åİĨ
æİ ª
Ġcount ry
ç¬ Ķ
r ang
Ġs un
Ġscen es
oc king
ä½ĵ çļĦ
F A
* ^
Ġrelev ance
æĺ¯ çĶ±
ĠQu ant
åĢ Ĵ
ĠKur zweil
è Ĺı
çĽ¸ å½ĵ
H ow
Ġloc k
Ġs av
ve e
ĠApp le
ĠR ay
ĠIn v
Ġocc up
Ġg ate
pro b
æŁ¥ çľĭ
ä¹Łå°±æĺ¯ è¯´
ra ctions
Ġa head
Ġconcern ed
ul ating
ĠAnal y
Ġ9 2
over n
Ġphenomen on
Ġloc ally
æŃ¤ æĹ¶
De ep
Ġ ä¸Ģä¸ª
ĠGo od
Ġin formative
ic ing
ĠB el
~ *
Ġinterpre ter
ĠBas ic
çļĦ åıĳå±ķ
Ġsummar ized
é£Ł çī©
ĠÐ¿ ÑĢ
Ġinst it
ot ion
f ile
ĠD ig
Ġm s
Ġelect ronic
æĥ³ æ³ķ
Ġrem ote
ĠWith out
_{ -
E rror
o in
Ġincorpor ating
ple ments
Ġfor ces
ĠB rain
éĵ¾ è¡¨
Ġsupport ing
çĮ ®
åĨħ æł¸
ĠS ign
ĠR F
éĥ½ åı¯ä»¥
è§Ĵ åº¦
D S
ç¤ ¼
åľ¨ ä¸Ģä¸ª
Ġrequ iring
æŀ Ĺ
ç»Ħ ä»¶
Ġe ight
Ġsc r
Ġdifferent ial
èĩª æĪĳ
s ect
L i
ĠH u
çļ ®
ĠJ an
ç³»ç»Ł çļĦ
ĠCompar ison
Ġt ro
Ġpop ulations
Ġturn ed
Ġmotiv ated
ar ter
T ime
Ġlocal ization
ĠTh ough
ĠM ult
Ġh ouse
as ure
l ab
Ġdeg rad
Ġ ä¸į
Ġdown load
Ġhund reds
å¦Ĥ æŃ¤
Ġ201 9
æĬ¥ åĳĬ
ven ue
ic ated
ĠF P
ĠK L
Ġdynam ically
Ġcount s
æĭ¬ åı·
åĬł å¼º
Ġdetect ing
=\ {
çļĦ è¿ĩç¨ĭ
çļĦ åŁºæľ¬
bi ased
Ġguid ance
çŃī äºİ
åıĺ æĪĲ
Ġin ject
V ar
sim ilar
p redict
ĠO per
s is
æ¯ ķ
Ġsuggest ions
or gan
irection al
G A
ç ĩ
çļĦ å®ŀçİ°
Ġaffor d
ĠS un
Ġaware ness
a j
Ġl ambda
éļı æľº
text sf
ĠS an
Ġpar ser
Ġorig inally
ap se
m p
çº ³
as cal
Ġproof s
Ġ~ *
Ġne ither
ex ists
Ġhe at
att ention
èµĦ æĸĻ
Ġread y
Ġassist ants
ĠFe ature
o on
Ġdisc overed
th rough
ĠF in
( *
ä»Ģä¹Ī æĺ¯
Ġc overed
Ġsing ular
av as
åĽ° éļ¾
Ġequival ence
Ġun ion
ĠN AS
Ar ray
b ullet
ĠThe ory
Ġke pt
Ġcompil ers
Ġcom pl
Ġ å¯¹
Ġag ricult
ĠScal a
å¤§ éĩıçļĦ
çī© çĲĨ
" ;
as ters
un ct
ĠClass ification
è´Ł è´£
r ant
Ġprovid ers
æķ° åĢ¼
N ew
ri an
ĠG et
it ors
ĠComp ared
ad ing
ĠP ark
ĠEx amples
äºĭ å®ŀ
) {\
Ġtempl ates
Ġsec ure
Ġintegr ate
Q A
Ġcirc um
å¹¶ æ²¡æľī
æ° §
Ġpol l
Ġ3 7
pl ot
Ġw a
ĠR ef
Ġdig it
Ġx s
Ġpredic ate
p an
ens us
Ġpur ch
Ġn ight
sh ort
è¿Ļ ä¹Ī
Ġim m
Ġconvert ed
ĠA ust
]{} [
çŁ ©
Ġc ast
Ġinitial ly
im odal
ĠZ hang
angu ages
åĲĮ ä¸Ģä¸ª
Ġ è¯Ńè¨Ģ
H S
Ġ20 4
Ġphr ases
ion ed
Ġbo ard
ta g
Ġmotiv ation
Ġt ens
Ġdifferent ly
Ġa maz
S im
sh ip
Ġclaim s
Y ou
Ð ¿
Reg Ex
su pp
Ġ9 3
ru it
Ġm ys
urac ies
Ġsu p
Ġ4 2
Ġcol ors
n y
Ġext ens
Ġscal ar
ĠS R
æ° ¸
sc ore
Ġdise ases
Ġem iss
Ġun f
éĵ¾ æİ¥
Ġemer ging
æ±½ è½¦
ä½ł éľĢè¦ģ
P y
Ġag reement
h an
Ġproport ion
sc ape
é¢Ħ æµĭ
ĠInt erest
Ġsp ir
å© ļ
Ġ1 50
ĠT ext
m ic
Ġsens ory
Ġeleg ant
vers ion
ä¸Ģ èĩ´
æīĢ ç¤º
ç ĳ
äº ®
Ġoptim izer
Ġrece ives
Ġord ers
Ġ20 2
Ġv eloc
èĩ³ å°ĳ
c ount
Ġcont rad
éĢĤ å½ĵ
P E
Ġlow est
ro y
è¯Ĩ åĪ«
åİ ħ
ĠC ambridge
ract able
åİ Ĥ
ä¹ĭ å¤ĸ
\! \
Ġto ld
çĽ¸ ä¼¼
Ġdec ade
A A
ot o
Ġmarket ing
çļĦ åľ°æĸ¹
t u
Ġaud ience
Ġthough ts
Ġform ed
^{ {\
z a
Ġwould n
D C
sc ience
éĻ Ħ
Ġh on
Ġoppos ite
Ġat oms
Ġfl at
Ġport ion
. -
è°ĥ è¯ķ
Ġst ories
Ġpri ors
r s
( $
å¹³ åĿĩ
r ich
s ystem
ever al
s cal
Ġå½ĵ çĦ¶
Ġ9 4
Ġg arbage
Ġslow er
ĠC le
act or
Ġinform ed
ĠOn ly
( [
Ġback ward
li u
en ance
anc hes
od ies
æĦı æĢĿ
Ġquant ity
F F
di ag
ĠSt art
ĠCol le
ĠC y
ĠC urrent
Ġbrief ly
Ġours elves
Ġcar bon
ĠInt el
Ġpredict s
Ġw ish
ĠT ree
am pling
Ġcirc le
struct ured
Ġte le
Ġfl ag
Ġr ational
ĠStan ford
Ġ9 1
Ã§ Ã£o
{ $\
çļĦ åŁºç¡Ģ
ĠD on
Ġthere by
Ġhapp y
åĳ¨ æľŁ
Ġscient ist
Ġcl ause
Ġtext ure
d ate
} /
æīĭ æľº
åŁ¹ è®Ń
Ġindust rial
Ġreal ize
Ġver b
b el
} &
com ing
Ġbin ding
} [\
ĠP C
i as
r c
en ess
Ġacqu isition
}^{ *
è Ķ
ĠM ax
ĠR ed
ic king
çļĦ ç¨ĭåºı
th at
åįı è®®
Ġreal ized
çļĦ åĬŁèĥ½
Ġexhib it
u k
19 5
æľī è¶£
éªĮ è¯ģ
Ġrecogn ized
opt im
+ .
Ġ6 5
Ġan c
Ġkey word
il ding
Ġcomb ines
ĠD an
åĶ ¯
display style
Ġs ession
Ġj ump
}} ,\
The re
ite RegEx
è± Ĩ
ore st
ĠA NN
Ġsol id
G I
amet er
è·Ŀ ç¦»
å°½ ç®¡
ĠB r
éĢĤ åºĶ
b as
æľī å¾Īå¤ļ
aus es
åŃ¦ ä¼ļ
Ġplay ed
ĠOther wise
åħ¬ åħ±
æĮĩ å¯¼
Ġbas ically
} :
ĠE M
å¹³ è¡¡
éľĢè¦ģ æ³¨æĦı
Ġhab it
=" .
çĭ¬ çī¹
Ġassess ment
çļĦ æĵįä½ľ
Ġguarant eed
é¼ ĵ
ĠR ight
Ġax is
ĠRe view
æĽ¿ æį¢
ĠSm all
åĪĽ æĸ°
Ġden o
uit ively
Ġorient ation
Ġsimilar ities
ĠCh ar
Ġn arrow
Ġaddress ing
Ġfair ness
G C
èĩª èº«
Ġcharacter istic
oth ing
ent ropy
ç»ı åħ¸
f n
ĠP R
Ġ3 8
v is
I EEE
) }$.
èī² çļĦ
Ġapp s
å· ¨
Ġfre ed
Ġs leep
ä»» æĦı
u el
l ass
Ġ3 9
åĪĿ åŃ¦
Ġim plements
Ġre n
Ġaddress es
Ġtransl ate
çļĦ æĥħåĨµ
ĠTw itter
ĠN av
IN G
è®© ä½ł
*( *
ĠL o
Ġaggreg ation
ers on
Ġco vers
ou l
Ġto uch
D B
ĠS everal
åıª éľĢè¦ģ
$ ^
ĠE rror
ĠT er
int enance
Ġassoci ation
æĺ¯ ä¸į
ĠÐ ´
pr ise
Ġst ake
ob j
Ġsuperv ision
åĲ¯ åĬ¨
æİª æĸ½
ĠAl gorithms
Ġhyper parameter
ĠO ff
Ġevol ve
Ġpan el
Ġlinear ly
Ġconnect ivity
Ġf uzzy
çİ¯ ä¿Ŀ
é Ń
ĠK e
Ġpolit ical
í ķ
Ġprim arily
è¿Ļ æ®µ
Ġsa w
Ġthe ories
ĠAda pt
ĠM art
ĠEurope an
ĠNever theless
Ġdraw back
riend ly
Ġavail ability
Ġsimpl ified
å® ł
Ġhypot heses
æ¸© åº¦
ĠE duc
ĠS k
oll ary
Ġmov ie
çİ ĭ
Ġcomplet ion
Ġpo em
åĽŀ è°ĥ
Ġbig gest
Ġsee k
) }$,
a uthor
Ġrecommend ation
çģ ¯
ĠL in
åĻ¨ çļĦ
ne ural
S o
o ption
Ġun like
ag ent
è¶ĭ åĬ¿
ĠPe ople
è¦Ĩ çĽĸ
if iers
U N
avas cript
ĠSc ient
hold ers
ĠCon c
å® ¡
è¡ £
Ð¾Ð »
let on
ĠAssoci ation
å° ļ
Ġper ce
æĶ »
Ġsign ature
plic ate
Ġ20 3
Ġint ensity
Ġopt ical
. :
Ġdescript ions
æĪĳä»¬ åľ¨
ret urn
Ġshor ter
æĶ¾ åħ¥
}} }{\
Ġmys elf
æľī åĬ©äºİ
çĽ Ĳ
ĠM LP
^ [
Ġlearn er
Ġman aged
Ġ19 0
CM C
ĠCont rol
ĠAr chitect
Ġobject ives
Ġim mediate
ĠTod ay
Ġcompil ation
Ġcalcul ations
åĲ¸ å¼ķ
T est
Ġdesign s
ĠC ould
Ġfam ous
çļĦ ç±»åŀĭ
æİ¥ æĶ¶
." ,
Ġbelong s
\] [
ĠG C
Ġcomple ted
stack rel
æĦı è¯Ĩ
Ġempir ically
Ġgeomet ry
Ġ ä¸İ
Ġpredict or
Ġmitig ate
æĭ ¿
ĠDevelop ment
C ol
h ouse
ĠL inear
ren ch
t frac
åĲį çļĦ
ĠSoci ety
Ġ8 4
éĻ ¢
æ¼ ı
ĠC hen
Ġdetermin es
S e
Ġmod es
Ġh op
rough t
ra b
æİ¥ ä¸ĭæĿ¥
Ġbu g
ex pected
Ġevalu ations
Ġcrit ic
Ġbl ic
æ¯Ķ èµĽ
Ġra ce
Ġfacilit ate
a a
Ġradi us
Ġgr asp
Ġ Ñ
text normal
Ġse arc
Ġy es
Ġpar agraph
^ -
red iction
æŁ¥ è¯¢
å® Ī
id er
Ġconstruct s
ĠCon volutional
ĠRe al
urre ncy
ĠV ol
Ġformul ated
Ġmod elling
è½ ®
Ġ ä»£çłģ
ĠS l
Ġfact s
Ġpres erve
Ġh it
Ġf r
ĠT yp
Ġmanufact uring
çľĭ çľĭ
Ġn ucle
æ·± åº¦
Ġsty les
ĠC ho
Ġph on
Ġconsider ations
è ľ
A t
Ġm im
éĿ Ĵ
åĮ Ĺ
Ð° Ð½
ric k
Ġj ournal
Ġhe ap
Ġcount ing
Ġhist ogram
Ġcollect ive
p matrix
ÑĤ ÑĮ
Ġwork er
0 12
çĽ¸ ä¿¡
ä¸Ń å¿ĥ
ĠSc iences
Ġprotect ed
å¤± è´¥
çļĦ çº¿ç¨ĭ
ĠU SA
Ġmin ds
ĠL R
\ }\
Ġthe rap
ĠDef inition
å¯ Ħ
con c
Ġexponential ly
Ġmist akes
D T
l r
Ġb ott
Ġmaxim al
- {\
Ġmanip ulation
Ġsyn aptic
Ġlist ed
ĠT rue
Ġchem ical
éĩĩ åıĸ
Ġlingu istic
Ġ< /
Ġn an
ĠA R
CV PR
n s
ĠP ract
Ġthan ks
ä¸Ģ çĤ¹
c ut
iz able
ĠB est
Ġd ot
åĬ¨ ä½ľ
sh op
ĠI P
åķĨ åĵģ
èĥĮ æĻ¯
å ª
ĠCL OS
å®ł çī©
Ġal igned
Ġ8 9
Ġpart ners
ĠRobot ics
A ll
st atic
Ġsp end
}}, {\
Ġexpect ations
not ag
por ary
Ġmod ular
è ¸
è¿Ļ ä¸¤ä¸ª
}}_{ {\
Ġprim itive
Ġtransl ated
æł· çļĦ
Ġf a
Ġsummar ize
Ġocc l
+ )
ĠA CM
Ġaccept ed
æĿ İ
s yn
éĹŃ åĮħ
Ġequ ip
Ġapp arent
U S
on ical
ĠY et
è° ĵ
Ġquant itative
ĠM emory
äº¤ äºĴ
å° ¤
S QL
ra g
Ġsee ing
Ġcl ients
è§Ĥ çĤ¹
Ġcont ents
Ġw arn
Ġconstruct ing
åºķ å±Ĥ
Ġhe ar
_{ {
' :
æ¥ ļ
Ġan tic
irect ed
sp ired
d etermin
è®¡ æķ°
ĠWik ipedia
Ġf iction
çº ¯
S m
æľ¬ æĸĩ
Ġnorm ally
Ġcounter part
il er
Ġindic ated
Ġspeak ers
åı¥ è¯Ŀ
z en
ab s
R ec
æĿ¥ èĩª
ä¸į åĨį
st d
æľī ä»Ģä¹Ī
Ġdiv ide
å°ı çļĦ
Ġlet ters
u its
Ġro un
Ġassum es
ä¼ļ è¢«
Ġflo at
Ġp us
æĹ ¦
Ġdisc ipl
Ġs we
ak er
P l
Ġfeel ing
ĠI o
se q
C O
ç»ĵæŀĦ ä½ĵ
ĠCar lo
Ġgener ations
Ġperturb ations
Ġpl ane
ĠT om
ĠK nowledge
Ġb us
å°½ éĩı
Ġbeaut iful
C H
lik elihood
Ġmark ed
Ex ception
æį ķ
al g
ol es
åĲĪéĢĤ çļĦ
ĠMach ines
ar ith
Ġins pect
o plus
Ġcapt ures
Ġnot es
` ]{}
Ġeigen values
Ġf oo
ĠE nt
äºĴ èģĶç½ĳ
Ġn ested
ach ing
Ġsupp ly
Ġre new
å» ¶
Ġstudy ing
Ġpress ure
Ġg ather
ĠJ VM
Ġor iented
Ġobtain ing
åģļ åĩº
ĠG en
Ġen umer
Ġcare er
ä½¿çĶ¨ äºĨ
æ² Ļ
ex pl
if act
19 6
t ree
Ġfrequ ent
æĵ İ
ad apt
Ġaver aging
il ies
åĩ Ģ
p ix
Ġdifferent iable
æĤ ī
Ġhand s
Ġexperi enced
â Ķ
Ġmon ad
Ġord ered
å¹¶ åľ¨
Ġch ose
ĠP res
æĹ¶ çļĦ
Ġdes irable
Ð½ Ð¾
O ut
d isp
å¼ķ æĵİ
i ations
Ġexpert ise
s ch
Ġconc urrent
g ood
Ġconsid ers
Ġt ech
W ave
Ġperfect ly
ari an
ĠIn c
Ġ8 6
è½¬æį¢ ä¸º
ĠÐ ¼
Ġprofession als
Ġtag s
Ġcolle ag
Ġacc uracies
Ġbr anches
è®² è§£
Ġvert ical
æĻ ļ
C o
ock et
Ġd ark
iling ual
Ġtext s
J S
æłĩ è¯Ĩ
å¢ŀ éķ¿
åĶ¯ ä¸Ģ
Ġ8 7
v as
Ġ19 8
pre c
Ġby tes
ĠRem ember
Ġa ck
Ġenc aps
æ·· åĲĪ
ĠDiscuss ion
ç»Ł è®¡
Ġ= "
Ġf resh
^ [@
çĽ® å½ķ
Ġveh icle
Ġprote in
im g
ĠU K
éĤ£ ä¸ª
A PI
Ġeth ics
ĠCre ate
ĠPr inc
F L
M y
ment ioned
è£ħ é¥°
æ³¨ éĩį
m t
ig inal
æŃ£ åĪĻ
Ġinv ent
al ax
Ġ8 1
Ġpre ference
Ġexec ut
li ers
m c
Ġcomp ares
Ġmod ification
æľ «
Ġmoment um
ĠN ame
ĠC ase
åĢ Ł
Ġaffect s
ĠAut o
ĠAm ong
Ġdecre asing
ç¬¬äºĮ ä¸ª
åħ¶ æ¬¡
æµ ®
Tr ans
ort s
Ġ8 2
M e
ĠS QL
è°ĥ åº¦
Ġwrit es
è¯Ħ ä¼°
åĩł ä¹İ
ä¼ļ åľ¨
Ġprom oting
Ġdam age
Ġintr insic
Ġ ä¸ºäºĨ
ä¹Ł ä¸į
Ġengine ers
åĲİ éĿ¢
Ġmove ments
Ġcalcul ating
19 2
ä¸Ģ å®ļçļĦ
b ur
Ġ7 2
ĠC S
Ġmov ed
åį ĥ
Ġbi ology
è Ń
Ġdri ven
Ġres ist
p ur
æĬ ĺ
ĠCol l
column width
ĠSp ace
Ġpar se
am m
Ġex change
c raft
ĠM A
all s
comput er
Ġtop ology
triang leq
æ¸ħ æ¥ļ
Ġpos es
form ula
ĠTh om
ĠRep resent
Ġdisc ard
Ġas king
" ).
Ġpre fix
Ġs igmoid
è¯ Ĺ
åĬł ä¸Ĭ
Ġdiscuss ions
Ġdecl ared
o ken
åİŁ åŃĲ
è¶ħ è¿ĩ
Ġrepe at
Ġcent ers
r d
ill ance
Ñ İ
åħĥç´ł çļĦ
ĠM ake
Ġtarget ed
Ġd uration
Ġfun ding
Ġquant ization
Ġro les
Ġamaz ing
ĠA UC
ib ly
ç© ¿
Ġa ward
lik ely
B A
Ġob j
Ġon t
ĠS par
Ġ8 3
å¤§ éĥ¨åĪĨ
ĠâĢ ¢
Ġlex ical
ĠAp plications
æīĢ éľĢ
ĠP os
Ġopp osed
ĠJ u
ĠF unctions
v s
in ner
Ġinteg ral
çĿ ¡
ĠX ML
as hed
ĠS pe
Ġmot or
å®ŀçİ° äºĨ
çļĦ è®¾è®¡
Ġpro xim
Ġ5 12
Ġad equ
Ġpure ly
ĠH ist
Ġdevelop ments
ĠOptim ization
åĢ¼ å¾Ĺ
( ).
äºĮ è¿ĽåĪ¶
Ġ éĤ£ä¹Ī
ĠV ision
Ġpos s
Ġauto encoder
Ġat omic
Ġ å¯¹è±¡
Ġimplicit ly
. ;
å®ļ æľŁ
å® ½
Ġantic ip
Ġdistin ction
åĨ Į
sk i
F P
Ġg reedy
Ġequilibri um
Ġpe ak
Ġconf usion
be ing
met ric
Ġpoint ed
h ash
Ġ- (
ĠR O
Ġlat t
ĠCon st
Ġwant s
Ġsubstant ial
Ġor acle
ç» ĺ
Ġinnov ative
æĺİ æĺ¾
c an
ĠT ask
è¯ģ æĺİ
Ġapproxim ations
Ġfocus ing
Ġ æ³¨æĦı
çļĦ ä¿¡æģ¯
ĠW rite
ĠD L
Ġgain s
è· ĳ
Ġprocess ors
å°± åĥı
çľĭ èµ·æĿ¥
çļĦ æ¦Ĥå¿µ
çĤ Ĵ
in o
Ġ$\ |\
ĠCh all
ç¬¬ ä¸ī
;\ ;\
ĠM ind
Ġ ç±»
åĮĸ åŃ¦
d el
å®ŀçİ° çļĦ
Ġcharacter ized
B y
äº ļ
Ġreg ist
} .\
Ġ ri
Ġo vers
æĺ¯ æľĢ
com plete
ç¥ ¨
é£Ł åĵģ
ç» ĳ
Ġaccompl ish
c ur
å°ı è¯´
ĠEr lang
}} _\
éĢĲ æ¸Ĳ
Ġd edu
Ġsign s
ç¯ĩ æĸĩç«ł
åĨ °
ic ian
ĠCl oud
ĠWh ich
or row
Ġtw ice
F S
B ox
Ġsh r
ĠV iew
çİ° å®ŀ
Ġsol ver
E n
Ġstore s
p ost
Ġin clusion
iv il
Ġma pped
Ġm es
p et
æīĵ å¼Ģ
bl ue
åĨ³ çŃĸ
}} }^
ou rier
æĭ ·
ĠC ity
_ +
Ġtack le
Ġan onym
Ġsens ing
Ġlimit ation
Ġstation ary
Ġ7 8
Ġgrow s
çļĦ åºĶçĶ¨
Ġrare ly
Ġpermut ation
i pp
å¼º è°ĥ
le m
il ton
æ³Ľ åŀĭ
Ġle af
åıĳ éĢģ
Ġfit ting
Ġ6 8
}} ^\
ĠU pd
Ġabs ence
ĠB ERT
at o
or ch
Ġs pl
Ġinc red
Ġpur su
Ġma intenance
Ġw omen
éħ ¸
Ġcons ensus
Ġsepar ated
Ġmere ly
Ã ¼
æĿ ¯
Ġheav y
or ough
V alue
ion e
æķ° çļĦ
am a
æĴ Ń
^* (
Ġcon clusions
æĦŁ åıĹ
Ġ(\[ ]),
çİ© å®¶
Ġpropos ition
ĠG ra
ĠPro v
ĠA A
Ġpl astic
æĪĳ æĥ³
Ġim bal
Ġend s
Ġser ial
Ġ rain
Ġdri ver
ĠD etail
ä»¥ åĲİ
æī§è¡Į çļĦ
Ġde ath
Ġpass es
Ġ4 1
Ġ4 3
Ġbe ings
Ġ7 6
Ġinter section
d frac
åıĬ æĹ¶
æ½ ľ
Ġpl ants
Ġ ä½Ĩæĺ¯
è´£ ä»»
Ġstre ams
çĨŁ æĤī
Ġprom ise
/ (
Ġ4 9
æľ¬ è´¨
åª Ĵ
è® ¢
G ener
Ġclos ure
E qu
ĠFe b
è¿½ æ±Ĥ
Ġcap ital
ä¸¥ æł¼
åħ¨ éĥ¨
åħħ åĪĨ
å¼Ģ æºĲ
æĭ· è´Ŀ
Ġ\ *
L I
åİŁ å§ĭ
èį ¯
Ġun biased
. *,
ç©º æ°Ķ
Ġavoid ing
Ġful fill
LE U
g n
pon ent
Ġphilosoph y
) ^\
å·® å¼Ĥ
= [
Ġderiv ation
ĠB oolean
' _{
writ ing
Ġapproxim ated
g rained
æĥħ ç»ª
Ġmed ian
ĠD NNs
Ġ~~ ~
Ġro ll
ä¸ĭ çļĦ
âĢ Ķ
l ig
Ġeng age
I s
ĠB N
clud ed
im pro
Ġpack ages
Ġpolym orphism
Ġ\[] ),
ĠE ffect
ĠTh ose
å¼ ĥ
Ġprot ot
Ġ* [
Ġveloc ity
åº §
æĲŃ éħį
ro om
åħħ æ»¡
Ġtell s
M odel
Ġparamet ric
print ln
Ġrestaur ant
è®¤ è¯Ĩ
empt y
æĬĽ åĩº
Ġded icated
å¤§ åŃ¦
éĢī é¡¹
Ġsimpl ify
ro ut
I nd
Ġart ifact
ĠV AE
Ġ4 7
Ġsk ip
Ġassist ant
åķĨ ä¸ļ
Ġcollabor ative
out ine
H E
çĤ ¼
ĠFram ework
ĠS elf
Ġbo ot
Ġadjac ent
ç®Ģ æ´ģ
oo king
Ġbelief s
un te
å±Ĥ æ¬¡
}{ (
åħ·ä½ĵ çļĦ
ĠE mb
c ore
Ġread s
å°½ åı¯èĥ½
Ġche cks
Ġoff set
Ġrecomm ended
ä¸Ń éĹ´
Ġstake holders
å¿ ½
p ower
æĺ¯ åĽłä¸º
Ġ7 3
å¹¶ è¡Į
Ġ ä¸ĬéĿ¢
act ory
Ġl ic
V C
Ġcon sec
lo op
Ġoptim um
O G
Ġprefer red
n ull
æ´ ĭ
Th read
çº ª
Ġ7 9
èĵ Ŀ
ĠDig ital
Ġ âĢľ
ĠI R
appro xim
ĠTo ol
Ġfam ilies
a e
Ġsimpl est
æ± ¡
par ison
Ġeng aging
Ġexc iting
Le arning
çĶµ èĦĳ
å± ı
å®¶ åħ·
ä¸Ģ æĿ¡
Ġf elt
Ġwas n
ÑĢ Ð°Ð
è½» æĿ¾
åĬĽ åĴĮ
M ore
ĠS peech
Ġput ting
çļĦ äºĭæĥħ
Ġacc um
Ġbr ings
Ġ[ (
h igh
F C
G E
Ġ19 7
è§Ħ å®ļ
ĠLabor atory
ash ing
v y
Ġ5 1
Ġstimul i
Ġindepend ence
Ġrel ational
oun tain
ĠLib rary
f alse
Ġsal iency
Ġinfer red
å¤ļ æĢģ
al t
çĪ¶ ç±»
Ġrang ing
Ġad vers
Ġre aches
Ġ ÑĤ
å¯Ħ åŃĺ
Ġ5 4
ele br
ce an
* {\
ĠI dent
Ġpublic ly
ĠE arth
éħ ±
æµıè§Ī åĻ¨
ĠA ug
ĠW rit
Ġel abor
c rit
ĠD NA
ĠInt eg
åħ· å¤ĩ
Ġfail ed
w in
ac les
Ġse vere
Le ft
Ġre write
paramet ric
åī §
ĠI ter
B O
ĠC T
Ġsort ing
Ġinterpol ation
Ġact s
ç¾İ åĽ½
Ġp le
ph r
. [^
ĠAb out
ĠA P
Ġgl ob
çº¿ç¨ĭ çļĦ
Ġdescript ors
Ġsub tle
æĽ ¾
ĠL ocal
ĠV er
ĠJ S
d eg
Ð¾Ð ¼
Ġconf ir
Ð¾Ð ´
olog ists
Ġ7 4
éĩĮ çļĦ
Ġact or
åħ¥ éĹ¨
Ġc it
Ġ5 6
Ġap art
Ġregard ed
d em
Ġinvest ment
i us
Ġ æīĢä»¥
æıĲä¾Ľ çļĦ
ĠPo ly
Ġequ als
Ġso il
Pro ceedings
Ġign ore
ç»ĵ çĤ¹
Ġbott len
Ġpre processing
ĠCon text
Ġ5 2
ĠPro t
de pth
Ġaccording ly
^* _
Ġâ ī
Ġey es
Ġproport ional
Ġ çĶ¨
å¡ «
ĠDo es
Ġ éĤ£
Ġgradu ally
çº ¸
ch ain
Ġpre p
ç¨ İ
t wo
è´¢ åĬ¡
æ±ĩ ç¼ĸ
ĠIm pro
im ation
ĠL anguages
red u
ad van
re et
con f
omet imes
Ġsqu ares
Ġf inger
en ed
çļĦ æĥħåĨµä¸ĭ
l arge
Ġ} ;
int on
é¼ĵ åĬ±
Ġun likely
ann ed
air s
å·¥ç¨ĭ å¸Ī
Ġdisc ount
å¾Ī å®¹æĺĵ
Ġcou pled
Ġcompat ible
ĠRec ent
ĠMich ael
l ines
åı ī
é«ĺ åº¦
éĢļ ä¿¡
ĠAl tern
J VM
å· ´
æ³ ¡
Ġ\ }
ĠJ une
Ġscr atch
Ġreg ulations
åĲĮ ä¸Ģ
M at
ĠIn put
çº¿ æĢ§
ab y
Ġso le
Ġrandom ized
19 4
å°¤ åħ¶
åĨ ·
çĶ ³
Ġcons ult
Ġadd itive
èŃ ¦
it em
per ty
æĹ¥ æľŁ
iv ation
Ġbig ger
Ġfreed om
Ġir relevant
Ġd a
ar a
Ġsal es
åŀĥåľ¾ åĽŀæĶ¶
Ġcy cles
ĠSec urity
Ġ ä¸ª
cept ive
å® ı
Ġchat bot
Ġ }}
Ġhorizon tal
Ġdepict ed
Ġbl ur
æĢĿ è·¯
k o
f oo
Ġdis place
Ġfig ures
ĠI O
re st
å¤ĦçĲĨ åĻ¨
ad er
G L
l anguage
Ġc ities
ç¼ĸ è¾ĳ
ass o
t i
Ġform ally
Ġvalid ate
O ne
f inal
Ġse ven
re m
Ġra ise
Ġsub class
ä¿ĥ è¿Ľ
$ ^{
ĠGAN s
ĠGl obal
ĠP oint
ĠK ey
åı£ æĦŁ
ĠObject ive
ĠM obile
Ġshe ll
Ġsurve illance
Ġplan et
Ġ ur
Ġ ä½ľä¸º
}) =
ç³ ķ
Ġn oun
c hers
çļĦ åıĺéĩı
Ġref in
ĠFunction al
n umber
Ġlook ed
Ġelimin ate
D M
v able
Ġha ven
c f
Ġpa int
G M
ĠC V
squ are
b ug
Ġat tain
X iv
il bert
Ġfun c
Ġtu ple
ĠG overn
åį «
å·¥ åİĤ
ĠM ot
Ġbeh ave
ä¼ł åħ¥
Ġst opping
as ion
çħ ®
Ġheur istics
Ġindic ator
tri vial
ĠAssum ption
er os
å® ĩ
Con t
ĠLe arn
Ġ6 7
$]{} ;
å² ģ
ok ed
Ġformul as
requ ency
éĶ ħ
Ġkey words
èĭ± è¯Ń
i et
Ġstand s
ĠTh ank
Ġt aught
res ult
ĠPers on
al og
æ¤ Ĵ
Ġ4 6
æıĲ åĩº
Ġbal anced
Ġl ie
L o
Ġco ol
() `
T M
Ġaltern atives
å¼ķ èµ·
ç¨ĭåºı ä¸Ń
ĠB rit
roun ds
çļĦ æīĢæľī
Ġcompat ibility
æ°Ķ åĢĻ
m iddle
Ġb rought
åĮ Ģ
Ġconsider able
Ġcred it
row n
v m
ĠDef ine
Ġvari ability
Ġmeas uring
ĠO ct
ĠCon s
Ġth orough
çİ° è±¡
Ġemiss ions
Ġnavig ation
ĠA f
v dots
ĠColle ge
æŀ ļ
æĹ ĭ
èĤ ¡
Ġbelong ing
èĲ¥ åħ»
) ]{}
d im
Ġcon sole
st age
A b
é¸ Ł
z y
v ate
Ġknow ing
è¡Į æĺŁ
éľ ²
Ġpartic le
per p
o ir
ĠL ong
æĹ¥ å¸¸
ĠAl an
å®ĥ åı¯ä»¥
ount ered
Ġpr on
Ġdis pl
ĠM us
æĶ¹ åĸĦ
umul ative
re lation
Ġjour ney
Ġ çİ°åľ¨
ĠP ublic
Ġal ph
c ost
do or
Im age
ĠM SE
ĠPro b
æĦŁ è°¢
ĠB ern
rop out
èĤ ¤
ä¿® é¥°
éĿ¢ å¯¹
tal k
Ġ7 1
he nt
ne cess
Ġfactor ization
Ġdeclar ation
Ġ6 9
åĢ į
åĪĿåŃ¦ èĢħ
Ġcour ses
l imin
ç§ ĺ
Ġsp an
æľ¬ åľ°
Ġ ç¼ĸåĨĻ
çī¹ å®ļçļĦ
Ġcolle ctions
é ĨĴ
Ġ ä¸ĭéĿ¢
Ġout er
V ID
}} )\
Ġclos est
Ġenh anced
Ġd ens
è· ¨
ĠDec ision
é¾ Ħ
Ġle aving
ind ependent
inu ous
ĠExperim ent
' $.
çĽ¸ æ¯Ķ
åĲĮæĹ¶ ä¹Ł
åıĤ åĬł
Ġresearc her
ad ata
Ġenc ountered
Ġquant ities
or a
Ġsupp osed
Ġacqu ired
ĠE th
Ġmem or
fram e
Ġlog arith
ed y
Ġby te
Ġen for
H z
gener al
æľī æīĢ
C ode
Ġfe ar
Ġcalcul us
ĠO O
Ġparameter ized
he v
æľī çĿĢ
çķĮ éĿ¢
Ġconvol utions
Ġcontain er
æ¢ ¦
ĠInit ial
ĠPro ceedings
Ġb odies
Ġcorpor a
Ġschedul ing
çļĦ ä¸»è¦ģ
ĠF ourier
Ġb id
Ġ6 2
om an
ĠH TML
}} |
Ġeduc ational
Ġspir it
Ġmed ium
op en
Ġon going
Ġconsum er
r ig
Ġre pos
oun ced
âĶ Ģ
Ñ Ĩ
Ð ·
Ġcoo per
ĠC A
all ow
s pe
ç± į
Ġbehavior al
åı« åģļ
ĠR ather
è®¾è®¡ æ¨¡å¼ı
Ġmat ched
å¥½ å¤Ħ
Ġdis aster
Ġobvious ly
f i
ĠW ol
Ġevol ved
æľĢ å¥½
æĶ¶ åħ¥
åįı ç¨ĭ
pa ign
f riendly
æ£Ģ æµĭ
åħ³ èģĶ
Ġ5 7
viron ment
Ġlay out
Ġsubstant ially
k et
Ġequip ment
Ġgener ality
ĠU ser
}, {\
M ethod
ä¼ ´
å¯¹ æĸ¹
å°± èĥ½
Ġdisplay ed
Ġiter atively
B S
ĠM DP
ĠD epend
' )$
Ġcl auses
b est
æľºåĻ¨ åŃ¦ä¹ł
Ġpriorit ize
Ġint el
j ust
ĠAr ray
h ot
Ġstimul us
æ¶Īè´¹ èĢħ
ĠC M
èģ Ĭ
Ġ çĶ±äºİ
åľ¨ ä¸Ģèµ·
. }
çĶ ·
ann er
c y
æķĻ ç¨ĭ
om atic
é© ±
ĠAd versarial
Ð½ Ñĭ
åı¯èĥ½ æĺ¯
Ġreflect s
( -\
ten ess
ĠP ascal
ÐµÐ ¼
Ġg as
Ġinitial ize
Ġincrement al
åħ Ń
Ġout liers
ĠLi u
Ġp y
Ġill um
ĠG reat
ĠL ipschitz
et her
rupt ed
Ġhuman ity
Ġve get
ĠF rench
Ġfavor ite
Ġassist ance
ä¼ ¤
W ith
i am
Ġdru g
rog ate
Ġad m
Ġ5 8
res ults
Ġord inary
çľŁ å®ŀ
ä¸į çĶ¨
å¯ĦåŃĺ åĻ¨
ĠG radient
å¥ ĸ
è®© äºº
åı¦ ä¸Ģ
é¥® é£Ł
Ġm el
Ġpropos als
Ġprotocol s
æĺł å°Ħ
Ġbuil ds
Ġconsec utive
T L
æ¯ı å¤©
çĶŁ éķ¿
Ġf em
}\ }$
Ġsuff er
åħ¬ å¼ı
Ġat om
ayes ian
Ġfrequ encies
ĠB re
åĴĮ åħ¶ä»ĸ
çŁ© éĺµ
Ġproject ed
ĠM ap
is ters
Ġestim ators
Ġmus ical
Ġextract ing
æ¸ħ æ´ģ
Ġ5 9
Ġimpress ive
ble ms
éĿ¢åĲĳ å¯¹è±¡çļĦ
Ð¾Ð ³
Ġle ts
æľĢ å¤§çļĦ
Ġcare ful
Ġun able
ĠS ource
erv ed
Ġassign ments
r ide
pro p
col on
b ottom
éĩį è½½
ĠA pr
Ġresult ed
çı Ń
Ġto t
Ġ6 3
Q N
ĠCh apter
ire less
Ġcirc uits
Ġw rap
ĠUn ivers
ond on
Ġl azy
Con v
aps es
Ġl ose
Ġfac ed
é¢Ŀ å¤ĸ
å¾Ī éļ¾
Ġphot os
es p
Ġmaxim izing
Ġ(\[ ]).
Ġcorrect ness
ha o
Ġ5 3
ĠUn icode
Ġdynam ical
Ġresponsib ility
G S
ect s
Ġanalog y
M ax
èĮ ¶
Ġcorre ction
ĠSe qu
Ġp ul
Ġsk etch
P s
Ġgr and
\| _{
Ġ<> .
- |
è¢« ç§°ä¸º
Ġp ed
ĠT V
ĠM or
ĠK ern
^* )
Ġsatisf action
æķ´ ä½ĵ
ro gram
æĺ¯ éĿŀå¸¸
Ġcontinuous ly
Ġpropos es
Ġasympt otic
Ġph ases
Ġsc oring
Ġas ynchronous
Ġcategor ical
ĠPre vious
Ġoper ational
è¿Ńä»£ åĻ¨
Ġque ue
é¦ Ī
æ¨¡ æĭŁ
å¹´ çļĦ
ĠW he
ĠPa ul
Ġf asc
Ġreli ability
è Ĩ
åķ Ĭ
Ġmom ents
ä¸Ģ ç»Ħ
amb igu
å¾Ī å¥½
Ġinstr ument
t itle
ii i
T I
ç¼ĸç¨ĭ çļĦ
g ency
put ation
Ġe ase
ĠB o
oun der
Ġå¦Ĥæŀľ ä½ł
ex per
è¿ĶåĽŀ ä¸Ģä¸ª
Ġeng agement
ĠA nt
ĠÂ ·
Ġequ ipped
fere n
æ³ķ å¾ĭ
èĢ Ĳ
est ion
Ġoff icial
ĠV irtual
Ġ è¦ģ
Ġdirect or
è¡¨ éĿ¢
d ifferent
ĠI DE
Ġdisc ret
Ġex pos
Ġdis app
as i
he ta
ĠReg ular
re pres
c r
Ġm ig
d t
Ġinter net
echn ology
pl ane
u is
In ter
åĿ Ĳ
æľīæķĪ çļĦ
ä¸Ģ ä½į
ow ards
åı¯ä»¥ çĶ¨
ç±» ä¸Ń
Ġoptim izations
de v
g ic
Ġmov ies
10 10
ator ial
ĠS L
Ġbeg ins
Ġtr unc
in cluding
& =
~ ,
Ġthe sis
ĠAc adem
c at
N S
ĠA ward
Ġdeno ising
ĠM I
Ġweight ing
gress ive
ha ust
m osp
ä¸Ģ æĹ¦
Ġconcept ual
g radient
çĥ Ī
ĠC P
Ġ6 1
ĠR edu
pt o
ĠMan agement
Ġ[ ]
mut able
Ġ ).
å¿ħè¦ģ çļĦ
hav ior
Ġt uned
Ġinequ alities
åĢ¼ çļĦ
rac king
at les
Ġutter ance
Ġimp ly
Ġpre m
Ġqual itative
Ġredund ant
' $,
ut ral
åĨħ çļĦ
Ġincorpor ated
ĠY u
Ġrestrict ions
Ġperspect ives
p op
ç§ Ĵ
èĻ «
d f
Ġsk in
å±Ģéĥ¨ åıĺéĩı
Ġrelax ation
ĠM ass
ail s
^{ (\
ĠM ain
t ra
çľ ł
big l
bre ak
ne ur
Ġ\ }$
ĠSt ro
Ġconcaten ation
l brack
. ]{}
S GD
m achine
b at
å® £
Ġassoci ate
èĥ ľ
ĠE ss
Ġhe ard
æŀļ ä¸¾
t iny
Ġsp in
Ġdiff ers
Ġpreserv ing
ĠCE O
est s
Ġprot ection
omm od
æ¡Ī ä¾ĭ
g rad
Ġdis par
$ _
olog ically
= -
T H
èĤ ¯
æĤ¨ åı¯ä»¥
ist ing
Ġlead er
W E
éĻ ·
Ġcould n
ĠB ill
Ġin cons
ä¼ ĳ
è´ µ
leq slant
Ġ æĿ¥
ĠBl ue
Ġf ool
ĠS ym
const rained
}} }{
Ġcan onical
a per
ç¡¬ ä»¶
Ġexec uting
åĳ Ī
åºĶ å¯¹
æıĲ åıĸ
ĠSim ple
Ġ ä»¥ä¸Ĭ
Ġshall ow
d ig
, .
Re LU
ir r
æľī äºĨ
h box
Ġpl aus
D ef
Ġadv oc
ä¸Ń æĸŃ
ĠD ynamic
i h
Ġh ur
Ġhappen ed
Ġmult ivariate
y ing
ud es
ĠAp plication
Ġan ch
è§Ħ æ¨¡
row s
Ġam plit
os ion
Ġintel lect
Ġv ice
åįģ åĪĨ
! [
Ġw ind
ä¼ĺåħĪ çº§
æĭ Ľ
ir ation
T A
éĴ ±
Ġsustain ability
Ã Ĺ
fe ature
ĠR ich
te e
Ġ19 5
åĨį æ¬¡
çĬ¶ åĨµ
v in
å°Ĭ éĩį
ĠAcc uracy
éĺ² æŃ¢
_{ {{\
Ġconf ident
ve ctors
ĠB LEU
ä¸į éĶĻ
éĤ ®
æĸĩ åŃ¦
ç´ ¯
w ell
str ong
ĠD P
åªĴ ä½ĵ
nowled gments
E X
éĢĤ éĩı
rib ute
Ġto ler
è´ §
! "
Ġun expected
u ary
Ġdest roy
th m
Ġing red
ĠTh ird
Ġconvers ations
B l
å¼ ±
Ġpre par
èĶ ¬
Ġanalog ous
Ġa xi
Ġrenew able
r brack
Ð°Ð º
not in
Ġswitch ing
Ġposs ess
ĠCon clusions
äº Ī
Ġutter ances
Ġback propagation
çļĦ åİŁåĽł
Ġreplace ment
L og
ä¸į çŁ¥éģĵ
ĠPer haps
er al
F e
ĠS M
ĠN ormal
b one
ĠD em
æ²» çĸĹ
ĠC hat
ĠM S
åĨħ ç½®
å® Ļ
è§£åĨ³ éĹ®é¢ĺ
pl ac
Ġsp oken
Ġincom plete
g r
Ġsu ited
Ġa fore
Ġturn ing
ĠF ast
id el
æ¬¡ æķ°
| }
et ime
Ġmem ories
og ether
Ġcolleag ues
] '
Ġbl ood
èĲ¥ éĶĢ
ä½ĵ ç³»
A cc
Ġun ified
> ,
æļ ĸ
Ġreg ul
Ġinvestig ation
Ġcomplement ary
ĠDet ection
our se
Ġdanger ous
éļ¾ ä»¥
Ġtrig ger
Ġmembers hip
d iv
åĵª ä¸ª
Ġif f
T F
Ġalloc ated
ĠMart in
S ch
Ġf ish
] -
Ġc ues
01 4
çĪ ¬
Ġmeet ing
po ly
éĩį çĤ¹
Ġmod ifications
ill ation
ĠSw ift
se lect
ad ed
Ġb oolean
fig s
æļ ´
Ġc elebr
ĠAust ral
æŃ£åĪĻ è¡¨è¾¾å¼ı
T ext
ä¹¦ ç±į
ĠC ross
big r
Ġscal able
Ġ ,\
ĠJ ames
Ġc rop
Ġjo in
i y
Ġillustr ation
åĮ» çĸĹ
Ġ è¯¥
ner gy
{ (\
ch annel
}} }}\
e ven
Ġdis advan
Ġjud ge
åį ±
è¿ĺ éľĢè¦ģ
Ġrang es
Ġc ivil
åĨ Ĵ
ĠAnd rew
åįķ ä½į
åľ° åĮº
ful ness
äºĨ ä¸ĢäºĽ
åħ ¼
Ġlever aging
ç½ Ĺ
Ġ èĢĮ
N U
ĠDevel oper
æīĢ è°ĵ
æŁĲ ç§į
åĨ² çªģ
ad ow
ĠA rm
å¸¸ çĶ¨çļĦ
c el
ĠOr gan
Ġepis ode
Ġsong s
ustr up
Ġinteract ing
l floor
Ġrecogn izing
æºĲ çłģ
åıį é¦Ī
im ag
ess age
Ġland scape
u ation
å®ĩ å®Ļ
Ġ/ *
Ġrel ates
ia o
Ġinflu enced
è´Ń çī©
åĽ¾ å½¢
é¡µ éĿ¢
Ġutil izing
Ġlatt ice
æī ¹
V AE
éģµ å¾ª
è´ ¡
æıĲ ç¤º
Ġprom pt
v ard
it ness
ass er
{ $
)$ \
no ise
St ate
Ġappe ared
sl ash
v art
Ġco inc
åĬĽ çļĦ
N P
Ġren der
st able
Ġbelie ves
é¤Ĳ åİħ
in ating
Ġarbit r
Ġderiv atives
O O
åŁ¹ åħ»
F ace
Ġman aging
ink ed
æ¶ ²
é ½
ĠAmeric a
ĠG A
Ġk new
å¤© æ°Ķ
sequ ence
Ġun necess
Ġg alax
ĠRead ing
Ġconj unction
Ġ1 20
Ġdis hes
Ġa id
Ġelect ric
Ġguid ed
ĠRet urn
le ts
m and
is k
ĠL oss
Ġconven ience
ll i
å¹´ é¾Ħ
Ġphenomen a
ĠE nd
å¼º å¤§çļĦ
.\ [
Ġsym pt
Ġacc ommod
Ġext ending
Ġautom ate
Ġs ides
ight s
ä»¥ ç¡®ä¿Ŀ
Ġanom aly
ĠF il
ĠL P
Ġcircum st
ĠL ondon
ĠL at
Ġaggreg ate
Ġfor th
Ġreach ing
æ¯ Ľ
ç¥ŀ ç»ı
Ġ era
ĠSt rate
Ġver ified
ol ar
è´¡ çĮ®
k l
Ġcl ick
Ġsplit ting
ft en
n am
ĠE S
èĭ± æĸĩ
Ġinterv ention
æ´¾ çĶŁ
Ġst ar
ç¡® å®ŀ
éģ Ĺ
S ub
ra ise
Ġaccount ability
Ġafore mentioned
ĠMc C
çľŁ çļĦ
r floor
Ġat mosp
19 0
m o
å¿ ĺ
ll bracket
Ġcorrespond ence
Ġnavig ate
Ġ* /
H ash
é»ĳ æ´ŀ
æĪĳ ä¼ļ
math ds
ĠC ur
ĠBe atles
ĠSe pt
Ġof fered
Ġconf irm
Ġansw ering
Ġpartic les
Ġtra vers
Ġmer ge
ä¸ĭ ä¸Ģä¸ª
åı¯ä»¥ è¢«
ĠRes ear
rr bracket
åıĬ åħ¶
æī ĺ
Ġfour th
Ġcompet ing
h ar
å¤Ħ äºİ
Ġco arse
Ġenabl ed
Ġscal ed
Ġpre pare
Ġagricult ure
Ġmat ters
Ġparent s
è¡ Ģ
Ġtreat ments
åŀĭ çļĦ
ĠMay be
Ġocc urrence
ed it
equ al
onom ous
ä¼ļ æľī
Ġoffer ing
Ġfeel ings
Ġv irt
Ġke ys
ol der
Ġprior ity
äº¤ æį¢
çļĦ ä½įç½®
ĠJu ly
Ġcapt uring
èĥ½ æºĲ
Ġregular ly
è°¢ è°¢
Ġwid er
æĹ¶ ä»£
éĢĤ çĶ¨äºİ
å¹¶ å°Ĩ
Ġ{ {{\
ä¸ī ç§į
æĳ Ħ
æ±¡ æŁĵ
ur ate
Ġc ortex
Ġsymmet ry
ç» ©
ĠEduc ation
ed ding
Ġconv in
ĠAdv anced
ĠH ess
Ġclos ures
Ġ20 20
Ġexpress ive
ĠInt elligent
æĽ´ å®¹æĺĵ
ul um
äº ¬
l oc
Ġ ],
ĠPri or
ä¸Ń æĸĩ
inst ance
ens es
è¡¨ æĺİ
ä»£ çĲĨ
xim um
çī© åĵģ
pt r
ĠI S
Ġ ä¸ŃçļĦ
ĠR ust
ĠLog ic
Ġb reat
ĠE v
èĶ¬ èıľ
plo ys
path y
æļ Ĥ
Ġdeli very
clud es
ĠImplement ation
Ġal lev
Ġapprec iate
Ġexplo iting
Ġfundam ent
[ {\
æ ©
un supervised
Ġexpon ent
Ġanom al
R ob
ap ed
Ġtransl ations
Ġgovern ments
ĠN ode
Ġdeb ate
cl ose
Ġform ation
ä¸Ń ä½¿çĶ¨
ĠV ector
ĠP L
Ġmed icine
f ellow
\ #
ĠIn cre
å¦Ĥæŀľ æĤ¨
Ġobst acles
Ġre vers
Ġcalib ration
ĠTensor Flow
ĠA ng
Ġch ip
ĠSpr inger
æ¶ ¦
c her
Ġp ull
Ġn ets
ĠN orth
Ġo dd
Ġselect s
ĠArchitect ure
Ġ }$
ess ions
Ġvol unte
19 3
us er
Ġadvers ary
Ġown ers
ro ph
ĠN MT
Ġad vert
ĠCle arly
Ġbe am
alle y
åĪĩ æį¢
Ġlab elled
Ġm ent
ĠF rank
éĩį åĨĻ
åıĸ å¾Ĺ
Ġp ad
O ver
Ġp ione
ce q
ĠC ustom
Ġsubject ive
ä¸Ń æľĢ
Ġpl ug
Ġfra ud
Ġpart y
not e
èĤ ¥
Ġcontinu ed
çĦ ¦
Ġg old
at ab
ĠD R
ĠAPI s
B ut
Ġreg ress
éĿ¢ ç§¯
$ _{
Ġn ational
Ġf ault
ç»ĳ å®ļ
è¿Ļ å°±æĺ¯
ĠP op
åĪĻ æĺ¯
ĠSing ularity
Ġcent ered
Com put
Ġpar k
class ification
åŁºæľ¬ çļĦ
Ġinc ome
Ġ\| _
ĠM arch
Ġcou pling
Ġrec ip
åı¯ è¯»
Ġfound ation
pro pto
Ġpercept ual
Ġf its
(\ [
\ }}
Ġsmooth ing
v oid
ĠR ad
äºĴ åĬ¨
ic o
Ġstrength s
åĨĻ åħ¥
ef ined
å®¢æĪ· ç«¯
pl er
Ġlength s
{ .
Ġex haust
è°ĥ æŁ¥
Ġhand led
Ġnew ly
è¿Ĳ çĶ¨
Ġbro ken
ç²¾ ç¥ŀ
Ġprov ing
æĹ¶ å°ļ
en ior
{ |
b and
Ġmolec ular
Ġrequest s
Ġwrit er
ĠJapan ese
Ġcaus ing
ë ĭ
Ġdis ag
Ð ±
ĠM CMC
ĠN one
ĠA ccess
ĠC opy
ĠHam ilton
Ġ\ <
\[ ]
R ead
ç®Ĺæ³ķ çļĦ
low er
ĠCl us
ĠBl ack
å¤ ľ
Ġcompress ed
Ġbre aking
Ġdis joint
Ġdisc rep
d raw
Ġdec ent
H T
Ġbottlen eck
Ġinterpre table
Ġdef ense
ĠStro ustrup
å¢ Ļ
ä¸°å¯Į çļĦ
åĬŀ æ³ķ
L inux
Ġ åĽłä¸º
Ġmut ation
st at
çĬ ¯
e ks
Ġoff ice
Ġshort est
ĠS il
Ġsort s
ĠE EG
ĠAf ric
et ies
ĠTransform er
ĠU p
Ġ ç»Ļ
Ġover load
c p
ĠC ognitive
æķĻ åŃ¦
å°ı æĹ¶
Ġwar m
Ġv aries
Ġch a
Ġfil m
åŃĺ æĶ¾
åģļ æ³ķ
Ġmeta ph
å¼ı çļĦ
\ ;
Ġabsol utely
t emporal
Ġf old
æį ·
æķ ı
Ġcomp ens
éĵ ģ
Ġcy cl
pol icy
éĹ »
ĠOn line
Ġc ert
Ġwill ing
Ġaim ed
ĠE vent
or ge
Ġreg isters
Ġaccess ed
ĠPers onal
ĠH ilbert
å¤§ äºİ
ĠA SR
è¡Į åĬ¨
bound ed
Ġcondition ed
Ġcharacter ize
P O
æĪĲ ä¸ºäºĨ
ĠSu per
Ġpl enty
Ġheter ogeneous
plac ian
5 12
Ġad option
N ode
Ġmod alities
æľŁ éĹ´
r at
g ar
weight ed
1 20
Ġ ä¸Ĭ
xi ety
Ġoverl apping
Ġcop ies
Ġf ake
Ġre use
art s
Ġimportant ly
èĳ ±
Ġen orm
le mma
Ġquant ify
ĠB ell
ex ample
Ġarbitr arily
Ġen force
)} ,\
* ).
A tt
init ely
åī ¯
Ġke eps
æĺ¯ å¦Ĥä½ķ
éº »
Ġun re
åº¦ åĴĮ
B L
N E
Ġpre limin
äºº çĶŁ
æłĩ å¿Ĺ
Ġq sort
D o
Ġdetect ors
Ġeng ines
Big g
Ġcover ing
çļĦ åħĥç´ł
sm ooth
Ġst oring
Ġcam paign
Ġ. $
Ġcontroll ing
Ġdebugg ing
è¿ĩ åİ»
åħ¨å±Ģ åıĺéĩı
Ġteac hers
Ġar ch
Ġb ird
pl an
Ġprep ared
ph ant
Ġind irect
ä»ħ ä»ħ
rac le
ĠB P
é© ¶
çļĦ éľĢæ±Ĥ
Ġphot o
åĢ ¾
ĠL ife
* ),
Ġf iring
Ġcl ar
Ġalb ums
Ġbeaut y
Ġgain ed
Ġun iversity
um es
g ers
effect s
Ġtext ual
çļĦ åŃ¦ä¹ł
çļĦ ä¸Ģç§į
Ġ æĪĸ
i pe
Ġsuggest ing
Ġna ive
Ġaccept able
ro t
Ġar ms
Ġsub rout
Ġb ot
ĠM edia
åŃĹ åħ¸
è¿ ·
éĩį æŀĦ
è§Ĩ é¢ĳ
or ous
Ð¸Ð ¼
Ġemb od
Ġbe at
Ġlat ency
ç»¼ åĲĪ
Ġ= &
ä»ĭç»į äºĨ
Ġwal king
Ġst aff
Ġmanip ulate
Ġsur rogate
Ġsurv ival
éķ¿ æľŁ
gener ated
here nce
ĠL M
å½ĵ åľ°
Ġreconstruct ed
æľĢ ä½³
èĢģ å¸Ī
ta ges
Ġweak ly
å¤ «
ç¾İ é£Ł
Ġc umulative
Ġf ly
ĠAn n
ä»¤ äºº
Ġthreat s
oy al
Ġdele te
Ġatt end
Ġc ube
Ġbroad er
Ġnot ing
Ġmain stream
Ġsyste matic
ĠT ech
Ġum a
m as
om ething
v acy
imit ed
Ġtot ally
ol ic
åı¯ è§ģ
ĠC all
Ġse a
Ġsc an
æ³ Ħ
ĠR NNs
ul us
ierarch ical
ä¿Ŀ çķĻ
Ġevery day
rec ision
ol a
ĠTh read
Ġcolle ge
äº« åıĹ
P CA
ĠSt ruct
^* \
æ» ¤
Ġbl ind
y u
åĲ« ä¹ī
Ġcon vey
Ġpopular ity
Ġmark ets
Ġh osp
é¢Ħ ç®Ĺ
Ġinstit utions
ĠA L
æĮĩ åįĹ
å ³
ĠH aving
Ġliter al
Ġign ored
Ġanaly st
Ġexpand ed
Ġst ere
ç§ Ł
Ġdifficult ies
Ġem ploys
Ġrestr iction
Ġ ä¾ĭå¦Ĥ
Ġminim izes
è½¬ åĮĸ
ow ers
er ts
Ġè¿Ļ éĩĮ
ĠNav y
ill ing
e h
Ġreg ime
å¸¸ çĶ¨
ä½ł ä¼ļ
Ġfact ory
H R
Ġreveal ed
D I
å¨ ģ
Ġman ager
åħ³ éĹŃ
ĠPart ic
Ġe arth
az e
}} }}$
éĵ ¶
æ°¸ è¿ľ
Ġb right
Ġproduct ive
æĹ §
Ġpoor ly
ĠS tack
se arch
Ġintegr ating
çĽ¸ çŃī
Ġtherap y
Ġfill ed
Ġ å¦Ĥä½ķ
åħ¶ ä¸ŃçļĦ
Ġint ention
Ġfriend ly
Ġiniti atives
Ġrefin ement
Ġpartition s
Ġre lying
ĠP eter
j ure
ĠS ervice
Ġ19 80
ĠColl abor
âĢĿ ï¼Į
çĸ ¾
å¾Ī å¥½çļĦ
åĬĽ éĩı
Ġstr ide
è¶³å¤Ł çļĦ
Ġ< -
Ġ\_ [
Ġstre et
i ro
and o
æīĢ åľ¨
Ġresol ve
Ġpl ain
æĺ¯ éĢļè¿ĩ
ĠRo bert
Ġf irm
end Offset
Ġslow ly
in n
0 19
ough t
es ter
start Offset
Ġoptim ality
Ġex cess
reference ID
01 5
æĺĵ äºİ
æºĲ ä»£çłģ
ag s
éĽ ¨
æĭ Į
è¸ ª
Ġwindow s
è¾ Ĩ
ĠCon f
æŀĦ æĪĲ
Ġautom ata
åĲį ä¸º
ĠS al
Ġtermin al
åĿĩ åĮĢ
b en
}} +
æĮ ¥
Ġro ute
ä¹ ±
Ġtim est
rob ust
Ġr n
v ision
2 50
ĠAA AI
Ġpost s
å¾Ī æľī
ĠEn s
ĠTh ree
M O
ĠM eta
ĠHess ian
i kes
Ġdomin ant
Ġband width
ĠS outh
Ġmod er
ç±» åĪ«
åı¯ä»¥ è®©
ĠH um
ĠOff ice
é¥ Ń
Ġg est
Ġra ised
Ġconstant ly
Ġstat istically
å¥ ı
Ġdiv ision
s afe
é¢Ĩ å¯¼
m ix
ĠJ ac
Ġ äºĮ
èĩª å®ļä¹ī
Ġ å®ŀä¾ĭ
Ġvari ed
ĠR os
Ġm asks
Ġold er
å¼ ¹
Ġspec ifies
ĠH ome
Ġcor ner
Ġcrow d
æĹħ æ¸¸
ĠSt ill
éĶ »
æ¹ ¿
åľ¨ è¿ĻéĩĮ
chang ed
u rable
åĽłä¸º å®ĥ
Ġchain s
Ġsyn apses
ĠCombin ing
Ġnot able
åľ¨ ä½¿çĶ¨
Ġsub graph
her n
ear s
Ġvis ually
ĠS ent
ĠM C
åº ľ
f unc
Ġan xiety
Ġcomfor table
åĨ ľ
le e
ĠHy per
nowledge ments
Ġin hib
urb an
H ello
et ry
Ġg one
çļĦ ä¸ľè¥¿
R O
il der
ĠD E
Ġlimit ing
Ġrect angle
ĠF ac
enc oders
ĠU lt
æĭ ¼
è¿Ľè¡Į äºĨ
In put
Ġsole ly
im er
æĺİ çĻ½
éĶ» çĤ¼
Ġconcent ration
y si
ĠFirst ly
åĵ ²
ĠUpd ate
Ġh ack
b its
ĠC D
åı¯ éĿł
ech an
ĠJan uary
ĠIn nov
Ġaut hent
å®ī æİĴ
ĠDetail s
å®ļ ä½į
Ġdisplace ment
Ġv end
Ġevol ving
v isual
Ġhighlight ed
åµĮ å¥Ĺ
è¿ŀ ç»Ń
01 7
è¿Ļ æĦıåĳ³çĿĢ
c ar
ĠL I
pp ings
Ġh our
åĪĽ ä½ľ
set s
,\ ,\
ĠV alue
ov ing
Ġanaly tical
}} }$,
Ġemploy ee
" }\
ut ter
ater ial
ĠD C
ĠC arn
Ġnum Of
ĠD el
Ġhappen ing
Ġgraph ics
æĪ¿ éĹ´
Ġc ognition
Ġargu ed
10 5
Ġemphas is
ĠNAS A
ist ry
æµ ĵ
åĪĨ æĶ¯
dec oder
esp read
V A
Ġformul ate
ov ed
Ġ çĶŁæĪĲ
Ġpoll ution
angle ment
æ¯ıä¸ª äºº
ĠGPU s
Ġsub section
un it
Ġ19 6
ter min
ä¸Ń æľī
Ġtra its
Ġdistort ion
âĶĢ âĶĢ
) _
æĥ Ĭ
i pping
Ġwid espread
Ġcos ine
åłĨ æłĪ
æĶ» åĩ»
d y
åį ·
ĠAb stract
i ans
ce mber
é©± åĬ¨
å¹´ è½»
Ġv oting
Ġrestaur ants
éĺ ¿
pur pose
Ġeigen value
l ceil
ĠLe e
ĠV is
Ġ& =\
Ġrel ate
æķ°æį® åĪĨæŀĲ
æ¼ «
ĠIm ag
Ġk n
et he
æİ Ī
æľĢ å°ı
mathbb m
ord ers
Ġbreak through
E d
ĠW ho
æĢ ¥
D ec
ĠHar vard
arg er
ad v
æĺ¯ æľī
Ġcontrib uted
Ġremark able
Ġtrans mission
int elligence
B u
Ġadv ent
åĲĳ éĩı
Ġconv ention
ult y
)- (
os h
Ġun iqu
åĵģ è´¨
def ine
çľŁæŃ£ çļĦ
il le
and er
åĪ« äºº
W S
l ay
Ġn ic
Ġsec ret
Ġemphas ize
Ġhead s
o ber
ĠNe uro
O F
Ġgreat est
ĠWh ite
ä¸Ģå®ļ è¦ģ
Ġsol ves
Ġwe ap
ĠH ave
Ġdraw ing
ĠStud y
Ġrese mb
ĠH MM
erv ing
Ġpr ime
ĠH and
ĠD A
ru ption
ay lor
Ġref lection
Ġmor al
}} }^{
åĨĻ çļĦ
, (
Ġin ductive
Ġacqu ire
" })
æĵįä½ľ ç¬¦
m emory
mod al
Ġst ead
Ġanonym ous
Ġdesign ers
ĠApr il
}} -
Ġboost ing
ä¸¥ éĩį
Ġp iv
Ġh al
åģļ çļĦ
ä¸ Ŀ
æĬĢæľ¯ çļĦ
Ġexerc ises
" ,"
" ),
ä¸Ģ åĲį
ru ary
Ġex empl
r ceil
ĠP ower
ins ky
å®īåħ¨ çļĦ
æľºåĻ¨ äºº
Ġthem e
an al
ĠPro log
æĸ ¥
text up
ĠC am
at ter
çĹ ĩ
Ġn ut
Ġin vert
ic ity
é¾ Ļ
Ġartifact s
i ance
t d
ä¼ļ å¯¼èĩ´
] ]
Ġres il
Ġoccur red
cent er
ĠIm port
å¼Ģåıĳ çļĦ
Ġvisual ize
) `
ç¾İ ä¸½
Ġ+ =
under brace
Ġw atch
ĠV B
Ġexam ined
Ġread ily
Ġs essions
iqu es
si a
ur ch
Ġserv ed
Ġwild life
Ġmechan ical
æ·± åĪ»
form ed
am ing
ĠPredict ive
å¿ Ĩ
Ġcheck ed
çĭ¬çī¹ çļĦ
Ġgener ators
Ġemer ge
01 3
ac her
åº¦ çļĦ
ä¸Ģä¸ª åĩ½æķ°
æ¯ı ä¸Ģ
} ~
it atively
æ¯ «
Ġ2 50
}\ |\
sc rib
= {\
Ġaff ine
ä¼ĺç§Ģ çļĦ
' }$
ĠS ometimes
Ġsect or
ä¸Ģ ç³»åĪĹ
D NN
N LP
Ġsh arp
M NIST
æĶ¯ ä»ĺ
Ġunnecess ary
Ġconsider ably
æĹ ı
ĠC ore
Ġra ises
Ġconnect ing
V isual
b ing
ic ations
è¯Ń ä¹ī
Ġwa iting
Ġcl arity
Ġsynchron ization
ĠResear chers
å± ĭ
back slash
å¹ ķ
U B
ĠInd ust
G u
ĠE conom
Ġconver ting
h t
Ġenc ounter
åıį å°Ħ
Ġobserv ing
ĠF C
ĠE p
è¿Ļ æĺ¯ä¸Ģä¸ª
ÐµÐ½ Ð¸
ĠF IG
ĠM ag
Ġ$( {\
Ġdiff usion
Ġregular ized
: *]{}
R N
Ġautomat on
ĠChall enge
ĠSept ember
Ġscal ability
ĠS yn
Ġv ital
}) =\
Ġo cean
ĠJ ul
Ġclass ifying
Ġco ff
b A
St ream
å¤§ åŀĭ
a int
ĠP ubl
å¼Ģ æĶ¾
ĠL L
ĠInterest ingly
eg ie
tan h
ĠB ob
in clude
ĠInt uitively
Ġneuro science
Ġinc ent
ĠP ear
V I
ĠFL AT
Ġsl ice
al so
å·¦ åı³
ä¾ §
ĠE volution
Ġminim a
i en
Ġ ê
Ġcircumst ances
ĠA GI
çĶµ è§Ĩ
åĿļ æĮģ
P oint
åĵį åºĶ
eng io
Ġtag ging
Ġextens ively
çĸ¾ çĹħ
us cript
æµģ è¡Į
çļĦ åħ³éĶ®
Ġwe eks
å¹¸ ç¦ı
D ist
pir ical
il inear
èĤ Į
ĠReg ression
ĠF ix
Ġf av
imit ives
ĠM ix
ä¸į åĪ°
ĠC F
pro blem
ĠS eg
åĴĮ æĸ¹æ³ķ
ĠQ ual
ell on
åħ «
æ° Ľ
Ġser vers
éĽ ħ
Ġpred efined
åŃĹèĬĤ çłģ
________ ________
Ġtens ors
Ġpict ures
ĠA verage
init ial
c ape
Ġper m
down arrow
ĠFLAT OW
k it
}} }$.
é¦ Ĩ
^* ,
I d
ç«ĭ åį³
ĠP OS
Ġsl ot
æİ¨ å¹¿
ĠÐ ±
du al
æ± ī
èĤ¯ å®ļ
ĠB ost
ĠH ol
äºİ æĺ¯
sc ious
Ġalph abet
i ra
Ġtail ored
vart heta
c il
å¹ ħ
åı¯ æĮģç»Ń
Ġc raft
åī ©
Ġbr and
C B
å° º
OC O
S w
Ġexc ited
Ġc asc
åŃĲ çļĦ
æĸĩä»¶ ä¸Ń
Ġaccount s
other wise
Ġ( <
çĶ³ è¯·
ĠB ook
01 6
im p
å¤ ı
Ġcl ock
i ability
Ġgradu ate
Ġmix ing
0 20
Ġfl aw
Ġs and
Ġt ang
qu ant
em ph
iss on
us es
ĠT aking
Ġseem ed
Ġproject ions
- (
pre t
ĠCon vers
E P
Ġrank ed
åįł çĶ¨
ĠA T
j a
æĢ§ è´¨
pro duct
ĠThe ore
Ġre ceptive
Ġcapt ion
ram id
math rel
Ġschool s
asser stein
pri or
as y
un ning
Ġoff line
SN R
s peech
ur ance
Ġed ition
Ġb ars
æķ´ çĲĨ
Ġ ä»¥ä¸ĭ
æľª æĿ¥çļĦ
ç¼ĵ åĨ²
^{ [
Ġconc ise
Ġsequ encing
ĠS S
Ġacceler ate
Ġpredict ors
sec urity
Ġrepos itory
ib bs
ĠFig ures
E ng
y ang
Ġcore s
ĠL ag
å§ Ķ
Ġint ra
Ġlearn ers
æİ¥ è§¦
ä¸į è¶³
ĠReg ard
Ġre tail
Ġ })
ĠS D
åĳ¼ åĲ¸
æīĢ è¿°
Ġappropri ately
Ġforecast ing
cor rect
åºĶè¯¥ æĺ¯
Ġt one
æĬ½è±¡ ç±»
æ´ ²
ä½į äºİ
Ġpublic ation
im port
ĠV ideo
big cup
Ġsympt oms
m d
Ġb ank
Ġed it
ar ks
è®© æĪĳ
æĶ¾ æĿ¾
Ġsol ar
hen g
èģ ĺ
Ġcoff ee
et ing
Ġfor ced
w ater
}\| _
Ġdescript or
Ġ. \
ä¹ ı
[ [
ost er
n ol
Ġtermin ation
Ġwebs ites
Ġthe rm
ĠPh D
ĠN E
rain t
Ġroun ds
Ġenorm ous
ĠSem antic
è ¹
æ¡ Į
è´¹ çĶ¨
Ġtri p
ĠR us
Ġexplore s
ç¼ Ģ
al ign
con sum
Ġ ï¼Ī
ĠF ree
éĩ İ
åĨħåŃĺ ä¸Ń
Ġpro min
Ġoper ates
çĿ¡ çľł
Ġexplo ited
u x
æİ¢ è®¨
Ġwe ar
H N
ĠDe v
æĴ °
æĺ ¥
åĩº æĿ¥çļĦ
Ġcon ce
ist ency
Ġspl its
éĢĤå½ĵ çļĦ
ud io
c urrent
u ra
æĽ´ æĶ¹
ĠA bs
ĠRep ort
Ġt iny
Ġdemonstr ation
Ġn Ã£o
Ġconc urrency
éĥ½ èĥ½
Ġenhance ment
} ;\
Ġch ief
Ġevalu ates
Ġar ises
ict ed
Ġmiss ion
æĸĩä»¶ çļĦ
Ġdegrad ation
ĠE arly
). []{
Ġconsum ers
Ġprior i
Ġfra gment
ĠK n
Ġrecurs ively
èĭ ¦
Ġdispl ays
ĠS I
Ġint ent
ç¨ į
å¼Ģ éĶĢ
åĵ² åŃ¦
et te
Ġex port
mat erial
O pt
gl obal
äºĭ çī©
Ġemploy ing
}$ :
Ġshould n
sp arse
> \
Ġindivid ually
çļĦ æĸ°
Ġrating s
Ġang les
Ġnot ions
æłĩ çŃ¾
ç¢ ³
åľ¨ çº¿
cal c
å¹´ ä»£
ĠL arge
Ġtheore tically
èĥ½ éĩı
Ġs ch
Ġpart ner
Ġretrie ve
Ġant i
ĠFeb ruary
Ġopin ions
å¤ļ æł·
AR PA
ĠG UI
åĵĪ å¸Į
Ġtransform s
Ġposit ives
æĤ £
un t
ĠDe cember
ĠU RL
az ine
Ġvulner able
æķ°æį® éĽĨ
}} {{\
Ġhighlight s
ad am
ĠProgram s
Ġexecut able
Ġent ertain
\ ,\
æ¦Ĥ çİĩ
åĩł ç§į
Ġnames pace
op ic
çĪ± æĥħ
Ġde leg
Ġp uzz
Ñģ Ñı
çĻ »
Ġphilosoph ical
ĠAug ust
ph ones
Ð» Ð¸
Ġd il
craft ed
ma kers
ĠG od
æĿ¥ æºĲ
id o
Ġart ists
Ġstr ange
Ġident ifies
em ic
å½ĵ ä½ł
ategor y
å¾Ī å¤§çļĦ
\ ^
Ġoccur ring
Ġelect ro
Ġabst ractions
Ġ å®ļä¹ī
m em
ĠUnder standing
c v
æ± ¤
em ploy
æĺ¯ å¯¹
Ġscript s
çľĭ åĩº
æģ ¢
f requency
Ġnot iced
ij k
Ġdra matically
æµ® çĤ¹
çĽ¸ åıį
18 0
mathb in
p red
Ġo d
éĢļ çĶ¨
å ´
Ġrece iving
Ġprelimin ary
Ġcommunic ations
pool ing
hev sky
Ġgra y
h s
Ġ@ ].
Ġtop ological
Ġcombin atorial
ag ers
å®ŀ çĶ¨
min ist
}( {
Ġ![ *
in ct
ĠH ash
Ġpredic ates
ĠAnaly tics
ĠF R
Ġtim ing
] =
Ġsum m
Ġv ir
æ± ģ
ĠG ame
æĹ¶éĹ´ åĴĮ
il ed
P N
Ġtrain s
ç»ĵ è®º
Res Net
Ġfasc inating
ri ented
å¿½ çķ¥
Ġconcaten ated
Ġdoub t
è¿Ļä¸Ģ çĤ¹
Ġglob ally
Ġreason ably
è¿Ļ æľ¬ä¹¦
vious ly
Ġopp on
ane ous
M od
Ġ çĦ¶åĲİ
æģ Ĵ
Ġthem es
åı¯ä»¥ å°Ĩ
ĠCor ollary
ĠR BM
æĪĳä»¬ è¦ģ
off s
se cond
Ġrel ig
æĹħ è¡Į
Ġ[ -
éļĲ èĹı
B ased
Ġsaf ely
Ġdiscuss es
æµª è´¹
) }}\
Ġent re
ĠSecond ly
Ġbir th
Ġ urban
Ġengine er
çļĦ å°ı
Go ogle
ĠL ayer
Ġp ace
Ġb rack
Ġmist ake
Ġmet adata
St ep
Ġ å®ĥ
ä» Ķ
Ġobtain s
æ»¡ æĦı
Ġback bone
Ġemploy ment
12 3
Ġflow s
Ġsequential ly
sp aces
Ġwal ks
ĠAtt ention
Ġb ases
Ġimag ery
ĠLa placian
Ġst ock
Ġun us
Ġintellect ual
o or
ĠCurrent ly
Ġthresh olds
} @
Ġspecific ations
Ġpsych ology
Ġle ak
æģ¢ å¤į
Ġinv oked
Ġev ident
M R
Ġo sc
Ġexplain ing
Ġm as
ro bot
ĠE nergy
\ },
Ġs ake
å¯ ¸
Ġpr ices
è§£éĩĬ åĻ¨
å°± ä¸į
å½ ¼
æ» ĳ
ĠI L
ĠQuant um
ĠF orest
Ġprov es
ell i
iot a
ĠC ount
Ġdo ctors
è§¦ åıĳ
Ġf ight
ĠF ed
v ity
å®Į ç¾İ
åĮ» çĶŁ
ç®Ģ åĮĸ
ĠBl ub
op her
Ġfin ished
ĠFe atures
q q
çļĦ ä¸ĢäºĽ
w hel
æľī æĹ¶
Ġfall s
Ġt it
st rap
Ġse ason
ĠH ard
Ġscript ing
Ġal ter
çŃī æĸ¹éĿ¢
iel ding
Ġlist en
Ġbre aks
ĠAdapt ive
Ġdr ift
Ġsm arter
\_ \_
Ġremain der
æľī çĤ¹
inc re
ma ke
Ġlight ing
~~~~ ~~~~
çł´ åĿı
script scriptstyle
Ġwork place
Ġdep artment
id a
èĸ ª
Ġt une
Ġpr imal
åŁº ç±»
Ġhead er
w er
æľĢ å¥½çļĦ
Ġ è¯Ńåı¥
Ġbrow ser
dd en
Ġdis k
Ġar range
In st
äºĭ åĬ¡
Ġf light
éĿ¢ ä¸´
}\ !
ĠM F
dri ving
Ġch air
ant ly
ä¹Ł è®¸
Ġtal ks
Ġbir ds
ä¹ĭ å¤Ħ
åģ¥ èº«
M B
sub ject
å ĺ
é½ Ĳ
æįķ èİ·
Ġdefin ite
ä¹ł é¢ĺ
in formation
Ġ! =
åĲĪ å¹¶
Ġbat tle
ĠCarn egie
Ġplaus ible
è®¾ æĸ½
çļĦ æĸĩç«ł
å®ŀä¾ĭ åĮĸ
Ġreve als
Ġparticip ate
Ġamplit ude
w w
åĳĪ çİ°
cc cc
Ġpre trained
Ġwe alth
Ġnucle ar
ove mber
AR T
R ep
Ġassign ing
Ġpro xy
sh ape
çļĦ æĬĢæľ¯
èµ ŀ
Ġsk y
X i
Ġman uscript
Ġ );
âĢĿ ãĢĤ
Ġd ict
min im
åĨĻ ä¸Ģç¯ĩ
è¯Ńè¨Ģ ä¸Ń
Ġdiscuss ing
Ġfar mers
Ġsearc hes
Ġperiod s
B I
Ġsp iking
Ġde als
Ġweak ness
Ġfac ing
I ter
çĥ §
ple t
çļĦ è¿ĩç¨ĭä¸Ń
ĠM ellon
ĠComput ation
om ed
Ġadequ ate
c opy
g ression
urre nces
Ġexhib its
æĶ¿ åºľ
Ġfr ustr
Ġsu dden
åıĹ æ¬¢è¿İ
å½¢ è±¡
)} (\
æ¥ ¼
Ġalgebra ic
ig her
Ġess ence
å½¢ çĬ¶
åįķ çĭ¬
ç« Ł
Ġcit iz
ĠC at
Ġfoot print
r as
ĠF alse
Ġsubstit ution
atab ase
ĠG RU
Ġoutl ined
ĠC ost
il t
U L
å¸¸ å¸¸
d ataset
Ġ ä»¥
æīĭ æ®µ
ri p
}) ^{
ex ec
olt z
ĠBrit ish
âĢ Ĳ
Ġrepeated ly
ĠS qu
er m
Ġ19 50
)[ (
Ġb old
r b
ĠA ction
Ġsu it
Ġambigu ity
Ġnumer ic
æĮ Ĥ
ĠâĪ Ī
Ġatta ched
riz hevsky
Ġmaintain ed
ä¸Ģä¸ª å¯¹è±¡
Ġreprodu ce
Ġfac ilities
ĠF isher
M an
ĠM AP
çĶ¨ æ³ķ
k ins
æ¶Ī èĢĹ
ĠÐ ·
Ġst ars
Ġin ev
og en
Ġpr imitives
Ġnor ms
åıĸ åĨ³
ĠH el
j o
Ġstat istic
Ġle ct
ĠM aterial
Ġsum mer
prot otype
ot echnology
Ġcall back
Ġw el
è¯ ļ
ĠOut put
ĠUn ix
Ġproced ural
Ġbut ton
ä¸Ģä¸ª ç±»
R el
Ġw all
ĠGerman y
Ġb ul
ĠE dition
ĠBl ock
Ġdrawback s
E m
Â °
st ation
Ġ ç¨ĭåºı
at isf
Ġdis p
Ġdecre ased
Ġ Ñĩ
ĠR AM
ĠFort ran
Ġf ut
ĠP rediction
s el
Ġg ates
Ġbr idge
Ġwin ning
ĠConsid ering
u ble
Ġmechan ics
ĠTest ing
Ġprof iles
åı¯ä»¥ æĺ¯
ĠPol icy
M in
ĠT or
cont roll
éĤ® ä»¶
S ort
Ġnear by
ĠTechn ical
Ġbu ck
AS IC
çĩ ĥ
Ġpro s
Ġapp endix
ĠSp an
Ġst abil
Ġmult imodal
perform ance
Ġv ac
Ð» Ñı
Ġemer gency
æ² ī
Ġecosystem s
or iginal
,\ \
ĠN or
éĥ½ éľĢè¦ģ
Ġtrans action
ĠMean while
Ġmac ros
Ġexpos ure
åĳĬè¯ī æĪĳ
Ġsynthes ized
ç»Ł ä¸Ģ
åī Ĥ
è¿ĺ è¦ģ
Ġf at
çº§ åĪ«
é¢ĺ çĽ®
åĪĨ è§£
Ġconcern ing
Ġs ending
Ġdest ination
cle ar
åıĸåĨ³ äºİ
l ands
è¿Ļ ç¯ĩæĸĩç«ł
tun ed
Ġ` \
Ġc aught
å®¤ åĨħ
Ġma ppings
f ront
åįķ ä¾ĭ
Ġdes k
éĢļ çŁ¥
ron es
Ġmim ic
Ġse es
Ġpercept ron
onom y
Ġelect ron
ĠJ on
adapt ive
Ġover whel
Ġreserv oir
ĠS ample
ĠD u
Ġneighb oring
Î ±
at ial
;\ ;
ru le
Ġ${ {
S H
å¼º åĪ¶
çļĦ ä¾ĭåŃĲ
+ (
Ġdi ver
Ġhar mon
åĽĽ ä¸ª
æĸĩ åŃĹ
ãģ ®
ĠW in
èĢĮ ä¸į
ĠY e
t ensor
Ġplot ted
Ã ª
Ġsee king
kern el
ĠN umer
wo od
èĥ ¡
çļĦ çİ¯å¢ĥ
æĽ´ ä¸º
æ ¦
um ps
ä¿¡ ä»»
t ec
lo jure
er ated
ential ly
Ġfeed forward
ĠH R
Ġredund ancy
Ġ\| ^
ĠAppro ach
Ġenc odes
Ġoptim isation
f un
éĹ ²
åĩ½æķ° å¼ı
# ,
01 8
ä½ĵ çİ°
empl ate
ä»£çłģ åĿĹ
am in
ĠL ow
ĠB al
ä¸ª æķ°
æľī ä¸ĢäºĽ
ill ed
Ġinterpret ability
ĠRe inforcement
çļĦ èĥ½åĬĽ
ĠK ing
Ġmaxim ization
Ġmultip ly
V ec
ou lli
ĠJ ack
æ¸ħ åįķ
nol imits
y ou
Ġ il
ĠGener ally
ĠCal c
I V
' =
Ġm il
inv ariant
" ?
W orld
Ġc ir
Ġpa ired
é¡ ¿
Ġparallel ism
Ġre in
ig ms
Ġfore ign
Ġ }{\
Ġim mutable
Ġun defined
è¿Ľ æŃ¥
Ġtra it
P Y
idel ity
Ġcont rary
Ġbelie ved
Ġw ireless
Ġgroup ed
ĠT ry
st ud
åĳ¨ åĽ´
in ality
Ġâ ĨĴ
æĪĳä»¬ åºĶè¯¥
ĠDes cription
Ġcollect ing
Ġrandom ness
ç±»ä¼¼ äºİ
Ġmar ine
N ot
Ġopt ional
çĶ¨ åĪ°
. ).
C or
ĠWhe ther
æŁ Ķ
ĠEn vironment
çļĦ çĬ¶æĢģ
çĹ Ľ
æĽ´ å¿«
ĠCon nect
Ġenter prise
j k
ĠKern el
Ġobserv able
Ġsus p
ĠO R
æĹ¶ åĪ»
Ñ Ī
con ditional
Ġ19 2
ill s
c atch
Ġ ^{
æĶ¿ çŃĸ
D es
ĠD ense
Ġperson ality
Ġany where
è° ±
t ry
å¾Ī å¤§
Ġfinger print
ĠN ovember
Ġatmosp here
T rue
ĠInd ia
ri ers
éĢĢ åĩº
Ġo mitted
ĠChe ck
y e
Ã³ n
å¸ ģ
å¦ Ļ
æ² ³
ep ing
Ġpa id
F unction
t echn
èĦ ±
Ġm irr
åĮħåĲ« äºĨ
s ent
Ġtrans actions
æł¹ æľ¬
Ġland marks
G N
Ġdiscrep ancy
èĪ ª
) "
T T
A SS
r and
f in
Ġsubt ract
Ġarri ve
Ġaccept ance
typ es
Ġphon em
g reen
ĠP ort
ĠN Y
Ġpart ies
æĦı è§ģ
äºĴ æĸ¥
Ġsus pect
uff er
W indows
è¯ķ åĽ¾
Ġinst ruct
imag enet
Ġhand les
Ġfail ures
Ġmod ality
å° ¼
the ore
Ġdeclar ations
Ġcon form
S pr
19 1
åĪ° åºķ
æľº æŀĦ
ĠBu ilding
ç½ ²
CA L
y er
ol f
ect ed
åĪ¶ éĢł
Ġsupp lementary
Ġjud gment
è¾ ħ
In f
ĠSm art
è´ ¦
Ġelabor ate
erv ices
Ġadjust ed
T ree
å¼º å¤§
ĠMat rix
Ġç¬¬ äºĮ
d r
èĢ ¦
Ġpartition ing
ic ate
omet ry
our cing
Ġcent roid
g rounds
åĮħ è£ħ
æłĩè¯Ĩ ç¬¦
éĽĨ æĪĲ
ĠTyp ically
P o
Ġf ruit
çº¿ç¨ĭ æ±ł
Ġattack er
ĠPar allel
å°± éľĢè¦ģ
ĠD omain
Ġingred ients
åĭ ĩ
Ġne utral
C ar
ject ion
Ġ éĹ®é¢ĺ
ĠP age
A dd
Ġdo or
Ġg ard
ta x
Ġencoura ges
Ġen semb
U p
d ynamic
is er
ou ds
ĠEn ter
ĠJ e
çģ ¾
Ġr id
æµ ħ
l ast
äºĭå®ŀ ä¸Ĭ
Ġst ick
sens itive
æĭ Ĩ
åĲİ ç»Ń
çĥ ¦
Ġre min
Ġsal ient
Ġmult ic
E A
Ġacceler ation
åī ²
ur ies
k ip
ĠCh ang
å¸¦ æľī
Ph one
ĠAssum ing
u rom
Ġ è¿Ļç§į
Ġh olding
ĠJ oint
Ġf ellow
Ġche ap
format ics
ph p
ç»Ļ å®ļçļĦ
Ġsp ikes
s ome
Ġed iting
ĠL DA
é© ¾
åıĳ æĮ¥
ĠÂ ©
è£ħ ä¿®
pix el
ĠComput ers
Ġout door
N L
çļĦ éĢīæĭ©
åįı ä½ľ
P ool
m end
Ġaddition ally
ç» ķ
è¿ Ŀ
æĮĩ å®ļçļĦ
ĠMathemat ics
åĨĻ åĩº
Ġtri angle
å¯Ĩ çłģ
ĠG old
Ġiter ate
åĽº å®ļ
hu ang
ĠMulti ple
Com parison
C G
èµ ı
Ġ å¹´
su fficient
åħ¼ å®¹
Ġe ar
ĠT R
object ive
Ġalloc ate
ĠHist ory
al gorithm
éĤ£ æł·
st ad
B ar
H TML
â Ħ
Ġo il
Ġhim self
è° ģ
' }\
W h
Ġe arn
]( ./
du ction
Ġout line
t ech
äºĴ çĽ¸
è® ¯
Ġh ol
ri or
sh ift
d iff
)$ )
è´ ´
ĠS ect
æİ¥ çĿĢ
åĲ« æľī
Ġcho oses
Ġhund red
ist ence
ç£ ģ
æ°´ æŀľ
x ford
åħ³ å¿ĥ
Net s
ĠInt eger
p ack
ĠSe lect
Ġpro p
ĠInd ian
è¯Ħ ä»·
ÐµÐ ´
åĽ¾ åĥı
Ġassign s
Ġw itness
un iform
çļĦ è¡Įä¸º
Ġcost ly
Ġadvance ments
Ġinv ariance
éĩĳ èŀį
æĥ³ è±¡
Ġsur pass
Ġforest s
anal ysis
Ġsubsequ ently
ĠT D
Ġsepar able
res p
åŃ¦ æł¡
å¦Ĥæŀľ æĪĳä»¬
æĲ ħ
å®īåħ¨ æĢ§
ĠM em
Ġpar s
Pro c
Ġp or
ap ters
ĠCan ada
pro of
Ġview point
ç½ĳ é¡µ
su cc
" (
æĭ ĵ
å¼Ģ å¤´
Ġpurch ase
ĠAlex Net
ĠForm ally
T D
åº Ĭ
èĩª è¡Į
Ex ample
' )\
é£Ł æĿĲ
ĠThom as
al a
åĨĻ æ³ķ
Ġn arr
ä½ł åľ¨
ÑĨ Ð¸
] \\
Ġisol ated
Ġ{ }
åĬ ³
oc c
Ġco herent
åģļ åĪ°
æĹ¥ å¿Ĺ
Ġre action
Ġcons erv
A rt
Ġre nd
åºıåĪĹ åĮĸ
Ġevery where
å¯¼ åħ¥
ĠStat istics
s ynchron
pos ium
åħ °
[ -
æĸ¹æ³ķ åĴĮ
eq n
ĠSpr ing
i ating
Ġunc ertain
ue ue
ĠStat istical
Ġmonot onic
Ġ ),
at om
Ġw arning
æıĲ äº¤
åħ¶ä»ĸ çļĦ
Ġinsp iration
l ink
åįķ ä¸ª
Ġput s
çİ ī
Ġtrans f
crib ed
M E
Ġregular izer
Ġ rac
w ar
as ibility
Ġfor g
Ġ æııè¿°
Ġtrain able
M on
Ġdri vers
p ing
çī© ä½ĵ
B oost
Ġmod ifying
abl ed
è¯» åĨĻ
ent ation
ot ically
}} ^*
c ross
ĠY ang
èĩªåĬ¨ åĮĸ
Ġdeep ly
ä¸ĸ çºª
ä½ł ä»¬
Ġ è¿ĻäºĽ
Ġencoura ging
ĠSN R
ĠB ra
NI PS
ad versarial
p air
á »
ä¸Ģ éĥ¨åĪĨ
æĪĸ æĺ¯
Ġh int
ç¢ İ
ĠI de
}( {{\
è¯´ çļĦ
Ġ19 70
Ġgl ass
ĠGe orge
èĴ ľ
ä¸º æĤ¨
hell o
sing le
ĠS A
F ile
ĠNot es
Ġrat ios
ĠOct ober
Ġsc ans
ĠAd ditional
ĠBack ground
æĪĳ è®¤ä¸º
fil ter
P M
çĸ «
z er
çļĦ æĿ¥è¯´
ç« ¥
Ġre plic
ar nt
ĠA uthor
Ġcov ari
A ut
ĠA ir
Ġref erring
ivid ual
ĠIn ference
Ġstack ed
Ġhe l
Ġsat ell
åĲĮ åŃ¦
ĠS C
Ġr ing
çļĦä¸Ģ éĥ¨åĪĨ
% *
éľĢè¦ģ çļĦ
éļı æĹ¶
åı¯ä»¥ éĢīæĭ©
ĠG ibbs
Ġis om
è®º æĸĩ
Ġspec ifying
åĬłè½½ åĻ¨
ä»¥ä¸ĭæĺ¯ ä¸ĢäºĽ
, }
å¹¿ åĳĬ
Ġsol d
CNN s
Ġspect rogram
com mun
ĠAbs ol
el es
ĠS am
o king
igh ter
åºĶ å½ĵ
Ġtriple t
Ġprof ound
ĠO ften
ĠWith in
Ġmin us
çļĦ çĶŁæ´»
m ac
Ġdemonstr ating
ang led
åĪĨ æĪĲ
u i
åĪ° è¾¾
ĠL ook
ĠF ind
Ġutil izes
st ochastic
Ġcur ious
Ġsurprising ly
Ġult imate
å§ĭ ç»Ī
Ġwork flow
ip se
åĩ½æķ° è°ĥçĶ¨
i ber
ĠF ellow
Ġdev iations
çļĦ å¤§å°ı
Ġfundament ally
Ġsurpr ise
Ġreport ing
ĠR MSE
åıª æľīä¸Ģä¸ª
Ġref ined
Ġbar rier
Ġreturn ing
16 0
Ġla unch
å¡ ĳ
[ *
ro c
Ġinv alid
äº§åĵģ çļĦ
å¤ļ æ¬¡
ĠæĢ» ç»ĵ
)\ |
âĢ ²
Ġmer ging
Ġadjac ency
Ġsome where
Ġflu ct
, '
l vert
æĪĲ åĪĨ
ĠSt ochastic
æ¶ µ
tri angle
k h
å¸¦ æĿ¥çļĦ
Ġfund ed
Ġb ins
Ġabs or
ĠPar is
plic ative
per t
em porary
æķ ¬
Ġprotot ypes
ĠAltern atively
Ġ ä½Ĩ
åĪĩ çīĩ
Ġambigu ous
Ġtro uble
ad s
d b
åī ª
Ġtri ang
ä¼¼ ä¹İ
Ġelect rical
ĠBe havior
it udes
em p
ĠSt rong
Ġmean ings
sol ving
amet ers
æģ ¶
s ym
Ġfa ith
ĠCon cept
çļĦ æī§è¡Į
ĠB atch
äºº çī©
Ġl es
éĺ Ĳ
Ġseed s
Ġ19 4
ĠSh ort
Ġocc asion
ĠJac ob
Ġmolec ules
Ġcro ps
\ )
G raph
åıĤæķ° çļĦ
d x
Ġy ielding
ä»ĸ äºº
ĠMed ical
Ġ< =
åĩº çīĪ
å®ļä¹ī äºĨ
Ġdiagn ostic
èĽĭ ç³ķ
ĠSm ith
æī «
ĠP M
ĠAnd roid
Ġv ib
ç»¼ ä¸Ĭ
ĠS O
ethe less
L ine
raise box
çļĦ çĽ®æłĩ
Ġch amp
Ġovers ight
Ġsol vers
Ġparad igms
Ġun int
Ġped est
åı¯ä»¥ æł¹æį®
éķ¿ çļĦ
se par
æľī éĻĲ
Ġ( ).
h l
Ġbuilding s
å® ľ
éľĢè¦ģ åľ¨
Ġafford able
est ival
Ġs ell
çĶŁ åŃĺ
con struct
Ġcontrad iction
: -
Ġestabl ishing
å°ı äºİ
éĥ½ åľ¨
Ġvalid ity
ĠDataset s
ĠSpan ish
program ming
ĠCompar ing
Ġdis asters
ch ild
Ġde pression
ĠTrans lation
Ġwrit ers
Ġmulti pl
ç² Ĵ
cl osed
Ġillum ination
ĠG B
Ġneighb our
Ġsynchron ized
pat tern
Ġpartners hip
å¸ĥ å±Ģ
Ġ çŃī
Ġv ict
ĠM ath
Ġreflect ed
Ġdis ent
Ġtwe ets
we b
ä¼łç»Ł çļĦ
Ġanch or
et ary
èĩª ä¿¡
as ive
å· ŀ
A ct
Ġconstruct ors
ĠSi ri
Ġform ing
äºĭ é¡¹
Ġcr ime
Ġ ä¸ºä»Ģä¹Ī
r v
Ġle arnt
çĵ ¶
ĠWol fram
ect ure
è®² è¿°
å¯» æ±Ĥ
ĠF our
æľī åºı
éŃ Ķ
}{ |
éĺ³ åħī
Ġd ream
ĠA C
ound ed
Ġsmooth ness
}} =\
Ġacc ident
Ġland mark
Ġ19 1
Ġc ook
A p
Ġregul atory
Ġdo ctor
}^{ {\
Ġmanufact ure
æĲħ æĭĮ
ĠPri vacy
Ġincom ing
im a
Ġinherent ly
æľŁ æľĽ
Ġalb um
Ġinv ented
Ġrece iver
ip her
Ġpick ed
Ġper pet
Ð° ÑĤÑĮ
Ġmal icious
ĠL ingu
Ġre act
ç¬ ĳ
Ġspeed up
Ġmathemat ician
Ġreal ization
æĹ¶éĹ´ çļĦ
Ġ([ *
J ohn
å®ŀ ä½ĵ
stand ard
è®¾è®¡ çļĦ
ç¼º ä¹ı
z hou
ĠV an
Ġcut ting
Ġ19 3
åĳ³ éģĵ
è¿ Ł
Ġorgan isms
op es
ĠC R
Ġtransfer red
æĽ¿ ä»£
ĠAN D
Ġe cho
par am
miss ions
leg al
ĠG reen
Ġdirect ory
H and
ĠI ra
ĠC ON
]- [@
Ġex posed
çªĹ åı£
æĹ¶ æľŁ
è¾ £
as er
Ġbring ing
T ER
Ġv ent
ĠSign al
n el
acc urate
ĠSmall talk
Ġmaxim izes
ĠAccording ly
urs ive
Ã ¤
Ġal t
R uby
eng ine
çļĦ ä½ľçĶ¨
ĠOb viously
ĠC our
æľī ä¸¤ä¸ª
Ġes cape
æİĴ åĪĹ
èĲ ¨
æĦ ī
å½¼ æŃ¤
ist ed
Ġremov al
ĠSing le
èĳĹ åĲįçļĦ
ĠRec urrent
L u
Ġdiagn oses
äºĨ å¾Īå¤ļ
Ġcharacter ization
Ð° Ð»
W ang
ä¸ĭ è½½
ä¸İ åħ¶ä»ĸ
ĠIn spired
Ġ è¾ĵåĩº
Ġconflict s
d ouble
Ġrec om
Ġfe els
Ġont ology
Ġc rypt
Ġvers a
å®Į åĸĦ
Ġcon ject
èĬ± è´¹
Ġre form
ral ized
ä¸Ģä¸ª çº¿ç¨ĭ
est ing
åı£ åĳ³
Ġtu ples
i ams
Ġact ively
Ġstat ically
Ġ$ ^
å®¶ å±ħ
Ġrepl ay
ĠStud io
æİ¨ åĬ¨
ĠT ur
W ork
Ġtal ent
s he
ĠRich ard
Ġ å¾ªçİ¯
N umber
Ġtrans mit
ĠM D
V iew
Ġhy d
æ³¨ åĨĮ
ä¸ĵ å®¶
t w
åĲĪ åĲĮ
Ġsure ly
ĠTool s
Ġ ç±»åŀĭ
Ġc as
ĠN I
åĨĻ ä½ľ
ĠH ead
Ġann ounced
12 5
ĠC N
Ġmod ularity
Ġopen ing
op ard
vent ions
ĠG CN
}) }{\
åħ¨ éĿ¢
ĠGener ative
Ġpro hib
Ġcommit ted
Ġsav ed
Ġro ck
ä¾Ŀèµĸ äºİ
W hen
}} }(\
Ġliter als
id ents
ag ue
Ġtermin ology
ynam ics
ĠM al
Ġany more
è¯¦ç»Ĩ çļĦ
f inite
åŃ¦ä¹ł åĴĮ
} >
02 5
Ġexpl osion
Ġpreced ing
z ing
M ulti
ĠQu ick
çĶ ľ
sc apes
ĠRes pon
Ġsw it
Ġid i
Ġ åħ¶æ¬¡
æĸ¹æ³ķ æĺ¯
è¯Ħ è®º
è¿ĩ åº¦
Ġdis similar
Ġrecording s
Ġretrie ved
ä»¥ åīį
æĢİ æł·
Ġident ifier
å»º è®¾
et ts
ç¾İ åħĥ
Ġl en
ç¥ŀ ç§ĺ
Ġe c
ä¸º ä¸Ģä¸ª
ĠM P
Ġqu ote
Ġcompos ite
] }$
Ġcondition ing
Ġthous and
short C
éĥ¨ éĹ¨
c iteRegEx
Ġadapt ing
shortC iteRegEx
ĠM echan
è¢« è°ĥçĶ¨
T op
Ñ ī
Ġem pathy
Ġm ale
Ðµ Ð»
dist ance
R un
Ġar r
Ġemer ged
sim ple
Ġ ç»¼ä¸Ĭ
Ġcomput able
Ð¸ ÑĤ
up arrow
èģĮ è´£
if iable
ä¸ª æĢ§
ir ich
ill er
over rightarrow
ĠAn sw
ter y
ĠUlt imately
+ $
Ġdifferent iate
E nt
Ġincorpor ates
æĪĳä»¬ å°±
Ġcomb at
ashing ton
ĠN SF
Ġsome how
] [@
Ġt act
æµģ è¡ĮçļĦ
Ġd ashed
im ents
Ġencaps ulation
Ġsuccess ive
Ġexc it
ach us
Ġcard inality
çĶŁæ´» ä¸Ń
Ġresol ved
M a
ĠC ong
pri vate
è®¤ çŁ¥
Ġcompr ises
text color
Ġmaintain s
åŃ©åŃĲ çļĦ
æĿ¥ è¿Ľè¡Į
åģľ æŃ¢
oun cil
æ£ ®
Ġdown stream
m ars
èĢĮ åľ¨
åĮº åĪĨ
Ġn ine
ar Xiv
çļĦ åħ³ç³»
Ġcomple teness
ĠB a
Ġ[[ *
Ġpreserv ed
è ª
app end
Ġgr an
ful l
aut o
ract ical
Ġlist ening
Ġexpand ing
we ak
Ġo mit
Ġch arge
æī °
r int
æĲ ŀ
Ġiter ator
è° ·
su per
Ġp al
æłĩåĩĨ åºĵ
Ġt ractable
ath an
ps on
Ġvis ited
ĠH aw
ĠNa N
ĠM ary
éľĢè¦ģ èĢĥèĻĳ
é¸¡ èĽĭ
ä¼ļ è®®
Ġdec or
ĠP DF
Ġ æİ¥åı£
ric ulum
determin istic
ä¸ĵ éĹ¨
Ġha ir
ĠW al
èĥ ŀ
am l
Ġ åı¦å¤ĸ
Ġf ant
å¥½ äºĨ
ĠWrit ing
n atural
Ġm ountain
a ver
æĹł éľĢ
Ġto wn
Ġoutperform ed
Ġcir cles
un ched
Ġ èĻ½çĦ¶
Ġcon cludes
ĠL abel
æĺ¾ çĦ¶
ĠTrans actions
ĠÑ į
achus etts
Ġpromin ent
ĠM insky
ĠI II
ĠD ay
ID E
ĠN um
Ġref ine
Ġhon est
ĠJ o
çĮ ľ
B R
}$ ;
Ġch un
Ġag encies
æĢģ åº¦
ĠEmb edding
}} }({\
U M
Ġtra dition
å¯¹ åħ¶
Ġtheore ms
Ġ: -
Ġsh ares
10 3
ç»¿ èī²
Ġas ync
ĠCon dition
åĪ° ä¸Ģä¸ª
Ġavoid s
åŃĺåľ¨ çļĦ
ĠP al
Ġdel icious
Ġrem ind
) &
Ġro ots
ä¸»è¦ģ æĺ¯
ç»Ī æŃ¢
ĠEx ec
Ġpol ar
ĠV en
æĪ¿ å±ĭ
mod ular
Ġe q
Ġw at
Ġun w
åīį ç«¯
Ġimp osed
éĥ½ è¦ģ
Ġ åı¯
å¤§ åĪ©
dist ribution
Ġcooper ation
Ġpass age
çķ ħ
ĠComput e
Ġaggreg ated
Ġv ox
æīį ä¼ļ
( .
è®° ä½ı
less ly
ç¾İ åĳ³
åİ ļ
irich let
Ġdis abilities
Ġsur g
Ġdens ities
Ð¾Ð ¶
bin om
Ġload ed
çļĦ ä»»åĬ¡
å³ °
ĠC lojure
ĠT im
Ġcl im
Ġconvers ational
consum ing
ä¼ ½
Ġless on
if ar
Ġtrac es
Ġ( ,
Ġact ing
ĠB ase
ro ot
f und
ms pace
Ġmetaph or
G e
ta ke
å±ķ å¼Ģ
in ery
Ġcounterpart s
åµĮ åħ¥
ĠGener ation
= '
åı¦ ä¸Ģç§į
ist ant
}) }\
Ġread able
äº¤ æĺĵ
Ġar c
Ġfem ale
æ¯ Ĵ
ĠD B
è¿Ļ æĹ¶
ĠH or
con volutional
Ġv ote
æ¯Ķ ä¾ĭ
Ġa st
åĢ¼ ä¸º
ä¸įä»ħ ä»ħ
out s
è®¾ å®ļ
éĽĨ ä¸Ń
ĠDan iel
y l
ä¸Ģ è¡Į
Ġt ab
ĠSim on
ĠB inary
}_{ (
Ġpe ace
long rightarrow
K ey
Ġallev iate
ä»Ķ ç»Ĩ
åıĮ æĸ¹
ĠSV D
s n
Ġosc ill
nt hetic
ry ption
arn ess
sp ring
_{ [
å®ĥ ä¼ļ
typ ed
) }}$
R ef
ĠD ire
ä¸ĭ éĻį
ĠInd ex
ĠH of
Ġaccompl ished
ĠP et
Ġ ub
\| _{\
å¹³ æĸ¹
Al gorithm
Ġun changed
Ġ$ [\
ĠPo isson
O ur
Ġvan illa
Ġpro gression
ä¸ī è§Ĵ
flo at
T ask
æĪĳ åı¯ä»¥
çĶ ²
Ġdis rupt
Ġ ice
æľīæķĪ åľ°
Ġepis odes
lig ible
Ð¾Ð ¹
ĠF low
Ġth ick
Ġweap ons
Ġb unch
10 7
Ġ åĪĽå»º
Ġsens es
e val
le ctions
Ġunus ual
Ġb orrow
Ġrad io
ipl inary
Ġperce ived
æ°Ľ åĽ´
Ġcrow ds
ĠElect rical
isc o
Ġim per
Ġminim ized
ĠModel ing
Ġ0 1
Ġ10 1
å£ ¤
i est
Ġmot if
Ġfin ish
sam pled
S ystem
çļĦ å½¢å¼ı
b ro
ĠC rit
w al
Ġ æĹ¶
Ġstrugg le
ĠK now
éĿŀå¸¸ éĩįè¦ģ
ĠPres ident
ĠÂ §
Ġrelax ed
Ġprevent ing
ĠUn it
Ġdes ire
çĶ¨æĪ· çļĦ
oltz mann
Ġsuff ix
ä¿Ŀ éļľ
Ġsumm ation
h us
å±ķ çİ°
Ġgroup ing
Ġpolynomial s
u gg
Ġl l
Ġsingle ton
Ġb ip
åĮ ¿
ä¹Ł èĥ½
ĠC H
ç»Ļ æĪĳ
ĠD ou
Ġobst acle
åĪ ·
è¿ĩ æ»¤
Ġfast est
Ġstream ing
Ġentre pre
çĶ¨ éĢĶ
æ³¨ åħ¥
è½¬æį¢ æĪĲ
ï¼ī ï¼Į
Ġmen u
Ġcopy ing
Ġrout ines
l at
Ġproble matic
æĶ¾ ç½®
Ġsp ending
f ly
ĠDen ote
] _{
Ġh ous
lo pe
Sm all
b ell
èģĮ åľº
}}\ \
ä¸į ç®¡
h as
å¯¹ æ¯Ķ
ĠSe lection
ĠM uch
åįķ ä¸Ģ
åŀĥåľ¾ æĶ¶éĽĨ
Ġanc est
Ġgr ate
å®¹ éĩı
ĠGr ant
Ġdiscard ed
T hat
Ġf if
ĠH o
c a
F W
]{} |
x u
Ġto y
ĠSt ructure
ed s
Ġf ib
n es
Ġl uck
ä¾ĭåŃĲ ä¸Ń
ĠC ap
æ°§ åĮĸ
ĠM arc
ĠR en
Ġam pl
ĠÐ½ Ðµ
Ġint ractable
Ġst uck
Ġun structured
R ed
math ord
ĠR ank
Ġrec overed
Ġtre mend
åĽŀè°ĥ åĩ½æķ°
Ġc uis
H ub
Ġf ol
Ġex it
ä½¿ åħ¶
ĠO xford
ĠT aylor
Ġprev al
Ġworld wide
Ġcontrad ict
è¿Ļç§į æĥħåĨµä¸ĭ
çļĦ åıĤæķ°
ĠN am
sh arp
Ġmut able
Ġaccess ibility
Ġsurv ive
ĠPl us
Ġincred ibly
r l
Ġback grounds
add le
é Ĩ
çļĦ ç¨ĭåºıåĳĺ
}) -
ĠObs erve
C he
ä¾Ŀ æ¬¡
Ġsc iences
ç»Ŀ å¯¹
, {
r ating
ĠFr anc
Ġn om
ĠD SL
æĪĳä»¬ ä¼ļ
Ġoff ic
Ġann ual
ĠSte ve
ç§ģ æľī
Ġapproxim ating
Ġparticip ant
ī ´
as m
Ġdev oted
ĠT re
äºº ç±»çļĦ
Ġshif ts
w u
å·¨ å¤§çļĦ
ĠRepresent ation
Ġinv ari
S eq
åı¯ çĶ¨
w ait
Ġw ood
ĠI C
Ġprint f
I o
å¦Ĥæŀľ æĺ¯
Ġpresent ing
T E
ĠAppro xim
N R
è¿ĩ äºİ
ĠAl ice
L ock
Ġcontrib utes
Ġ è®¾è®¡
ĠC OM
) (\
æĦŁ åħ´è¶£
åĮº åĿĹ
oura ge
èī² å½©
ç»Ĩ èĥŀ
æģ Ĳ
ĠLu a
\] (
è¦ģ æ³¨æĦı
supp lementary
æļ Ĺ
a wn
å¦Ĥæŀľ æľī
inter cal
effect ive
çļĦ çī¹çĤ¹
å®ŀ æĸ½
Ġhuman oid
mat ical
å®ĺ æĸ¹
Ġsh adow
æ¶īåıĬ åĪ°
Ġinc ident
% \
ĠA u
Ġsummar izes
on a
Ġnon zero
ĠIo T
Ġ1 80
Ġtransform ing
ĠIm ages
at us
al ed
ap ing
h n
^{ +
per ties
r vert
Ġ æŃ¤å¤ĸ
arg s
ĠHamilton ian
10 4
ä¸ĵ æ³¨
Ġsn ap
du ate
äºĮ åıī
ĠG ro
ĠWe ight
rom e
åĪĨ åŃĲ
sub stack
è½¦ è¾Ĩ
Ġlif etime
Ġatta ch
ĠCol lect
Ġasympt otically
é ī´
æıĲä¾Ľ ä¸Ģä¸ª
èĽĭ çĻ½
Ġhand ler
ĠW ashington
ag ram
éģµ å®Ī
es tern
ç¤¾äº¤ åªĴä½ĵ
f c
æŃĮ æĽ²
Ġsp here
æĬ Ĺ
10 2
L AB
x s
ĠSim ulation
Ġprev ents
B B
ĠMod ern
Ġany way
Ġin qu
Ġc oded
}} )$.
Ġdro ps
m kern
$ (
ä½ł èĥ½
æ¬ §
ç³»ç»Ł ä¸Ń
Ġimbal ance
Ġha z
Ġgen ome
çĳ ľ
å°±æĺ¯ ä¸Ģä¸ª
ighb or
äº§çĶŁ çļĦ
le te
éģĵ å¾·
arth y
Ġsemant ically
Ġf uel
L ong
Ġpract ition
m al
Ġsupp ress
EN T
ĠD I
0 30
ĠSt reet
Ġm other
æī¾ åĩº
Ġless ons
Ġmus e
ĠCom plexity
Ġs ac
Ġprint ed
ĠLast ly
The orem
Ġshr ink
ĠMass achusetts
ç©º æł¼
Ġend ing
Ġelement ary
Ġs enior
ĠF ile
Ġextract or
it t
- +
ch oice
text style
Ġcle ver
Ġcult ures
ĠCopy right
: `
] }\
Ġeigen vectors
b theta
od ic
ĠSpec ial
Ġhard ly
æĬĬ å®ĥ
ĠAustral ia
f ont
Ġ éĢīæĭ©
è¯ ¸
ä¸į å¤Ł
G T
Ġ åŁºäºİ
up per
Ġprotect ing
æ¯ ģ
ĠApp lying
) ?
è¯· éĹ®
om b
åĲĮ äºĭ
ä¸Ģ æ¬¾
Ġtemper atures
ĠB oost
U s
¹ æŀľ
ĠL y
è¿ĩ çļĦ
e vent
Ġs aving
åĪĹ åĩº
çĪ¶ æ¯į
ĠR OC
ĠChat bots
f all
ĠAl pha
P art
Ġinv oke
Ġoutl ier
V S
)\ ,
Ġanaly tic
Com p
ĠL ine
å®Įæķ´ çļĦ
Ad v
èĭ ¹æŀľ
ç¥ Ŀ
ä½Ĩ åľ¨
Ġdiction aries
ol ov
æĢ ķ
çº¦ æĿŁ
Ġdeclar ative
ĠMo ore
R ank
Ġab und
Con text
G et
m ble
åı¯èĥ½ çļĦ
Ġpres ident
Ġcontain ers
Ġex clusive
up date
A F
o om
Ġsub script
éĥ¨ ç½²
with out
cl os
åı¯è¯» æĢ§
im plement
Ġisol ation
çļĦæķ°æį® ç»ĵæŀĦ
å£° éŁ³
iv ated
Ġpiv ot
ari o
Ð¾ ÑĤ
synchron ized
Ġdist illation
åİ ¨
Ġt ip
an not
Ġpre print
Ġsecond ary
) >
Ġpass ion
çĲĨè§£ åĴĮ
} ]$
prec ision
ĠB ASIC
Ġb orn
vol atile
æĥ ł
åĲİ éĿ¢çļĦ
Ġ å¤§
Ġb urn
Ġparamet riz
ser ies
Ġal ert
Ġdomin ated
Ġelse where
B D
Ġresist ance
tu ple
op ed
åľŁ å£¤
Ġpublic ations
Ġdist urb
Ġp et
ä¾Ŀ çĦ¶
Ġby tec
æıĲ åĪ°
Ġcol our
Ġn il
Ġ æľĢ
ĠH op
çĳľ ä¼½
n ed
ĠBost on
ĠA BC
ord ance
æł· æľ¬
' ]
Ġfil tered
AI L
al ian
ĠA ST
Ġsw arm
ä»·åĢ¼ è§Ĥ
çĥ ¹
ĠAut onomous
Ġp il
Z hang
t une
Ġm ouse
æĸ¹ ç¨ĭ
ge x
çĽ¸å½ĵ äºİ
æĪ ª
arg min
Ġassoci ations
æ¸ħ çĲĨ
sh ops
åºĶçĶ¨ äºİ
å¾Īå¤ļ äºº
çīĽ å¥¶
ĠBas eline
åĬł å¯Ĩ
ä»¥ä¸ĭ åĩłä¸ª
ĠT F
un ting
Ġin clusive
su pport
æĽ¾ ç»ı
Ġexpress ing
ÐµÐ º
ĠP ut
dist ributed
ĠR ule
Ġdraw s
}_{ {
æĮĩ çļĦæĺ¯
ä¸Ģ éĹ¨
åĨ Ľ
æ°ĶåĢĻ åıĺåĮĸ
s un
çĶŁåĳ½ åĳ¨æľŁ
Out put
Ġch unk
Ġaltern ating
ron tal
Ġprote ins
ex act
Ġattrib uted
IN E
ĠF ull
åĴ ¨
Ġconstit u
at ar
Ġ\ :
Ġvol umes
Ġs ends
ĠV alley
åĴ¨ è¯¢
ĠM R
ĠTh ink
ä¸Ģ åĪĩ
Ġmagn etic
Ġgrow n
ĠGener ator
ill ion
Ġorgan ic
G aussian
çļĦ å¼Ģåıĳ
çļĦ åŃĹç¬¦ä¸²
phr ase
ĠC I
02 4
in er
å®£ ä¼ł
ĠPro posed
ç½ ª
sem i
Ġ& +
pos itive
Ġsuff ices
Ġdiagram s
om es
Ġpart ly
å½ĵ æĪĳä»¬
Ġarg s
comp ass
Ġt ick
çī Ļ
w hen
Ex p
C ase
Ġe at
ĠT imes
ĠE R
æĺ¯åĲ¦ æľī
åįļ å®¢
ç¬¬ ä¸Ģæ¬¡
Ġ${ {{\
Ġanomal ies
Spr ing
çĪ± å¥½
C ount
t owards
}\ !\
ç¡® è®¤
$ }}
ain ing
iss ue
ĠP recision
rap ol
Ġsn ipp
åĩ½æķ° ä¸Ń
Ġscreen ing
çī© ä»¶
Ġindex ed
Ġack nowled
ä¸į å°ĳ
Ġcoll apse
Ġexplo its
ĠCommun ication
ound ing
ĠK al
Ġas ks
i em
ing e
Ġact ors
\ }^
Ġcl ouds
)} =
çļĦ å®ļä¹ī
å¿« ä¹Ĳ
Ġcomplet es
J DK
ĠComp anies
Ġre feren
v w
H C
çļĦ æĢ§èĥ½
è§Ĩ ä¸º
äºº éĻħ
Ġfore ver
ĠTrans fer
Ġs igned
Ġ )$
wor th
Ġd oll
Ġsche ma
çļĦ è¯Ńæ³ķ
ĠM er
:" )
ĠÐ½ Ð°
Ġ10 24
çĲĨ å¿µ
Ġdem ands
]{ .
ak en
Ġworld s
ĠâĢ ĵ
struct ure
ĠI ll
å¯¹è¯Ŀ åĨħå®¹
ĠHum ans
Ġub iqu
çģ °
æįŁ å¤±
Ġç»¼ä¸Ĭ æīĢè¿°
F R
il ly
Ġaccount able
ĠC RF
Ġwork force
ic ol
æĢ ª
ĠM AT
ĠOr d
èĮ Ħ
Ġbid irectional
Ġfe asibility
Ġpo etry
å¦Ĥæŀľ æ²¡æľī
ä¼łéĢĴ ç»Ļ
ĠE mer
]{} )
å¾ĹåĪ° äºĨ
under standing
h ist
Ġp itch
i ang
Ġun employ
Ġfor cing
èĦ Ĥ
ĠF A
Ġbur den
éļ¾ åº¦
Ġmiss ed
bl ed
é ŀ
}) }{
ĠImag ine
N ote
ä¿® å¤į
stad ter
å±ı å¹ķ
Ġwin ner
id ual
Ġcommit tee
ĠTechn ologies
Ġ åŃ¦ä¹ł
Ġsh uff
( |
d epend
c ue
ĠP rom
ĠIn ception
ĠE ug
Ġfore ground
}} [\
ss on
Ġp owers
() :
ĠCor por
Ġ å¦Ĥ
Ġocc urrences
}, {
åı¤ ä»£
eg o
Ġbill ions
Ġvisit ors
Ġab lation
B ERT
Ġsign atures
}$ ).
ĠSt ar
Ġprint ing
h or
Ġin j
ä¹Ł å°±
Ġc ards
ĠW all
ad i
æĮĩ æłĩ
Ġinspect ion
Ġl inking
é¥ ¼
wh ite
Ġp he
å¾Ī å¿«
Ġ( %)
Ġident ities
m i
Ġro utes
ä¸» ä¹ī
Ð¾Ð ±
Ġen em
ĠD AG
ç§ĳåŃ¦ å®¶
ĠBel ow
Ġpr one
ĠEx p
ingu ish
ag o
å¥¹ çļĦ
ĠD irect
col one
Ġ& *
Ġexec utes
éĻ Ī
éĥ½ ä¸į
çļĦ æł¸å¿ĥ
Ġvis iting
ä¼ ¦
Ġdest ruct
l st
re ams
Ġattract ive
Ġc ry
ĠG ram
ç¦ ģ
Ġaffect ing
in et
ç±» åĴĮ
ĠRob ust
åĲĦ èĩª
s ymbol
ĠN L
ä»£ æĽ¿
S um
ĠRet rie
Ġdec iding
éĩı åŃĲ
Ġimp ose
éľ ĩ
Ġst unning
æľī ä¸Ģ
è¹ Ī
Ġb an
pect ive
c ov
ĠPar ameter
ĠP E
Ġlet ting
process or
Ġd ie
Ġremov es
ĠS us
cast s
F irst
Ġinter ference
Ġperturb ed
Ġmes h
. ),
f ol
y an
ĠS ens
num er
em ents
b or
çļĦ åĮºåĪ«
Ġwave form
king ma
± ä¹Ĳ
ĠC oding
oc o
Ġad minist
02 3
çķ ª
æľī æĹ¶åĢĻ
S p
Ġdef e
ĠBern oulli
ĠV al
å®ļä¹ī ä¸Ģä¸ª
ĠF ield
ex cept
æµ· æ´ĭ
Ġconj ug
Ġforget ting
ĠCh ris
æĪĳä»¬åı¯ä»¥ ä½¿çĶ¨
Ġfre ely
soft max
s al
Pro of
Ġtrans cript
par se
çī¹æ®Ĭ çļĦ
é ¹
o es
}} }_{\
Ġdemonstr ations
åĪĨå¸ĥ å¼ı
åį Ī
çĦ¶åĲİ åĨį
ĠPl an
ĠStrate gy
com mon
è§Ħ å¾ĭ
ä¸įæĸŃ åľ°
at itude
Ġcur v
ç¢ į
Ġb on
Ġ }_{
Ġload ing
ĠScient ific
æİ¨ çĲĨ
Ġmag ic
ĠL ater
éľĢè¦ģæ³¨æĦı çļĦæĺ¯
M RI
i Ã³n
ĠF OR
phant om
Ġfin ance
å°ı æĺİ
ke ley
Ġsh opping
Ġcor rupted
Ġ" [
ĠG T
AC E
O pen
åĵª éĩĮ
ä» ª
Ġactiv ated
Ġgen u
ĠGu ide
éĴ ®
ĠAutom atic
, {{\
æħ¢ æħ¢
l brace
ĠWork shop
ass um
ĠDef ense
å Ĺ
æ²¡æľī ä»»ä½ķ
Ġcompet e
ĠRe ason
Ġreli ably
åĮ¿ åĲį
ĠJ eff
çļĦ éķ¿åº¦
am ily
ĠA ge
çŁ¥è¯Ĩ çĤ¹
ä¼ł æĴŃ
pre ceq
Ġmed itation
ut il
æº ¢
Ġtre ating
G s
ĠE D
ary ing
Ġ ä¸ī
}}( {{\
Ġcompar ative
Ġund ers
> .
l ers
ÑĤÐ¾ ÑĢ
Ġmult is
Ġt error
ä¸ĸçķĮ ä¸Ĭ
ĠMcC arthy
ĠT rain
cre ate
æİ¥ è¿ĳ
åĩºçİ° çļĦ
Ind ex
æ¦Ĥ è¿°
s ized
æĸ¹æ³ķ æĿ¥
v i
ĠA E
Ġover flow
a ud
Ġph ones
Ġsu ite
if ference
ĠSupp lementary
ĠW u
Ġco herence
çī¹ èī²
S ee
Ġnetwork ing
ĠSum mary
ä¼ ¸
Ġwave let
Ġp urs
ĠP ass
ĠSpar se
Ġg aps
åįķåħĥ æµĭè¯ķ
)} )$
åĮĹ äº¬
ort ical
æ³¨ è§£
equ ation
Ġtutorial s
Ġreg ulation
Ġ åĽŀçŃĶ
Ġdist ant
ul er
colone qq
Ġc ub
æĽ´ æľī
Ġin line
Ġproxim al
åħĥ ç»Ħ
ĠSh ow
èĪŀ è¹Ī
å§ ľ
iction ary
ĠAct ive
Ġcomfor t
Ġrig orous
Ġg iant
åįĩ çº§
Ġexperiment ally
ĠU I
åŃĹ éĿ¢
Ð¾ ÑĢ
ç¢ °
ä¸¤ èĢħ
åľº åĲĪ
ĠStud ies
ĠRe ference
Ġconfir med
Ġm amm
Ġhypot hes
æĹ ¨
çĤ¹ åĩ»
éĩįè¦ģ çļĦæĺ¯
è§Ĩ è§ī
ĠA S
ĠP ath
Ġpoint ing
Ġgood s
Ġin version
Res ults
Ġspect ra
Ġtrac ks
ä¸ ĥ
Ġanaly se
ĠD ri
*\ *\
å£ ®
Ġmult il
Ġdetermin ation
= $
Ġnumer ically
P e
ĠB oltzmann
Ġsyste matically
æĺ¯ ä¸ª
it ous
çº¢ èī²
ç»´ æķ°ç»Ħ
Ġdang ers
è¿ ħ
Ġapplic ability
ĠA SP
Ġinvestig ating
Ġstrate gic
Ġz eros
t racking
Ġimpact ed
Ġflo or
Ġcontro vers
æľĢåĲİ ä¸Ģä¸ª
ĠChar acter
Ġun clear
éĤ »
AT E
Ġadopt ing
ĠÐ¾ Ð±
Ġun stable
Ġ ä¼ļ
çİ¯å¢ĥ çļĦ
ac cess
Ġre plicate
Ġco pe
Ġt f
Ġ éĻ¤äºĨ
con tain
Ġmin ib
Ġgu ard
Ġm ob
èª ī
æĺ¯ ä¸įæĺ¯
OP T
æĹ¶éĹ´ å¤įæĿĤåº¦
Ġsp orts
Ġcuis ine
Ġ æŃ¥éª¤
åĽ½ éĻħ
Ġrep air
çļĦ åīį
ĠS ymbol
ĠP A
ject ive
}} '
ĠN eg
åĪĨ ç¦»
Ġhom ogeneous
k ar
ĠPrinc i
B ase
æĮī éĴ®
, *
Ġvalid ated
Ġ åħ¶ä¸Ń
n ice
ĠB rown
acc uracy
è· ĥ
Ġinstant iated
ç¼ĵåĨ² åĮº
= }
è¯ģ æį®
Ġstead y
æķĻ æĿĲ
Ġinter ventions
Ġt aste
ĠPro duct
å¾Ī å°ĳ
ä¼ ª
anc er
o ks
çĽ® çļĦæĺ¯
Ġrema ined
ĠE s
Ġassoci ative
bal anced
ĠQ A
ĠO racle
F M
10 6
Ġband it
Ġlic ense
im s
Ġsimul ator
t xt
ĠC ouncil
è¿Ļ å°±
arn e
ĠW il
Ġphys ically
Ġim pl
åĩº éĶĻ
circ le
A da
ul ates
è½¯ä»¶ å¼Ģåıĳ
Ġoccl usion
t f
ç»Ļ å®ļ
p ublic
b ooks
il st
åģ ¶
] ^{
ĠCom ment
Ġ æĸĩä»¶
B lock
Ġw ra
Ġw atching
ĠS W
ĠClass es
ĠN ature
å¤į çĶ¨
c u
æĺ¯ ä¸ºäºĨ
r us
ĠE N
is dom
mn ist
r ons
ĠNew ton
ĠQu estion
çİ¯å¢ĥ ä¸Ń
Ġbranch ing
Ġcitiz ens
\ .
ĠUn ion
Ġre venue
è¿Ļæł· åģļ
Ġmer ged
ĠMin im
æķ ĳ
Ġbas ics
ĠP ot
çı į
$ }
ĠH i
Ġlogarith mic
z eg
Ġran ks
Ġ åıĺéĩı
con scious
è®° å¿Ĩ
Ġack nowledge
ĠC a
Ġro uting
ĠK ore
ï¼ī ãĢĤ
Ġanc ient
Ġse x
opard y
Ġformat s
ĠObject s
Î ¸
æĸ Ĺ
éª ¨
ĠW asserstein
CT ION
Ġd uck
çļĦ å¤§
Ġpurs ue
r brace
äº ¿
Ġconserv ative
$ &
Ġwork shop
Ġdiscipl ine
èĢ¦ åĲĪ
un s
ĠHof stadter
u ate
Ġcomprehens ion
ir ty
ä¹ ³
$. []{
æĪĳ åľ¨
æĦı å¤§åĪ©
ĠAp plied
Ġensemb les
Ġres et
åĲĪ æ³ķ
ĠAcadem y
i ar
F rom
æĮĩ åĩº
Ġbat ches
n ik
me asure
Ġ å¤ļ
è¿Ļ ä¹Łæĺ¯
nt hesis
ĠT ypes
æĦŁ åıĹåĪ°
Ġdistingu ished
Ġn p
æĸ° éĹ»
ç®Ģ ä»ĭ
Ġm ood
Ġw aves
$ ^\
çļĦ ç»ĵæŀĦ
: ,
if er
å¼ķ åıĳ
åĽ¾ çīĩ
ä¸ĭ æłĩ
ĠPract ice
cl aim
ç»ı çĲĨ
Ġequival ently
Ġassemb ler
P D
ĠD ARPA
ĠMod ule
ĠOver view
ict ure
ëĭ ¤
ive red
ĠP sych
app ed
ĠSh ould
é©¾ é©¶
Ġcon ferences
icro soft
Ġp and
u v
}\| ^
ĠL S
Ġinter sect
l am
Ġu plo
S ing
æĭĽ èģĺ
å¸ĥ å°Ķ
çĦ¦ èĻĳ
ä¸į å¤ª
Ġhabit ats
Ġem it
ë Ĭ
Ġde let
ann on
Ġl osing
ä¸º æŃ¢
Ġexceed s
Ġtrick y
Ġin n
æĺ¯ ä»İ
å¼º çĥĪ
è·Ł è¸ª
y ield
è¿Ļä¸ª åĩ½æķ°
æ½ľ åľ¨
+ {\
T ab
ĠN U
Ġin sufficient
ĠS ampling
is or
f s
Ġalong side
r ific
Ġl oved
æ¸ħ éĻ¤
ĠE X
B as
Ġinstant iation
ĠB ooks
ĠSym posium
G R
Ġeng aged
Ġpreserv es
our ced
: =\
Ġdiscipl ines
Ġ\ ,\
ĠF oo
è§Ĥ ä¼Ĺ
Ġregist ration
Ġjo ined
Ġfix ing
Ġsee ks
script size
S tack
act oring
Ġpsych ological
are to
ord ered
Ġb ots
ĠP enn
Ġbar riers
ĠTer min
çļĦ ä¸įåĲĮ
Ġsimultane ous
æĦ¿ æĦı
Ġtem porary
ĠStep hen
Ġloc ate
Ð¾Ð ½
Ġs on
Ġnam ing
Ġleaders hip
éĿ ©
Ġ& {\
ĠD irichlet
Ġhand written
å¦Ĥä½ķ åľ¨
ish op
ri a
So ft
æĹł éĻĲ
åŃ ¤
Ġiter ates
ä» ¿
åĢ º
åı¯ éĢī
èĩ³ äºİ
å°¤åħ¶ æĺ¯
é¢ĨåŁŁ çļĦ
Ġvol atile
Ġla unched
S ize
Ġ æķ°æį®
Ġsuff ers
M AP
æĥ ĳ
j oin
è´Ł éĿ¢
W rite
ex pression
Ġm entions
ell er
Ġent anglement
c nn
ver b
å§ ¿
Ġ19 60
è¾ĥ ä¸º
m ove
Ġdeb ug
ĠLab s
ĠN OT
Ġch arg
å¾Ī ç®Ģåįķ
ist inguish
t or
ĠM RI
çĽ¸ åºĶ
re ens
éħĴ åºĹ
os c
ĠP rel
$- $
ĠæĢ» çļĦæĿ¥è¯´
æĵįä½ľ çļĦ
irc raft
Ġmark ers
ĠP S
æīĭ åĬ¨
re nt
åıĸ åĩº
çĪ Ĩ
Ġcirc ular
ĠD O
å¤ĸ è§Ĥ
H u
ĠJ IT
Ġport able
Ġb esides
æķ° åĪĹ
Ġorgan ize
B E
ĠTh ings
ment al
å·¥ä½ľ çļĦ
Ġcall er
el d
Ġint ellig
T ube
Ġconf used
Ġ Ñĥ
Ġb read
ĠInter face
Ġaccess ing
Ġoppon ent
B OL
S ource
åı¯ åıĺ
æ£ Ĵ
fund ed
Ġcont emporary
æķ´ åŀĭ
Ġappear ing
ï¼ļ âĢľ
ĠN PR
Ġbl ank
ĠD T
Ġdis ambigu
Ġreview ed
Ġtend ency
F D
rop ic
ãĢĤ âĢĿ
F O
Ġcr ash
Ð¾Ð» ÑĮ
are r
Ð½ Ð°
ĠEug ene
Ġin efficient
aff e
ot lin
Ġf li
Ġmind fulness
Ġcat alog
Ġtem por
Ġboot strap
Ġlook up
Ġcommunic ating
Ġ1 60
ĠL E
èĤ¡ ç¥¨
Ġmonot one
Ġsum s
Ġneg ligible
Ġ$ <
ud d
ĠBe yond
ur t
ign ment
Ġharm ful
æģ °
éŀ ĭ
id able
Ġsam pler
fact or
f a
ĠS ep
Î ²
-| -|
Ġinf inity
Ġcom o
Ġthrow s
ĠRegard ing
Ġtoler ance
Ġdeli ber
Ġund irected
åį« çĶŁ
v c
Ġiniti ative
Ġ ãĢĬ
ä¹ĭéĹ´çļĦ åħ³ç³»
t otal
Ġk ids
èµĦ äº§
Ġar rang
åĪĩ æĪĲ
ĠP an
Ġres on
åľ¨ æŃ¤
int eg
Ġske w
ma ps
åľ¨ è¿Ļ
åı¯ è§Ĩ
Ġtrade off
$ *
Ġeff ic
! )
is a
Ġd ots
Ġhas n
ĠRe v
Ġnot ations
åı¯ æī§è¡Į
deg ree
ĠL uc
Ġclaim ed
Ġwonder ing
æµĭ éĩı
c n
ĠEns uring
Ġvol tage
Ġprepar ation
Ġwarn s
r ish
åĪĽ ä¸ļ
çī¹åĪ« æĺ¯
vari able
Ġ çĦ¶èĢĮ
ĠT ables
Ġsoci eties
Ġfl ip
ĠS ar
Ġre written
Ġalign ments
) ](#
æİ ĺ
Ġ( +
Ġcontinu ation
> <
Ġd B
Ġdis orders
éĢļ éģĵ
å¿ Ļ
S em
ĠS ervices
ä¹Ł éľĢè¦ģ
å¦Ĥä½ķ ä½¿çĶ¨
Ġ æıĲä¾Ľ
err y
Ġf er
read ing
ĠG it
ĠPh ilos
Ġinsert ed
ĠW est
Ġproxim ity
system s
h ost
st op
m ode
ĠG MM
Ġ æĤ¨
Ġpers istent
ĠE mail
Ġdel ivered
b w
Ġqu asi
åıį æĺł
Ġst ops
è¾¹ çķĮ
] {\
Ġb et
Ġt ied
ä½ Ľ
Ġch apters
ĠFr ance
urom orphic
m f
ĠD ropout
mm as
Ġas ide
Ġdecom posed
Ġpus hing
è ķ
å¾Ĺ åĩº
æĺ¾ å¼ı
hu a
ĠGr and
Ġwork load
è¿Ļ å°Ĩ
Ġresil ience
zeg edy
Ġ å®ŀçİ°
ex pr
ycl ic
Ġp icking
Ġautonom y
Ġunivers ities
ĠSeg ment
ĠThrough out
M ark
èĻļ åĩ½æķ°
P ath
æľīè¶£ çļĦ
å¥ ¥
éĩį éĩı
Ġ( `
Ġcol d
N etwork
Ġconsequ ently
se y
*]{} :
ou nce
æľī äºº
av ors
èıľ åįķ
Ġn erv
åį ĸ
Ġuniqu ely
] _
ĠM B
Ġdel ays
it ate
åıĳ æĺİ
Ġmult ilingual
Ġman agers
sam ples
åıĺå¾Ĺ æĽ´åĬł
Ġh iking
Ġpl ate
æĿĥ éĻĲ
ĠO C
and on
æĹł åħ³
è¿ĺ æ²¡æľī
C hen
Ġy ellow
æĪĲåĳĺ åıĺéĩı
åįı è°ĥ
Ġenh ancing
Ġvirt ually
Ġarg ues
aut om
Ġlex icon
ä¸į å¾Ĺ
b p
sc ient
bre v
ĠUs ually
ĠC U
Fig ures
match ing
Ġ æĬĬ
Ġgram mars
Ġconvin cing
C omm
ĠJS ON
Ġcontrib uting
H MM
èĬĤ çľģ
æľ Ŀ
åħį è´¹
ros so
qu er
em bed
ames e
ĠBi as
: (
æĶ¯ åĩº
Â ±
ens pace
n p
Ġsummar ization
ĠH ouse
ov a
ĠPartic ip
å¼Ĥå¸¸ å¤ĦçĲĨ
æľī åĵªäºĽ
Ġattempt ing
t race
est yle
ĠLe ft
ĠAdd ress
N um
ĠIn s
æĽ´ é«ĺ
Ġshif ted
æ±Ĥ è§£
çļĦ å»ºè®®
cont inuous
ĠZ ero
åĢĴ åħ¥
ĠAbsol utely
Ġh iring
]^ .
è¿ĺ ä¼ļ
Ġcommit ment
é¢Ħ æľŁ
éģĵ è·¯
åĪ© æ¶¦
å¸ §
Ġpy ramid
ĠT arget
Ġtransl ates
arg max
æĳ Ĩ
k ay
Ġcomp ound
Ġgeneral izes
Ġrepet itive
it a
olog ist
Ġpolym orphic
ĠBer keley
c am
Ġswe et
ĠÐ² Ñĭ
ĠCy ber
Ġag ency
bel ow
æĬ¥ éĶĻ
åį± éĻ©
Ġinflu ences
ĠDire ctor
ä¼ł è¾ĵ
Ġc oun
åīį éĿ¢çļĦ
en ame
ĠT ri
Ġ( '
Ġign oring
å¤ªéĺ³ ç³»
ĠEst imation
iter ator
art es
Ġpo ems
pt a
åľ Ī
is ations
æĪĲ ä¸Ģä¸ª
ï¼ī ï¼ļ
bur gh
ĠJohn son
æľī çĶ¨çļĦ
Ġdesign er
S ome
vir t
mar king
st it
rec ognition
æĪĲ å°±
ç§ ĭ
ĠAct ually
Ġske leton
ĠKe ep
n i
ä¸į åŃĺåľ¨
Ġv on
ĠD QN
ĠIm p
Ġtrunc ated
Ġbrack ets
um ann
è¿Ĳè¡Į çļĦ
C un
VID IA
E vent
ĠS H
ä¸Ģä¸ª äºº
fore st
Ġconvers ions
Ġread ability
Ġ\[ .
Int eger
Ġb ool
Ġdecom pose
é¡¹çĽ® çļĦ
æ¼Ķ ç¤º
a Ã§Ã£o
B i
Ġmulti plied
ĠW ow
Ġpers ons
Ġdiscrimin ate
ust ered
com mand
ĠSc ott
æ¯Ķå¦Ĥ è¯´
Ġint ensive
Ġs oc
Ġt ape
Ġcell ular
Ð°Ð ¼
Ġperiod ic
um ar
Ġ" *
ĠR am
æľī åı¯èĥ½
fe atures
l ate
Ġf ather
å½ĵ æĹ¶
Ġprovid er
Ġsupp lement
Ġaxi oms
Ġæľ¬ æĸĩ
Ġemer gence
r atic
ony an
ä¸ ¢
Ġmar ks
ĠS pect
Ne ural
Ġcomp elling
b oth
èħ ¿
Ġfeed ing
Ġseem ingly
Ġmon ol
Ġincons istent
çº ł
Ġsyn apse
Ġsw ap
ĠM el
ĠM use
Ġmethod ologies
ĠMathemat ical
Ġback wards
Ġstart up
è®¡æķ° åĻ¨
åĲĪçĲĨ çļĦ
z hu
Ġto m
or ry
E nd
T orch
ĠPri ze
b ow
ĠG aus
Ġmorph ological
| =
Ġsub mitted
Ġen forcement
Ġpermut ations
Ġ çº¿ç¨ĭ
% $
st one
Ġ è¿Ļæł·
ĠPr int
}} )$,
Ġ![ ](
Ġsepar ating
ĠCol or
N T
Ġattempt ed
normal ized
ĠIra q
ag ger
ar ry
S pec
ul ator
Ġstand ing
Ġst em
Ġserious ly
Ð° ÑĤ
æŀĲ æŀĦ
Ġ æİ¥ä¸ĭæĿ¥
Ġprof it
]. $
é Ł
ĠV ers
éĹ´ çļĦ
é¼ ł
Ġth in
åĪ º
19 89
fact ual
ĠST L
0 50
oy d
Ġfit ted
V R
éĶĻè¯¯ çļĦ
ç§į æ¤į
Ġthorough ly
j an
è¯Ń éŁ³
å¹¶ éĿŀ
ĠF und
Ġun predict
the orem
Ġconst itute
pa per
æĶ¾ å¼ĥ
G SM
b X
ĠL ight
éĩį è§Ĩ
é¢ĳ ç¹ģ
ĠStart ing
ĠCho ose
é¢ Ĺ
Ġprob e
Ġtext ures
Ġadjust ing
ĠMus ic
Ġr h
Ġaccept s
Ġ åĪ¶ä½ľ
ĠR est
onal d
Ġcoordin ation
ĠClus tering
s ay
R andom
r ict
Ġdru gs
Ġneur onal
å¤ļä¸ª çº¿ç¨ĭ
èĩªçĦ¶ è¯Ńè¨Ģ
Ġjoint s
L A
Ġpre condition
ĠCom ments
ç³ Ĭ
Ġconsum ing
Ġsac rific
å®ĥ åľ¨
Ġsub spaces
mon d
å½¢ çļĦ
åĴĮ ä½¿çĶ¨
er b
ĠN ash
ĠAck nowledgments
}} .$
ĠM r
åĦ¿ ç«¥
ĠBe ing
ä¿ Ĺ
Ġmis class
å¥³ æĢ§
Ġun a
Ġinsert ion
Ġdep art
Eng lish
çĲĨ æĥ³
Ġh arness
j arne
SV D
AV A
ir ms
Ġch art
ĠSet ting
Ġwrap per
ì Ĺ
Re al
ĠF eed
ĠP romise
è¿Ļç§į æĥħåĨµ
Ġelimin ation
Ġb eta
Ġb ands
Ġclean ing
è¿Ļç§į æĸ¹å¼ı
ed ing
| _{
ge red
Ġlabor atory
Ġal ive
èĩ³ åħ³
b t
Ġ í
*~ ,
Ġintern ally
Ġse am
^* _{
éĶĢåĶ® é¢Ŀ
S cal
L ocal
g i
by te
ł éģĵ
çļĦ éĥ¨åĪĨ
Ġind istinguish
éĢļå¸¸ æĺ¯
Ġinstall ed
çļĦ ç¼ĸç¨ĭè¯Ńè¨Ģ
Ġbal ancing
Ġb ed
çĶŁæĢģ ç³»ç»Ł
å© ´
f oot
}) _{
Ġpract ically
)( -
èĥ½åĬĽ åĴĮ
æĢ Ģ
Ġto urs
Ġch ips
è¯¥ åĩ½æķ°
ik it
Ġavoid ed
Ġvend ors
Ġth inks
}} }}_
ĠM aking
' (\
} ),\
Ġcustom ized
( $\
ĠC irc
> $
å¨ ±ä¹Ĳ
Ġbroad ly
b rain
Ġr ic
rib utions
Ġhab its
Ġext rapol
Ġg or
}^{ (\
u y
å¤ª å¤ļ
ĠA wards
the re
æ¡ ¶
Ġbytec ode
ç²¾ ç¡®
Ġil legal
åģļ äºĨ
æŀĦéĢł åĻ¨
Ġcat ast
Ġdisp atch
Ġconject ure
spect ral
is ible
Ġdec ou
ĠK ol
d oc
é¡¾ å®¢
Ġcurv ature
å®ĥ å°Ĩ
02 7
å©ļ ç¤¼
op ing
å¾Ī é«ĺ
Ġ\[] ]{}
Ġsur faces
gram s
}}} )$
ĠE ric
ĠAv ail
Ġb order
Ġd rones
; {\
Ġt um
Ġm ine
ä¸Ģ ä»¶
Ġim plied
ĠV OC
Ġinc ur
at z
Ġspeed s
æ¢ ¯
pon ents
semb ly
Ġover ride
10 8
Ġres ort
è° ¨
ot or
Ġgr atitude
F N
Ġweak er
SN E
è ļ
Ġsh op
åı¯èĥ½ éľĢè¦ģ
id ential
Ġacc ordance
ĠB io
Ġcol ored
æī§è¡Į å®Į
Ġdra matic
Ġre putation
Ġsubst itute
Ġconv entions
èī¯ å¥½
Ġm and
ĠD ouble
Ġsc anning
x b
Ġeffic acy
ç»Ļ ä½ł
B uffer
åĪĴ åĪĨ
Ġpl ural
Ġfe et
Ġhyper plane
Ġstre t
R T
le c
å¼ķ åı·
æīĢéľĢ çļĦ
ava il
ĠHy brid
Ġse p
Ġf ont
Ġnon negative
Ġs in
sib ly
sw itch
ä¸¾ ä¾ĭ
Ġ æķ°ç»Ħ
åĽŀ å½Ĵ
ĠS ize
Ġdescript ive
Ġelimin ated
ëĬ Ķ
çĶ¨ ä¾ĭ
}{ {
Ġindex ing
Ġen compass
scrib e
ĠH z
Ġmy st
V B
åĪ Ģ
inter face
ĠV M
éĢı æĺİ
Ġwhere in
Ġcompet itors
å¡ Ķ
good fellow
h d
Ġcomplex ities
IM E
G CN
Ġan ne
åĽŀ åĪ°
Ġent ail
èĥ½å¤Ł åľ¨
çļĦæľĢ å¤§
}} ^{-
crit ical
CR F
Ġv o
åł Ĥ
ĠDist ributed
ç£ ¨
Ġ& $
Ġdec imal
å¹ »
pro blems
respon ding
02 9
Ġdro pped
ĠPop ular
Ġgrate ful
åı ł
us ions
Ġpres um
mann ed
é¢ĳ çİĩ
Ġchun ks
æľĢ éĩįè¦ģçļĦ
æĳ ĺ
å «
Ġrig id
ä¸į åıĺ
Ġpad ding
Ġre nt
Ġimm une
ĠK UR
sq subseteq
ä¸Ģæł· çļĦ
éĺĲ è¿°
ĠLingu istics
æĶ¾ åĪ°
Ġ è¡¨ç¤º
ĠS AT
Ġsatell ite
ĠR BF
æĮĩ ç¤º
) }^
theore tic
gener ative
v v
çļĦ åıĺåĮĸ
d ens
ä¿Ŀ éĻ©
Ġattract ed
æĻ® éģį
ĠCong ress
éķ ľ
Ġmut ually
Ġmoder ate
roph ic
Ġlearn able
T e
ĠLe vel
ĠF un
Ġinvest ing
ĠKUR Z
Ġn u
est ic
WE IL
ĠKURZ WEIL
Ġsub mit
Ġauto encoders
Ġstere o
st eps
ä¸» åĬ¨
æľĢ é«ĺ
Ġvan ishing
) |\
Ġent ered
å¢ŀåĬł äºĨ
m eta
Ġbi ometric
Ġconvex ity
Ġ åħ³äºİ
^* $,
ĠAl g
ĠCollabor ation
è®¾ç½® ä¸º
Ġanticip ate
Ġme at
æĸ° é²ľ
Ġpotential s
d ict
Ġstreng then
â ĨĴ
ĠM OP
Ġver bs
Ġc ra
Ġinterpret ations
çĤ¹ çļĦ
ĠInnov ation
ĠPl ay
èĴ ¸
com pare
ãĤ ĭ
Ġop ens
åĩı è½»
ĠInv est
}) \\
Ġreserv ed
ious ly
ç¿»è¯ĳ æĪĲ
å®Ŀ å®Ŀ
èĢĥèĻĳ åĪ°
Ġpol ice
ĠV R
Ġindu ce
Ġflu id
Ġproceed s
Ġ ä»¥ä¸ĭæĺ¯
og ue
Ġhas hing
ĠL ead
Ġim itation
disc iplinary
Ġinter ior
Ġent hus
éħį åĲĪ
æĬķ åħ¥
b ank
d imension
ĠD atabase
art ite
Ġsing ularity
Ġdisc ourse
è¯· ä½ł
Ġinflu ential
ĠConvers ely
pa int
ur istic
æ¶ Ĥ
et ed
Ġobs erver
å¸¦æĿ¥ äºĨ
Ġplastic ity
Ġp od
é¥ ª
çĥ¹ é¥ª
ĠE L
Ġmult im
Ġmem br
d am
l imited
Ġcovari ates
éĢ Ĩ
èĢ ³
Ġper mit
åħ³éĶ® è¯į
é¥® æĸĻ
ĠCommun ity
å¤§ å¤§
Ġ ell
Ġa str
Ġg athered
ĠYe ah
F ram
Ġ æŃ¤
ĠL eg
agn ostic
f ind
$ {\
Ġ éĿŀå¸¸
Ġm AP
æĿ¥ è¡¨ç¤º
åĨħ å¿ĥ
Ġsl ots
Ġvari ances
Python çļĦ
è¯ º
Ġminim izer
è¢« è®¤ä¸º
press ed
Ġ ï¿½
ott nt
âĢĶ âĢĶ
Ġcontinu ity
ĠH ope
Ġab normal
ç§» æ¤į
Ġcopy right
ç¨ĭå¼ı çłģ
syn aptic
æ² ¿
ĠWill iam
), (
Ġi Phone
Ġextract s
ik olov
ä¸Ĭ åįĩ
ĠA NNs
Ġappe aling
Ġincred ible
Ġne oc
Ġob ey
uth ors
Ġneg ot
ĠT HE
Ġsk et
E nc
æ³ ³
Ġmult id
ĠR T
åĩ½ å¼ı
ade qu
03 5
play er
? )
Ġun constrained
^{ '
Ġeconom ics
åĩºçİ° äºĨ
p age
Ġpr uned
um in
Ġdepict s
in omial
Ġret raining
ĠH a
L emma
Ġt or
éº ¦
Ġpay off
çļĦéĩįè¦ģ æĢ§
V E
n able
ta king
Ġdis h
Ġmem rist
åŁºæľ¬ ä¸Ĭ
ä¸ĭéĿ¢ æĺ¯
Q ueue
Ġpro spect
Ġsp ons
ogene ity
ç¥ŀç»ı ç½ĳç»ľ
ĠS U
åº Ł
D N
æĪĳä»¬ ä½¿çĶ¨
åĩº çİ°åľ¨
ĠHu ang
è½¬åĮĸ ä¸º
ĠDeveloper s
Ġcre atures
Ġsubrout ine
é¢Ħ éĺ²
Ġreflect ing
au x
åħħ è¶³
v ia
clus ively
f ac
å¹¶ æıĲä¾Ľ
Ġsimul ating
Ġinnov ations
ĠR ew
g ame
ĠD S
^* $.
ĠH ot
Ġin ferences
Ð¾Ð³ Ð¾
x rightarrow
)\ [
åıª éľĢ
Ġqual ities
Ġtransl ating
æľī æ²¡æľī
ĠAd ding
Ġadvert ising
Ġdesk top
Ġtransform er
æłĳ çļĦ
ob e
æĭħ å¿ĥ
éĩĮ éĿ¢çļĦ
å·§ åħĭ
Ġaccommod ate
ri ble
con struction
Ġjust ice
æĺ¯ å°Ĩ
Ġo s
]. \
åĨħåŃĺ ç©ºéĹ´
P re
ä¸Ģä¸ª æĸ°çļĦ
bin ary
ver ty
ĠV ery
Ġmig ration
Ġexhaust ive
str ate
Ġserv ing
c ard
ĠC C
10 24
Ġpolicy makers
ç»´ æĮģ
åĪĽ æĦı
Ġst ro
Ġsuccess es
us able
Ġcomp ose
Ġshe l
ĠCom mit
å¹² åĩĢ
Su pp
G RU
Ġs lope
Ġâ ģ
en h
Ġph ysi
èĢĲ å¿ĥ
Ġpo verty
åħī çº¿
Ġcorrect ed
Ġbe ach
Ġfluct u
Ġd ance
ĠB lo
Ð ³
az z
ĠFin ding
ĠD er
Ġins urance
ĠN VIDIA
æĪĲ ç»©
ĠN A
ĠB log
Ġbus y
æ½ ®
ĠRe ferences
æĸ ľ
Ġcoll ision
ç¼ĵ è§£
ob b
Ġcollabor ate
Ġexp ense
class es
AN D
å¼ķ å¯¼
a verage
ĠComp et
Ġrepet ition
Ġpar ity
Ġacceler ated
inf o
ĠBro oks
èħ Ĳ
Ġtalk ed
ĠRos sum
ĠG E
æº ¯
ab ove
Ã ¨
i ors
ĠH T
ĠAutom ation
è¿ħ éĢŁ
a ph
ing ual
th ink
Ġmirr or
Ġ\ -
ĠD ocument
Ġgalax ies
ä¼ĺ éĽħ
Ġindic ators
ĠRe qu
ĠNumer ical
åĴĮ æĸĩåĮĸ
Ġcop ied
Ġbehav es
è½¬ ç§»
sc he
åģļ å¥½
or ov
Ġpost ed
Ġoccasion ally
ĠO h
Ġassess ed
ĠI M
è½ ¨
> =
cont rol
è®¤ çľŁ
rosso ver
ĠX u
åŃĺåĤ¨ åľ¨
Ġsav ings
Ġaccum ulated
_{ +
s ince
ĠCent re
Ġcontroll ers
Ġprem ise
Ġcur riculum
Ġm alf
ĠB C
ĠD id
æ¬ £
ç¨ĭåºıåĳĺ çļĦ
in spired
çĭ¬ç«ĭ çļĦ
Ð ¶
åı¯ä»¥ çĽ´æİ¥
Ġtremend ous
éĢĤ çĶ¨
Ġsp am
Ġpre f
ĠI F
Ġmor ning
Ġ å°±
b c
ĠT ele
ĠEd itor
Ġac id
ĠDepend ing
s en
ĠE CM
ab ric
Qu ery
be fore
ĠMark et
uck er
Ġthrow n
Ġtermin ate
}} }}}
Ġconver ts
Ġpractition ers
Ġn ction
F l
ĠAck nowledgements
éľĢè¦ģ ä½¿çĶ¨
gener ation
Ġeth ically
ĠF aster
an h
æ §
t ures
Ġg all
Ġencoura ged
R edu
Ġm ort
im ental
ĠV C
p in
ĠL inked
w ing
it ively
æĹłè®º æĺ¯
h idden
Ð° Ñģ
Ġst o
pl ots
ç¾İ å¥½
T raining
}$ ),
pt ic
con fig
Ġanalyst s
Ġc er
Ġd imin
Ġvalu ed
æıĲ åĪ°çļĦ
ĠAr ch
g rid
Ġrender ing
ĠGovern ments
ĠEx isting
ç¬¬ä¸ī æĸ¹
ustr ation
Ġsect ors
) *]{}
Ġad mit
Ġpe er
åĸľæ¬¢ çļĦ
ĠT otal
ĠR ate
ÑĢ Ñĥ
Ġweakness es
om a
Ġgreen house
qu ery
ĠUn supervised
å¤§ æķ°æį®
Ġinf initely
ĠLSTM s
E l
Ġpro pri
æĽ´ æį¢
am ond
Ġ* )
ĠFor d
15 2
b ecause
Ġconstit utes
ĠH igher
çĶµ è¯Ŀ
Ġenc oders
ent er
ä¸ ģ
ĠP areto
ä¸Ģä¸ª ç®ĢåįķçļĦ
æĺ¯ æĪĳä»¬
var rho
ĠChrist ian
ĠE valu
ĠI ss
}} $\
Ġexam ining
et o
Ġre writing
ow ski
Ġdec ides
f us
Ġt urb
an es
åıĳçĶŁ äºĨ
tt p
D isc
ĠRes ource
Y our
ĠH inton
ĠK im
Ġmulti plicative
å¼º çļĦ
Ġ æľ¬ä¹¦
Ġdri ves
ĠInd ividual
Ġstrugg ling
ĠL oc
æ¼Ķ è®²
ä¼ Ļ
ah oo
h ab
çĪ¶ ç±»çļĦ
ĠEm ploy
int elligent
Ġdistingu ishing
Ġtra il
Ġgram matical
Ġcl othing
Ġjud ges
ĠGovern ment
Ġdra ft
ĠTra ditional
Ġentertain ment
Ġwel come
ä¸ĭ ä¸Ģ
Un it
æĪĸ åħ¶ä»ĸ
èľ ľ
Ġ éļıçĿĢ
Ġsl ices
ĠM ut
Ġreg ards
Ġt issue
e lement
ĠE C
cl ipse
ä¸ĵä¸ļ çļĦ
çļĦ æķ°éĩı
ĠF re
ĠCol lection
k ind
ĠC OCO
y es
² Į
)$ ;
ç²¾ åĬĽ
Ġcorpor ate
éĢ ĥ
Ġå°ı æĺİ
IF T
ä» °
O OP
Ġv iable
Ġpl acing
ĠComp any
Ġsp anning
å½ĵ ä¸Ń
Ġcentral ized
Ph ys
åĬ¨ åĬĽ
Ġpan els
ect ing
ĠP SNR
Ġdem oc
Ġw oman
Ġsh ot
Ġ è°ĥçĶ¨
ĠDisc rimin
. [@
m ask
ĠP O
des c
æĿ¥ è§£åĨ³
å¦ Ĩ
ĠPro blems
èĽĭçĻ½ è´¨
Ġubiqu itous
af ety
v ially
Ġbe ar
Ð¸ Ñģ
Ex per
d as
åĲĮæł· çļĦ
Ġdispar ity
+ ]
Ġarchitect ural
In it
ç½ĳ ä¸Ĭ
åľ¨ ç¼ĸè¯ĳ
\] \[
éĻ¤ éĿŀ
}^{ [
Ġk it
è®¡ç®Ĺæľº ç§ĳåŃ¦
åı¯ä»¥ ä»İ
Ġrevolution ize
æĬ ±
å°º å¯¸
Ġselect ive
C all
åŃ¦ä¹ł çļĦ
å°± è¦ģ
Ġneed ing
Ġcategor ization
äº§çĶŁ äºĨ
ĠPrel imin
alu es
è¾¹ çļĦ
æľī çĶ¨
Ġaccept ing
Ġ åģĩè®¾
cl ar
it ious
çĪ¬ èĻ«
Ġ è®¡ç®Ĺ
Ġa ircraft
ro us
Ġwhe el
Ġenc ryption
Ġtell ing
ĠPar ameters
ĠLike wise
ä¸ĭ åİ»
ĠCon struct
åħ¬ åĽŃ
åİĭ ç¼©
ç§¯ ç´¯
Ġexplo itation
Ġmis match
Ġj oy
å®ŀ æĪĺ
Ġ å±ŀæĢ§
Ġtreat s
Ġt un
02 6
E xt
let ter
Ġcompr ising
éĩį çĶ¨
ex as
Ġab brev
ML P
M ind
çķª èĮĦ
p ay
P romise
Ġto ugh
Ġassert ion
ĠEth ical
Ġsynchron ous
ĠType Script
Ġfra gments
æ³Ħ æ¼ı
è¿ ¹
æĬ «
Ġconsist ed
æĭ į
ä½ľä¸º ä¸Ģä¸ª
Ġspat io
Ġmal ware
ç»ĦæĪĲ çļĦ
Ġm m
æĪĲåĬŁ çļĦ
- )
oph y
' ;
Ġdis j
Ġhe aring
AS E
Ġhighlight ing
Î »
åĪĨ åī²
Ġdist ract
å·¥ ä¸ļ
æĹ© æľŁ
mer ce
M achine
[ {
port s
åĲ¬ èµ·æĿ¥
æģ ĭ
ä¼ĳ æģ¯
> ]{}]{}
ĠD M
c over
group s
t im
å¥ ĭ
ĠG ree
AS cript
Ġuseful ness
N orm
ĠP P
Go è¯Ńè¨Ģ
çļĦ ç®Ĺæ³ķ
è¢ ĭ
n or
ĠHealth care
ĠB etter
Ġoptim izes
Ġstandard ized
gment ed
å¦Ĥä¸ĭ æīĢç¤º
Ġc s
ä½Ĩæĺ¯ åľ¨
A UC
ĠN S
Ġim mers
çłĶ åıĳ
Ġ@ ]
æĶ¶ çĽĬ
p x
Ġr idge
æĮ ĸ
ä¸º ä¾ĭ
Ġ æĪĳä»¬åı¯ä»¥
Ġneg lect
Ġconf using
Ġcent uries
Ġparent heses
è¦ģ ä¹Ī
æĿ¥ å®ĮæĪĲ
Ġb ind
å¼ķ åĬĽ
spec ified
10 9
æĪĲ çĨŁ
ĠOr ig
v ariance
Ġfac ility
ĠM PI
Ġend ed
Ġhosp ital
e ach
v arying
Ġcont est
éĥ ģ
s ive
Ġinterpre ting
go al
ĠCh urch
ä¹ĭ ä¸Ń
virt ual
M o
Ġn ation
Ġcon gest
Ġfl avor
Ġa est
ĠE LM
sem antic
Ġch rom
network s
[ (
å·¥ä½ľ ä¸Ń
resh old
å¤± åİ»
: /
Ġang ular
' |
Ġdecl ine
éº» çĥ¦
Ġrect ang
rast ically
Ġbreat h
Li u
ä¸º ç©º
æ¸ łéģĵ
Ġre actions
des ign
Ġ å®ŀéªĮ
Ġapproxim ates
éļĲ ç§ģ
æŃ» éĶģ
ä½Ĩ å®ĥ
ç¦» å¼Ģ
çĥ¤ ç®±
é¢Ŀå¤ĸ çļĦ
å® Ĺ
åŁº åĽł
Ġâ Ĩ
ĠL ess
= {
NI X
Ġsp ur
Ġtermin ates
Ġapp ar
Ġc e
Ġmicro sc
Pro b
æıĲ éĨĴ
ĠSur vey
Ġed itors
Ġg ir
Ġdisapp ear
ĠSt atic
å§ Ĩ
éķ¿ æĹ¶éĹ´
Ġfar ming
trans fer
process ed
Ġdecent ralized
Ġinf e
ĠE P
Ġbeg un
Ġs ight
è¿Ļæĺ¯ åĽłä¸º
è¾ħ åĬ©
ĠFranc isco
ä¸´ æĹ¶
ĠSet up
}} )}
ĠD iv
Ġnot ably
al one
press ions
è¿ĶåĽŀ çļĦ
b d
Ġun manned
Ġhom es
Ġphe not
ĠSem i
å®ļ åĪ¶
D i
L abel
ĠE fficient
te in
Ġde em
, [
ĠG al
ĠYou Tube
Ġsl iding
F I
and a
Ġâī ¤
è¯¥ æĸ¹æ³ķ
Ġw isdom
Ġ[ |
Ġmet al
13 5
ä¸ĢèĪ¬ æĿ¥è¯´
) *,
Ġleg acy
Ġd rastically
}{ $\
æĬ ĵ
ĠSu pervised
Ġ ÑĢ
red it
Ġdivid ing
g on
å¯ ¿
åŃĹç¬¦ä¸² çļĦ
m ade
ul o
^* (\
Ġ åħ¶å®ŀ
å®¶ éķ¿
ĠPl atform
Ġfound ed
z ens
E ven
N C
{ }{
åĴĮ æľįåĬ¡
Ġdiscrimin ant
ent h
ĠP ool
rang ian
Ġåľ¨ è¿Ļä¸ª
Ġnerv ous
éĵ¶ è¡Į
ĠMa ximum
Ġcomp an
è¡¥ åħħ
n m
Ġ> =
èıľ åĵģ
\!\! \!\!
k im
Ġfe at
Ġco ast
æŃ£ å¼ı
Ġliter ally
ĠB on
he m
ĠB rian
Ġh ide
ĠT ab
Ġin adequ
pos ing
V er
ĠT O
çĶ¨æĪ· è¾ĵåħ¥
Ġminim ax
Ġexperiment ation
on i
éĿŀå¸¸ éĩįè¦ģçļĦ
ĠEd it
çļ® èĤ¤
geq slant
Ġreject ed
part y
Ġnarr ative
æĪĲåĳĺ åĩ½æķ°
å»¶ è¿Ł
ç§į ç±»
el and
è¿ĺ èĥ½
Ġimbal anced
ĠV alid
sib ility
ĠL ooking
çĽĳ æİ§
}\ {
on line
ä¸Ģ é¡¹
}) ^{-
Ġro oms
su le
Ġtang ent
N on
Ġun related
æĪĳ è§īå¾Ĺ
Ġconduct ing
Ġsp ring
æĵįä½ľ æķ°
v oc
og a
Ġapp end
Ġview ing
Ġb ra
redu ce
Ġtra ding
Ġinform al
æ·»åĬł åĪ°
T B
mod ule
Ġcha otic
l m
mat ure
æľĢ ä¼ĺ
è´¨ éĩıçļĦ
åıª ä¼ļ
æ£® æŀĹ
Ġin accurate
Ġowners hip
Ġinject ion
H y
d at
b ayesian
G en
ĠCl ick
} ).$
ĠT H
Ġme ets
Ġsurve ys
gment ation
Ġhabit at
C al
Ġspecific ity
W ord
de vel
Java çļĦ
A X
çļĦ å±ŀæĢ§
Ġad ults
s a
L et
Ġskill ed
$ {
Ġcoo perative
Ġfac ulty
ĠT al
14 0
trans form
V ector
çļĦ æĥħæĦŁ
åĴĮ åıĳå±ķ
clus ter
éĢĲ æŃ¥
ĠJ un
vert ed
\| _\
R G
ĠA B
æħ §
åĲ¸ æĶ¶
ĠB jarne
g in
on ically
Ġdedu ce
Ġ\ >
ĠW ould
åı¯è§Ĩ åĮĸ
Ġex cluded
Ġal pha
ĠB ur
æĴ° åĨĻ
d on
Ġsu gar
è¯į æ±ĩ
ĠStud ent
}) }$
ĠS er
å¤§ æ°Ķ
l ook
in ations
Ġphys ic
Ġf idelity
Ġv ocal
Ġcompil ing
Ġphot ograph
æıĲ åīį
Ġmathemat ically
è°ĥ åĳ³
æ°´ åĪĨ
ĠAutom ated
Ġf irms
æ¸© æļĸ
Ġcut s
Ġar row
Ġwork shops
Ġb aby
Ġeconom ists
XX X
d an
ĠS eries
Ġnovel ty
Ġtrans mitted
pus h
Ġposit ively
Ġbi od
Ġunemploy ment
ak ed
íķ ĺ
$ =
ab stract
ag g
"} ),
d p
æĺ¯ ä½¿çĶ¨
c pp
Ġint ens
Ġe ating
Ġlong est
æľ¯ è¯Ń
ĠÐ µ
T K
Ġpartition ed
Ġp rag
Ġb und
å® «
ĠO ld
ugh t
Ġpers u
æĽ´ é«ĺçļĦ
ak a
ĠW ater
Ġbuck et
ç ŀ
spe ed
Ġelimin ating
ĠP arent
Ġdev ised
Ġsp ots
oo f
èį £
ĠCont ent
Ġassess ments
ĠS ta
Ġpres ervation
Ġexec utive
ba um
â ī
Ġnut ri
Ġmark er
æ°Ķ ä½ĵ
ĠT ogether
ĠR ose
Ġcl ip
Ġ æĺ¯ä¸Ģä¸ª
Ġar rows
Ġ ä»Ģä¹Īæĺ¯
ĠM it
ĠC ook
çľĭ æ³ķ
Ġspat ially
ĠW i
Ġent ering
ç»Ļ äºĪ
Ġrest oration
in der
am i
Ġpropag ate
V ari
Ġsurpr ised
Ġlect ure
ä»£ ä»·
Ġuns igned
n als
å±Ĥ çļĦ
Ġgl ue
åľ° ä½į
éĶĢ æ¯ģ
Ġm o
åĪĨ éļĶ
ç¨³ å®ļçļĦ
\] ]{}
ĠA rab
Ġpiece wise
N ext
disc rimin
Ġreal m
ĠCustom er
èĬĤ å¥ı
Ġsatisf actory
Ġinsp ire
he nd
Ġ\ }$.
cho ose
Ġex clusively
th inking
ç®¡ éģĵ
Ġaud itory
N s
Ġdis s
å¿ĥ æĢģ
ĠCent ral
A Y
k rizhevsky
ĠStud ents
um a
ul ly
ĠF ore
è¿Ļ ä¹Ł
Ġsuperior ity
ĠEm pirical
Ġcarry ing
è¯Ĺ æŃĮ
Ġfirst ly
æ¡ ¥
bu ilding
å¸®åĬ© ä½ł
x e
Ġc ere
ĠPersonal ized
Ġc m
Ġp unct
Ġwh om
è¾ĥ é«ĺ
Ġtra ditionally
me as
Ġcampaign s
çŃī ä»·
pro v
åģļ ä»Ģä¹Ī
åĨħåŃĺ çļĦ
æ£ ĭ
Ġ ram
it ably
Ġcomp romise
Ġmanip ulating
Ġthresh olding
çĶŁæĪĲ çļĦ
hy per
Ġdisadvan tage
Ġoverwhel ming
Ð°Ð½ Ð¸
eck er
S AT
com bin
éĿ¢åĲĳå¯¹è±¡ ç¼ĸç¨ĭ
Ġrec ycl
æ¼ı æ´ŀ
Ġc ited
Ġyield ed
ud ed
ĠSh are
çļĦ ç¼ĸç¨ĭ
Ġhe ll
éĽ ª
æī« æıı
ĠR isk
ĠOur s
æľĢ åĪĿ
Ġtr icks
å·§åħĭ åĬĽ
åĴĮ ä¸Ģä¸ª
}} +\
è°ĥ èĬĤ
Ġsynthes ize
ĠOr der
Ġbr ute
Ġart ist
ð Ŀ
re nce
Ġc od
å¾Ī éĩįè¦ģ
Ġte lev
Ġgalax y
_ [
13 0
æĪĲ æŀľ
Ġneoc ortex
b v
ĠAfric a
Ġresemb les
è¿Ļä¸ª æĸ¹æ³ķ
ĠCon tact
åĲİ æĿ¥
., ?
Pro gram
ĠVari ational
sign ific
æ¶µ çĽĸ
e z
ĠF ire
}) -\
Ġassess ing
ĠO K
ular ly
D ataset
çİ° æľī
im inal
Ġst ating
ä¹Ł è¦ģ
Ġaltern ate
ĠProv ide
Ġg amma
æĪĲä¸º ä¸Ģä¸ª
ĠMAT LAB
Ġ, $
Ġun bounded
col l
ĠBen ch
Ġhop es
æĺ¯ çĶ¨
}\ }_{
Ġgain ing
Ġfill ing
M ac
Ġb are
h oc
nice frac
ĠL asso
over l
ĠNon etheless
ut ton
ĠJacob ian
Ġpl anned
å¹¶ å°Ĩåħ¶
èĭ ı
Ġcyber security
ĠD ar
approxim ation
ot onic
åĪ© äºİ
Ġvulner abilities
Ġ($ (
{ }\
Ġint ric
ĠEng land
T V
Ġobs c
d irect
{ |\
æĺ¯ åı¯ä»¥
=\ !
ĠF ocus
Ġrepl aces
Ġ1 30
ĠF actor
æ¶Ī éĻ¤
L ab
å§ »
Ġconsum e
ĠDist ribution
\ ^[
æľī ä¸¤ç§į
\| {\
ph ase
is sible
I E
w s
Ġpos ed
V al
if then
çĶŁæĪĲ åĻ¨
am ir
ĠT exas
ne arest
aus al
å¿ħé¡» è¦ģ
åľ¨ æī§è¡Į
åĬł éĢŁ
ĠJ oe
Ġm ild
åľ¨ åĩ½æķ°
In tern
Ġwar rior
T s
ĠÐ °
åĪĽå»º çļĦ
ĠF CN
certaint ies
ç¼º éĻ·
Ġsudden ly
æĹ¨ åľ¨
v o
Ġpath ways
n b
Ġw ine
Ġsto pped
Ġag reed
^* }
' ,\
è¿ľ ç¨ĭ
ĠFort un
Ġprob able
Ġopen ed
çŁ¥è¯Ĩ åĴĮ
Ġinvent ory
å·² çŁ¥
}\ ;
}) ]
Ġ19 89
åĨĻ ä»£çłģ
op hers
Ġformal ism
P os
] );
l an
èĥ½ åĲ¦
}= (
Ġt ed
ĠI V
Ġcl ustered
def ault
æİ§ ä»¶
EN CE
ht ml
Ġaff inity
ifthen else
Ġinstit ution
Ġmembr ane
ĠCon ditional
Ġpus hed
ĠM ex
sh ared
Ġprom ises
ĠAv oid
Ġincorrect ly
Ġir is
ĠN ER
b es
ĠO l
Ġvis ibility
g c
ä¹Ł æ²¡æľī
D own
} /\
å©ļ å§»
ĠGe org
ĠB O
Ġparticip ating
P erson
Ġneg atives
Ġint uitively
Ġdiscover ing
Ġd elta
ĠCl os
é¡¹çĽ® ä¸Ń
Ġfun ctor
Ġcol on
Ġown er
éĿ¢ åĮħ
æĸ° æīĭ
Ġ )\
Ġcon cluded
å½ »
æĽ´ å¤§çļĦ
Ġad versar
æľĢ å¤ļ
ĠP ur
09 6
ä½ľä¸º åıĤæķ°
Ġcheck ers
Ġpass ive
)+ (
Ġminor ity
pr ising
ä¸» æµģ
Ġident ifiers
ĠS G
ĠE ither
ĠJ ose
ä¸įä¼ļ è¢«
ĠC are
åĮºåĿĹ éĵ¾
K S
çļĦ éĶĻè¯¯
Ġax es
or se
è´ ·
Ġachie vable
çĽ´ è§Ĥ
Ġcr is
Ġadapt ively
IC CV
èģĮ ä½į
è Ŀ
er ting
è¯ Ĭ
Ġs ad
res ol
ĠH ans
Ġsus cept
A v
Ġminib atch
N G
Ġ( .
ĠProt ocol
åĵ ¥
æīĭ å·¥
ĠMuse um
ĠW ave
Ġco al
æłĩ é¢ĺ
Ġtele phone
Ġcalcul ates
Ġc art
Ġâ ĳ
å² Ľ
Ã µ
Ġlight weight
Ġnan otechnology
ot a
rel ax
her ical
ac cept
Ġtrans cription
æĤ¨ éľĢè¦ģ
è¿Ļ æ¬¡
åĶ ¤
å² Ĺ
ĠExpl ain
ĠCom ponent
éĴ ¢
Ġreferen ced
Ġd y
Ġartificial ly
çĻ½ èī²
ĠReason ing
P at
Ġth r
èµĦæºĲ çļĦ
Ġarrang ed
p icture
ĠCom plex
Ġformul ations
å°Ĩ è¢«
Ch ar
å®ŀ æĹ¶
åĪĨæŀĲ åĴĮ
Ġindex es
m en
ĠA W
linear ity
ĠC SP
ä¾ µ
Ġnon parametric
Ġaim ing
ĠS erver
Ġno ises
Per l
åĳ½ä»¤ è¡Į
ĠM AR
ĠM M
f ar
ĠS OM
bu ild
èĤĮ èĤī
ĠF air
ĠJ DK
| }\
Ġdifferent iation
F OR
ol is
Ġdi et
Ġsup plied
app y
inter pre
) }_{\
b z
Ġ è§£éĩĬ
t od
oid s
ĠS IG
Ġgard en
k n
åı¯ä»¥ æıĲé«ĺ
avail able
g d
Ġper man
çŃī æĸ¹å¼ı
Ġsw im
ĠJ avascript
it tle
|\ ,
Ġquant ized
yp ical
z es
ri k
Ġnormal ize
æĳ ©
ĠBas ically
es ome
Ġ| {\
12 9
cess or
ä¼ļ å¯¹
åĽ¾ ä¹¦
ik i
Ġquant ified
oot hed
Ġmeas urable
Ġansw ered
åı¯èĥ½ å¯¼èĩ´
Q U
Ġrel ating
èĮĥåĽ´ åĨħ
Ġ ic
ĠC r
Ġcap ac
èĭ¥ å¹²
F alse
çļĦ æĶ¯æĮģ
Ġç¬¬ ä¸ī
æĪĲ ç«ĭ
éĻ¤ æŃ¤
Ġtw enty
Ġfif th
Ġcontinu ing
Ġne uromorphic
Ġor ange
ĠIndust rial
Ġ ç®Ĺæ³ķ
12 7
ĠL IN
ad ays
åĴĮ ç¤¾ä¼ļ
L a
ĠS ear
æŃ£ å¦Ĥ
Hash Map
Ġmob ility
åıĳ åĩº
H D
Ġlight s
ĠL os
Ġmach inery
Ġadjust ment
ĠCPU s
im ov
çļĦ çĲĨè§£
con volution
å Ĥ
ĠK o
èµĦ éĩĳ
Ġappar atus
us ually
æľī è®¸å¤ļ
ãģ «
ĠCl imate
Ġannot ators
Ġ~ \
åĳ½åĲį ç©ºéĹ´
æģĴ æĺŁ
ĠLI SP
w a
Ġconjug ate
Ġgenu ine
Ġb oy
ä¸º ä¸»
Ġsit ting
Ġsens ible
çĽ ¾
omet rics
Ġexpl or
Ġrepe ating
y a
ĠP ix
Ġachieve ment
èĵĿ èī²
Ġnom inal
Ġclar ify
ub s
Ġl ens
Ġdat es
æİĴ æĶ¾
èį ·
ST A
Ġadvance ment
ĠPhys ics
å°± ä¸ļ
sh ow
Ġlack s
Ġleg it
çļĦ äº§åĵģ
Ġ1 40
ant ed
Ġind oor
è¿Ļ ç±»
Ġpredict able
Ġphonem e
| $.
rac y
Ġstri ke
Ġhot el
å½¢ åıĤ
Ġc ortical
erv able
çļĦ å¤ĦçĲĨ
ĠNU LL
ĠCorpor ation
Ġs ought
be it
çī©çĲĨ åŃ¦
obs erved
Ġm ature
ĠG PS
ĠCh ild
Ġgather ing
Ġdetect s
æĻº æħ§
' -
åĬł éĶģ
AS CAL
Ġunf air
c ifar
Ġg aze
ĠI SO
Ġart ic
Ġas c
ĠBu ild
Ġ åĪ°
he tical
li est
crib e
Ġric her
è¡¨ æ¼Ķ
Ġtri ples
im ated
Ġs now
ĠHe y
omed ical
ĠZ hou
åı¦ä¸Ģ æĸ¹éĿ¢
Ġc a
Ġmin ute
W L
Ġshif ting
ĠC B
]{} &
å¤§ çº¦
` )
}=\ {
Ġus eless
åĪĨåĪ« æĺ¯
B ook
ac lass
ĠV eh
å°Ĩ åľ¨
çı ł
Ġsh ar
alth ough
ĠSu ccess
å·²ç»ı è¢«
ov y
åıĺ ä¸º
å¤© çļĦ
Ġfall ing
æĭĵ å±ķ
at io
Ġbl ocking
åĽ¾ ä¸Ń
Ġexplain able
Ġmask ed
si p
)\ |^
åĮ Ļ
Ġagricult ural
que ue
åĿ ¦
Ġlogarith m
un ov
Ġtri vially
Ġdiscret ization
ĠAI s
äººä»¬ çļĦ
é¡¶ çĤ¹
èĸ Ħ
Ġperce ive
Ġcomp rom
Ġte aches
bas ic
çĩ ¥
at omic
GAN s
æķ ¢
X ML
Ġmut ations
çīĪæľ¬ çļĦ
}}$ -
ãģ Ħ
Ġtight ly
æĺ¯ å¾Ī
å¯¹ é½Ĳ
Ġdisadvan tages
ĠM ad
Ġplace ment
ä¸į å¿ħ
U ser
en a
Ġco in
Ġtrig gered
su ccess
ĠWork ing
ĠPy Torch
Ġinv ocation
cont inu
Ġp it
Ġmalf unction
Ġcongest ion
il ation
ĠElect ronic
r ality
çļĦæķ°æį® ç±»åŀĭ
æ· ¡
m ind
Ġsched ules
ĠLag rangian
çŃ Ľ
)\ }$
ferent ial
ĠVari ous
ĠSequ ence
Ġcollect or
gra duate
çļĦ æķĪæŀľ
ĠB ottom
æ° ı
Ġnever theless
åĮĸ åĴĮ
æķ°ç»Ħ ä¸Ń
ç¬Ķ è®°
Ġtarget ing
æŀĦéĢł æĸ¹æ³ķ
åĨħéĥ¨ çļĦ
Ġc ue
Ġcont raction
G rad
ĠH en
ä½ł åºĶè¯¥
Ġfound ations
Ġnecess ity
Ġroun ding
åħĪ è¿Ľ
Ġf olds
Ġfunction ing
åį° è±¡
ĠC AS
( .)
Ġpaint ing
ĠD own
Ġaver ages
ac s
æĦŁ åĴĮ
Ġpriv ile
é¢Ħ å¤ĦçĲĨ
Ġinher ited
L in
om ent
ma xim
åĵª ç§į
ĠPa per
V e
ĠAfric an
v id
Ġma is
ĠU ML
row ing
éĩĩçĶ¨ äºĨ
d B
Ex ec
Ġcons ent
ele bA
åĩº åıĳ
è´¨éĩı åĴĮ
åı¯ä»¥ çľĭåĪ°
Ġdevelop s
çĵ ľ
æ¢¦ æĥ³
åĴĮ è°
äºº æīį
å©´ åĦ¿
åı¯ä»¥ ä¸º
ĠM atching
ĠE le
ç§¯æŀģ çļĦ
æĦıè¯Ĩ åĪ°
Ġsearc hed
Ġpre y
in du
Ġar ising
sk ip
Ġun des
Ġsoci etal
ĠC arl
Ġr ising
è½» éĩı
çĶŁ ç´ł
æĢ§ æł¼
w alk
} '$
Ġlif estyle
Ġwonder ful
Ġrev ised
c i
ĠÎ ±
Ð ¹
Ġgener ics
ç«ł èĬĤ
chang ing
ç³ Ł
3 60
ĠM ah
Ãµ es
w est
Ġem ulate
ĠH ierarchical
Ð¸Ð ²
D is
app endix
Ġref actoring
Ġreject ion
å°ĳ çļĦ
æ¸¸ æ³³
Ġdownload ed
g ue
Ġ _{\
Ġmis le
ons ense
å§ ĵ
]( ).
èģ ª
ãĤ Ĵ
D NA
å¥ ĳ
Ġsimpl ifies
Ġp un
ĠNe umann
Ġli qu
Ġlink age
ç»ĺ åĪ¶
Ġindistinguish able
Ġd x
Ġpost er
å±ķç¤º äºĨ
Ġhistogram s
Ġ ä¸ĭ
Ġ$ -$
å®¶ äºº
æ¸ħ æ´Ĺ
ĠB R
å¦ Ī
Ġbip artite
Ġcl ips
pon ential
Ġentrepre neur
H L
ĠB ru
Ġthrough put
M icrosoft
\ },\
Ġ è¿ĶåĽŀ
17 0
f unctions
ov sky
åĽ½ åĨħ
ĠPro c
ol ang
å±Ĥ éĿ¢
Ġsubclass es
Ġb ond
Ġe gg
03 7
s ig
æķ° ä¸º
çº¦ å®ļ
çĨ Ĭ
: $\
éĥ½ åºĶè¯¥
Ġcar ries
Ġcomposition al
äººéĻħ åħ³ç³»
as ym
! ).
ĠRe volution
Ġ è¿Ľè¡Į
od s
æĿ °
éľĢè¦ģ è¿Ľè¡Į
Ġunint ended
Ġche aper
Ġdiscover ies
ĠH all
æ¯ķ ä¸ļ
pro fit
ĠExper t
F ree
æĿ¥ å¤ĦçĲĨ
Pr int
ĠP ars
å£ ģ
åıĳå±ķ çļĦ
cent ric
R em
Java è¯Ńè¨Ģ
Ġhapp iness
Ġinfe asible
ĠEth ics
Ġanaly tically
Ġtelev ision
åĲİ ç«¯
03 2
M ult
ĠH ong
ä¸į åı¯èĥ½
Ġbroad cast
ĠGen etic
Ġf ounder
Ġemphas izes
Ġspirit ual
ins ert
åħ¶ä»ĸ çº¿ç¨ĭ
Ġemb race
ĠFortun ately
Ġ æĪĸèĢħ
Ġunpredict able
od ings
ä»¥ ä¸ĬçļĦ
æĪĸ å¤ļä¸ª
Ġorgan izing
ãģ §
å¹´ æĿ¥
è·¯ çº¿
ĠB engio
Ġ\[ ,
Ġf ro
Ġtool kit
è¿ĻéĩĮ çļĦ
en v
Ġsm ell
ĠHam ming
ĠP it
åĴĮ æĶ¯æĮģ
Ġlog ging
Ġar ts
Ġlever ages
Ġl apt
åı¯èĥ½ æĢ§
Ġb ilinear
åĴĮ è¡Įä¸º
Ġacc umul
Ġoptim istic
éĢļå¸¸ ä¼ļ
ĠImp act
Ġreview ers
Ġsp ans
åģ¥åº· çļĦ
Ġte a
æĤ ¦
ĠÎ »
G O
Ġdi ameter
pos sibly
åı¯èĥ½ä¼ļ å¯¼èĩ´
f ail
Ġ ç¼ĸç¨ĭ
G ood
V ER
Ġcor ners
ky o
Ġinvari ants
z i
ios ity
L DA
ordin ate
on ing
Ġinter change
çĤ ¸
ling ual
çĶµ æ±ł
/ {\
ant ics
å§Ķ æīĺ
é¢ Ī
Ġrel ief
Ġbin ar
if ting
Ġcontract s
åĤ¨ åŃĺ
Equ ation
ve ct
ari a
Ġgu ides
. *]{},
Ġpe aks
Ġsmart phone
äº ¡
z hao
æīĭ åĨĮ
B ayesian
æł ı
è¿ĻäºĽ éĹ®é¢ĺ
ĠC ell
ç® Ń
Ġcris is
u ed
Ġexperi encing
å±ħ æ°ĳ
ĠUs ers
: [
oc ular
ĠSt ream
Ġutil ization
\} .$
ĠD ate
__ (
pres erving
ĠIt alian
Ġ æ¯ıä¸ª
12 6
Ġjud gments
Ġre ply
ian o
æĻ¯ çĤ¹
cy cle
X Y
ĠSV HN
C re
Ġsub optimal
C è¯Ńè¨ĢçļĦ
Ð¾ ÑģÑĤ
02 1
Ġsh aped
F E
Ġsimple x
U SS
ĠAss istant
Ġf used
ĠCon tr
åĪĻ ä¼ļ
Bu ilder
Ġs an
ab b
ĠCre ating
Ġbreakthrough s
ak i
ĠDist ance
char acter
Ġdebugg er
Ġa kin
ãģ ¯
Ġm asters
å®ĮæĪĲ äºĨ
Ġautonom ously
ĠInitial ize
èĢĥ è¯ķ
æĹ¢ çĦ¶
re ferences
Ġun certainties
h om
pos al
Ġunderstand able
Ġ ](
ber ger
ĠPh il
Ġter med
åħ¬ ä¼Ĺ
aps ed
di vergence
Ġh ole
Ġsur round
> )
ĠSub ject
fra id
impro ved
æĺ¾ èĳĹ
Ġä¸ĬéĿ¢ ä»£çłģä¸Ń
çļĦ çī¹æĢ§
Ġdistrib ute
æº¢ åĩº
åİŁ çĶŁ
é»ĳ èī²
b ad
æĪĳ ä¹Ł
ap i
Ġmultip lying
Ġparticip ation
Ġdeleg ate
Ġod ds
i ates
)= (
T N
ĠO ption
åĮº éĹ´
C ON
Ġev al
ov es
Ġsimpl ification
ris k
Ġno body
Ġdele ted
è¿Ľç¨ĭ çļĦ
r ically
ĠL em
æĹ¶ ä¼ļ
Ġdual ity
P a
ex ception
ĠN orm
æ» ļ
{- }
å¤ ¹
int eger
æĪĲ äºĨ
æĿ¥çľĭ çľĭ
Ġrec re
Ġviol ation
ä¼ĺ æĥł
èº« ä»½
ijk stra
Ġ æ¸¸æĪı
ä½ł è¦ģ
Ġredu ctions
æŃ ¦
ĠCon vergence
Ġneg ation
Ġtransf erring
Ġatt ended
}}} =
ĠM ining
ĠRel ations
K B
el a
ore gressive
)\ |_
ad ic
Ġintegr ates
Ġcont our
Ġregist ered
Ġmas king
ĠG R
N one
ĠM ars
ä¸į åľ¨
Ġmathemat icians
ĠInf o
Ġcycl ic
Ġc up
ĠW ide
ell a
Ġ åĩ½æķ°çļĦ
Ġfor b
Ġex pr
Ġsc atter
Ġto uc
ĠAg ent
Ġep ist
Ġconcent rate
b an
äºĨ è®¸å¤ļ
Ġè¿Ļ æĺ¯
Ġreach able
artes ian
Ġrele ases
Ġdelay ed
[ '
b orn
ĠB M
ĠGener ate
Ġb ilingual
ens en
aut omatic
fix ed
A NN
çļĦ ç©ºéĹ´
ĠSVM s
ĠImpro ved
Ġcl ique
Ġindic ation
ç¾İ å¥½çļĦ
Ġir regular
ĠAnn ual
ĠRes ult
14 7
æ¡Ī ä»¶
ĠA sia
Ġch ances
é£Ł çĶ¨
åĪĹè¡¨ ä¸Ń
ĠM iss
Ġ\| {\
Ġenumer ation
Art ificial
Ġ åŃĹç¬¦ä¸²
Ġrecogn izes
G l
12 4
åŃ£ èĬĤ
Ġinstr uments
èģĬ å¤©
]{} (
Ġ$ -\
ĠD art
çŁ Ľ
Ġsurg ery
æİĴåºı ç®Ĺæ³ķ
Ġlingu istics
ĠR C
ĠK B
ener gy
æ´¾çĶŁ ç±»
Ġz one
ĠH om
ke ys
rec all
af ood
Ġschedul ed
æ¹ ĸ
ĠB ir
Ġbi ologically
æµ®çĤ¹ æķ°
Ġam en
Ġblock chain
Ġc t
Ġo u
ys ical
Ġgl ad
Ġneg atively
Ġkey board
C an
Ġtem pt
ĠAD MM
çĲĨ çĶ±
ç²¾ åº¦
ĠArm y
) <
Ġcomple ting
è¯ ŀ
Ġill ness
Ġs ou
ĠL ink
åĬŀ åħ¬
ĠA part
ĠS ort
Ġlocal ized
åĩº ä¸Ģä¸ª
Ġhor se
Ġf an
Ġe co
l aw
ĠS MT
Ġdistinct ive
è¿Ļä¸ª è¿ĩç¨ĭ
Ġhand ful
Ġa fraid
Ġc rossover
AC T
ç±» åĬłè½½åĻ¨
éĩĳ å±ŀ
Ġsurrounding s
ĠQual ity
ut ch
ä¾¿ åĪ©
Ġse q
Ġel if
th ree
Ġperson ally
Ġaccess es
Me an
O riented
ĠF inal
ĠDevelop ing
è¯· è¾ĵåħ¥
Ġaccom p
ĠCO VID
