{"<pad>":0,"<unk>":1,"<system>":2,"<user>":3,"<assistant>":4,"</system>":5,"</user>":6,"</assistant>":7,"!":8,"\"":9,"#":10,"$":11,"%":12,"&":13,"'":14,"(":15,")":16,"*":17,"+":18,",":19,"-":20,".":21,"/":22,"0":23,"1":24,"2":25,"3":26,"4":27,"5":28,"6":29,"7":30,"8":31,"9":32,":":33,";":34,"<":35,"=":36,">":37,"?":38,"@":39,"A":40,"B":41,"C":42,"D":43,"E":44,"F":45,"G":46,"H":47,"I":48,"J":49,"K":50,"L":51,"M":52,"N":53,"O":54,"P":55,"Q":56,"R":57,"S":58,"T":59,"U":60,"V":61,"W":62,"X":63,"Y":64,"Z":65,"[":66,"\\":67,"]":68,"^":69,"_":70,"`":71,"a":72,"b":73,"c":74,"d":75,"e":76,"f":77,"g":78,"h":79,"i":80,"j":81,"k":82,"l":83,"m":84,"n":85,"o":86,"p":87,"q":88,"r":89,"s":90,"t":91,"u":92,"v":93,"w":94,"x":95,"y":96,"z":97,"{":98,"|":99,"}":100,"~":101,"¡":102,"¢":103,"£":104,"¤":105,"¥":106,"¦":107,"§":108,"¨":109,"©":110,"ª":111,"«":112,"¬":113,"®":114,"¯":115,"°":116,"±":117,"²":118,"³":119,"´":120,"µ":121,"¶":122,"·":123,"¸":124,"¹":125,"º":126,"»":127,"¼":128,"½":129,"¾":130,"¿":131,"À":132,"Á":133,"Â":134,"Ã":135,"Ä":136,"Å":137,"Æ":138,"Ç":139,"È":140,"É":141,"Ê":142,"Ë":143,"Ì":144,"Í":145,"Î":146,"Ï":147,"Ð":148,"Ñ":149,"Ò":150,"Ó":151,"Ô":152,"Õ":153,"Ö":154,"×":155,"Ø":156,"Ù":157,"Ú":158,"Û":159,"Ü":160,"Ý":161,"Þ":162,"ß":163,"à":164,"á":165,"â":166,"ã":167,"ä":168,"å":169,"æ":170,"ç":171,"è":172,"é":173,"ê":174,"ë":175,"ì":176,"í":177,"î":178,"ï":179,"ð":180,"ñ":181,"ò":182,"ó":183,"ô":184,"õ":185,"ö":186,"÷":187,"ø":188,"ù":189,"ú":190,"û":191,"ü":192,"ý":193,"þ":194,"ÿ":195,"Ā":196,"ā":197,"Ă":198,"ă":199,"Ą":200,"ą":201,"Ć":202,"ć":203,"Ĉ":204,"ĉ":205,"Ċ":206,"ċ":207,"Č":208,"č":209,"Ď":210,"ď":211,"Đ":212,"đ":213,"Ē":214,"ē":215,"Ĕ":216,"ĕ":217,"Ė":218,"ė":219,"Ę":220,"ę":221,"Ě":222,"ě":223,"Ĝ":224,"ĝ":225,"Ğ":226,"ğ":227,"Ġ":228,"ġ":229,"Ģ":230,"ģ":231,"Ĥ":232,"ĥ":233,"Ħ":234,"ħ":235,"Ĩ":236,"ĩ":237,"Ī":238,"ī":239,"Ĭ":240,"ĭ":241,"Į":242,"į":243,"İ":244,"ı":245,"Ĳ":246,"ĳ":247,"Ĵ":248,"ĵ":249,"Ķ":250,"ķ":251,"ĸ":252,"Ĺ":253,"ĺ":254,"Ļ":255,"ļ":256,"Ľ":257,"ľ":258,"Ŀ":259,"ŀ":260,"Ł":261,"ł":262,"Ń":263,"Ġt":264,"Ġa":265,"in":266,"he":267,"on":268,"re":269,"at":270,"Ġthe":271,"er":272,"Ġs":273,"or":274,"en":275,"Ġc":276,"Ġo":277,"al":278,"es":279,"is":280,"it":281,"Ġw":282,"ion":283,"Ġp":284,"an":285,"ing":286,"ed":287,"Ġf":288,"Ġan":289,"ar":290,"Ġin":291,"Ġb":292,"Ġof":293,"le":294,"Ġm":295,"Ġd":296,"ro":297,"ic":298,"Ġto":299,"Ġand":300,"ct":301,"ä¸":302,"as":303,"et":304,"Ġth":305,"Ġ\\":306,"ent":307,"Ġ$":308,"el":309,"Ġe":310,"us":311,"im":312,"Ġre":313,"Ġn":314,"ut":315,"om":316,"ation":317,"Ġis":318,"çļ":319,"çļĦ":320,"ig":321,"ra":322,"Ġl":323,"ĠT":324,"Ġh":325,"ch":326,"ou":327,"st":328,"ce":329,"il":330,"ve":331,"ot":332,"ly":333,"{\\":334,"ol":335,"Ġthat":336,"Ġfor":337,"od":338,"am":339,"Ġpro":340,"id":341,"ow":342,"Ġ(":343,"Ġg":344,"ĠI":345,"Ġbe":346,"un":347,"ith":348,"Ġon":349,"ä»":350,"ĠA":351,"ur":352,"if":353,"ver":354,"ul":355,"Ġcon":356,"ab":357,"Ġst":358,"åı":359,"ge":360,"um":361,"Ġas":362,"Ġal":363,"ĠS":364,"mat":365,"}}":366,"ĠThe":367,"ect":368,"Ġex":369,"Ġwith":370,"äº":371,"Ġwe":372,"se":373,"ï¼":374,"Ġcom":375,"_{":376,"Ġare":377,"Ġus":378,"ure":379,"Ġ$\\":380,"ĠC":381,"math":382,"Ġit":383,"è¿":384,"Ġde":385,"qu":386,"ate":387,"Ġ-":388,"ter":389,"Ġv":390,"æľ":391,"pl":392,"Ġ[":393,"ri":394,"ay":395,"ä½":396,"Ġcan":397,"æĺ":398,"Ġwh":399,"Ġ1":400,"ir":401,"ist":402,"ï¼Į":403,"åĪ":404,"ity":405,"igh":406,"pt":407,"ore":408,"åħ":409,"em":410,"å®":411,"ta":412,"per":413,"her":414,"Ġcomp":415,"ãĢ":416,"çĶ":417,"ĠW":418,"ad":419,"ction":420,"os":421,"ĠF":422,"ess":423,"Ġy":424,"Ġby":425,"ment":426,"Ġsu":427,"iz":428,"res":429,"ĠM":430,"ä¸Ģ":431,"20":432,"ac":433,"Ġle":434,"Ġim":435,"pp":436,"for":437,"ive":438,"ers":439,"æĺ¯":440,"Ġor":441,"iv":442,"è¯":443,"est":444,"Ġne":445,"age":446,"}$":447,"æĪ":448,"ĠP":449,"å¤":450,"åĲ":451,"ight":452,"Ġse":453,"åľ":454,"ere":455,"ial":456,"ĠIn":457,"ork":458,"ine":459,"Ġr":460,"ach":461,"rom":462,"Ġ=":463,"oc":464,"og":465,"ĠB":466,"Ġthis":467,"pe":468,"ple":469,"ant":470,"ç»":471,"ä¸ª":472,"ep":473,"th":474,"Ġyou":475,"and":476,"Ġmod":477,"ä¹":478,"ld":479,"ult":480,"ĠR":481,"end":482,"Ġdat":483,"æķ":484,"Ġfrom":485,"ãĢĤ":486,"ies":487,"form":488,"Ġ&":489,"Ġ\"":490,"Ġat":491,"ical":492,"æĸ":493,"ĠD":494,"nt":495,"ĠH":496,"ill":497,"Ġcl":498,"Ġint":499,"ke":500,"ĠL":501,"Ġha":502,"ass":503,"Ġnot":504,"ex":505,"ich":506,"Ġun":507,"çĶ¨":508,"^{":509,"ations":510,"å°":511,"ble":512,"åĴ":513,"ign":514,"ang":515,"è®":516,"Ġsh":517,"Ġ*":518,"Ġres":519,"Ġwhe":520,"åŃ":521,"åĬ":522,"åĴĮ":523,"ĠE":524,"ag":525,"ell":526,"art":527,"ĠN":528,"ition":529,"able":530,"åº":531,"åľ¨":532,"etw":533,"ph":534,"all":535,"ated":536,"Ġ[@":537,"Ġwhich":538,"arn":539,"Ġhave":540,"mathb":541,"'s":542,"Ġmodel":543,"ma":544,"201":545,"rain":546,"ens":547,"ds":548,"ram":549,"Ġch":550,"ä»¥":551,"ft":552,"Ġ0":553,"ĠTh":554,"ence":555,"Ġma":556,"ance":557,"]{":558,"ort":559,"red":560,"å¼":561,"cal":562,"Ġ2":563,"ĠG":564,"}\\":565,"Ġall":566,"æķ°":567,"è¡":568,"Ġad":569,"fere":570,"ther":571,"æľī":572,"Ġ\\[":573,"rac":574,"Ġdata":575,"åı¯":576,"cc":577,"op":578,"Ġhe":579,"ould":580,"åĩ":581,"å¯":582,"up":583,"ĠO":584,"ĥ½":585,"ud":586,"eth":587,"éĩ":588,"ack":589,"du":590,"è¿Ļ":591,"ff":592,"Ġper":593,"ome":594,"éĢ":595,"æĹ":596,"ru":597,"ions":598,"Ġob":599,"Ġfun":600,"ext":601,"ans":602,"ust":603,"(\\":604,"æī":605,"ĠWe":606,")$":607,"ä¸į":608,"ject":609,"int":610,"Ġlearn":611,"ä¼":612,"Ġsy":613,"ific":614,"ä¸Ń":615,"ener":616,"åĨ":617,"ost":618,"ç¨":619,"æĿ":620,"alu":621,").":622,"der":623,"Ġab":624,"ide":625,"cl":626,"out":627,"Ġapp":628,"Ġfe":629,"ual":630,"ç¨ĭ":631,"Ġfunction":632,"]{}":633,"Ġmore":634,"ari":635,"act":636,"vel":637,"gor":638,"ous":639,"Ġset":640,"ely":641,"Ġdif":642,"ime":643,"Ġen":644,"mathbf":645,"ä¸º":646,"Ġclass":647,"äºĨ":648,"Ġar":649,"Ġhas":650,"æ³":651,"Ġ3":652,"eg":653,"put":654,"è¦":655,"Ġme":656,"are":657,"ethod":658,"åĽ":659,"è¦ģ":660,"Ġk":661,"av":662,"æŀ":663,"ĠThis":664,"so":665,"ms":666,"Ġdo":667,"mb":668,"),":669,"æĢ":670,"Ġimp":671,"gram":672,"ber":673,"å¯¹":674,"æĪĳ":675,"è§":676,"èĢ":677,"ard":678,"Ġwill":679,"right":680,"Ġcont":681,"ame":682,"ase":683,"Ġuse":684,"ä¸Ģä¸ª":685,"rib":686,"ast":687,"Ġmethod":688,"ents":689,"æł":690,"ie":691,"etwork":692,"Ġev":693,"å¾":694,"å¹":695,"ature":696,"èĥ½":697,"Ġone":698,"Ġout":699,"gorith":700,"our":701,"ution":702,"Ġour":703,"éĹ":704,"ace":705,"Ġqu":706,"Ġgener":707,"stem":708,"mathcal":709,"Ġtrain":710,"ä»¬":711,"Ġtr":712,"Ġused":713,"ary":714,"å¸":715,"ors":716,"Ġ{":717,"¦Ĥ":718,"nd":719,"Ġsim":720,"Ġro":721,"gh":722,"Ġother":723,"tain":724,"Ġdiffere":725,"çİ":726,"Ġwork":727,"ces":728,"Ġrec":729,"$,":730,"ose":731,"Ġeach":732,"Ġcomput":733,"åĮ":734,"æĹ¶":735,"sum":736,"è¡Į":737,"ict":738,"ode":739,"Ġwas":740,"ç§":741,"}_":742,"ding":743,"Ġwhere":744,"Ġsp":745,"].":746,"åı¯ä»¥":747,"Ġj":748,"pres":749,"frac":750,"Ġbut":751,"ased":752,"ĠJ":753,"}{":754,"left":755,"ech":756,"Ġprogram":757,"Ġsuch":758,"low":759,"æĸ¹":760,"Ġsc":761,"Ġacc":762,"éĿ":763,"Ġalso":764,"ĠU":765,"Ġnetwork":766,"Ġalgorith":767,"cess":768,"çĽ":769,"ong":770,"Ġdis":771,"å¦Ĥ":772,"Ġlearning":773,"Ġresult":774,"vers":775,"å·":776,"abel":777,"Ġdes":778,"Ġnum":779,"$.":780,"åį":781,"ç±":782,"Ġsystem":783,"Ġso":784,"Ġif":785,"Ġusing":786,"angu":787,"Ġsome":788,"eta":789,"the":790,"ility":791,"Ġperform":792,"con":793,"ient":794,"wo":795,"Ġvari":796,"Ġspe":797,"ain":798,"ks":799,"æ³ķ":800,"Ġli":801,"Ġappro":802,"Ġpart":803,"Ġtime":804,"ç±»":805,"ile":806,"æŃ":807,"Ġinter":808,"Ġtheir":809,"Ġpo":810,"king":811,"Ġshow":812,"Ġexam":813,"text":814,"Ġman":815,"Ġpl":816,"ĠFor":817,"ap":818,"ize":819,"æĿ¥":820,"Ġpre":821,"å½":822,"Ġpar":823,"Ġits":824,"Ġind":825,"Ġproble":826,"Ġ+":827,"Ġthan":828,"si":829,"Ġdist":830,"æİ":831,"ages":832,"very":833,"ree":834,"Ġdifferent":835,"Ġthere":836,"ire":837,"ally":838,"Ġlangu":839,"ates":840,"Ġvalu":841,"Ġ4":842,"Ġtwo":843,"Ġcons":844,"now":845,"Ġover":846,",\\":847,"ä¾":848,"dition":849,"Ġwor":850,"igned":851,"aus":852,"Ġthey":853,"Ġ@":854,"=\"":855,"ind":856,"Ġdef":857,"plic":858,"çī":859,"Ġfeature":860,"Ġmat":861,"åĪ°":862,"Ġ{\\":863,"ä¼ļ":864,"ip":865,"Ġty":866,"],":867,"Ġthese":868,"irst":869,"ys":870,"Ġ5":871,"pect":872,"ics":873,"ular":874,"ãĢģ":875,"ç®":876,"ative":877,"Ġprov":878,"äºİ":879,"ating":880,"oo":881,"ots":882,"ization":883,"_{\\":884,"Ġhow":885,"Ġgo":886,"ruct":887,"ä½ľ":888,"ite":889,"echn":890,"Ġonly":891,"Ġno":892,"olog":893,"ory":894,"Ġany":895,"de":896,"Ġwhen":897,"èĩ":898,"ĠIt":899,"arg":900,"}^":901,"ural":902,"ĠAI":903,"Ġpos":904,"ä½¿":905,"æĬ":906,"een":907,"é¢":908,"pon":909,"}_{":910,"Ġsub":911,"æį":912,"arch":913,"hat":914,"Ġnew":915,"Ġ|":916,"10":917,"Ġup":918,"}^{":919,"ub":920,"formation":921,"Ġtrans":922,"ob":923,"pos":924,"Ġcor":925,"äºº":926,"etween":927,"çĲ":928,"åĳ":929,"çŃ":930,"Ġbetween":931,"Ġinto":932,"Ġobject":933,"æĪĳä»¬":934,"Ġnumber":935,"æĮ":936,"ice":937,"ound":938,"Ġtraining":939,"æĪĲ":940,"Ġabout":941,"Ġrel":942,"å®ŀ":943,"ollow":944,"ä¸Ĭ":945,"ĠV":946,"}(":947,"amet":948,"ise":949,"ä¿":950,"ï¼ļ":951,"ä¸ĭ":952,"æ¯":953,"Ġthen":954,"Ġopt":955,"åĪĨ":956,"æĶ":957,"è¾":958,"çº":959,"Ġeff":960,"Ġreg":961,"ç¼":962,"å¤ļ":963,"ection":964,"imes":965,"Ġdec":966,"nce":967,"è¿ĩ":968,"Ġprocess":969,"å®ļ":970,"Ġexper":971,"Ġrepres":972,"ract":973,"Ġfollow":974,"Ġconst":975,"})":976,"ments":977,"Ġbec":978,"ak":979,"å¿":980,"Ġfirst":981,"Ġinst":982,"å°±":983,"'t":984,"Ġtechn":985,"éľ":986,"ec":987,"Ġknow":988,"å¥":989,"ress":990,"Ġunder":991,"ix":992,"ä»£":993,"çİ°":994,"åĢ":995,"éĿ¢":996,"åĩº":997,"ced":998,"çł":999,"label":1000,"Ġpred":1001,"Ġap":1002,"Ġag":1003,"oth":1004,"åºı":1005,"one":1006,"erv":1007,"æı":1008,"ue":1009,"ĠK":1010,"Ġsol":1011,"ized":1012,"å¼ı":1013,"Ġneed":1014,"è¯Ń":1015,"ackage":1016,"Ġwould":1017,"row":1018,"Ġcomm":1019,"çĲĨ":1020,"éĩı":1021,"Ġway":1022,"éľĢ":1023,"åıĳ":1024,"aligned":1025,"ä½ł":1026,"å¤§":1027,"clud":1028,"Ġdevel":1029,"hes":1030,"Ġyour":1031,"åİ":1032,"Ġmay":1033,"ä½¿çĶ¨":1034,"å®ĥ":1035,"Ġanal":1036,"Ġhum":1037,"min":1038,"Ġgra":1039,"æĥ":1040,"åĲĮ":1041,"Ġinformation":1042,"Ġalgorithm":1043,"ied":1044,"theta":1045,"å±":1046,"cept":1047,"æĭ":1048,"ĠY":1049,"Ġpat":1050,"ç¬":1051,"Ġexample":1052,"ability":1053,"Ġ.":1054,"abl":1055,"tern":1056,"ically":1057,"Ġtest":1058,"ask":1059,"è¿Ľ":1060,"Ġspec":1061,"Ġproblem":1062,"Ġcomple":1063,"Ġ\\[]":1064,"çĶŁ":1065,"æĦ":1066,"Ġsame":1067,"Ġbeen":1068,"å¹¶":1069,"egin":1070,"æĽ":1071,"Ġact":1072,"ator":1073,"äºĽ":1074,"Ġlanguage":1075,"ever":1076,"æĢ§":1077,"Ġext":1078,"ll":1079,"aset":1080,"ç§į":1081,"Ġinc":1082,"da":1083,"Ġstr":1084,"Ġresults":1085,"usep":1086,"Ġrepresent":1087,"usepackage":1088,"\\]":1089,"begin":1090,"ples":1091,"iven":1092,"ities":1093,"æŀľ":1094,"Ġpredict":1095,"Ġcode":1096,"åħ¶":1097,"pha":1098,"è´":1099,"ov":1100,"Ġcol":1101,"lect":1102,"è±":1103,"ful":1104,"Ġoptim":1105,"Ġlike":1106,"Ġaut":1107,"},":1108,"mbol":1109,"amb":1110,"Ġx":1111,"åŃ¦":1112,"ava":1113,"Ġ10":1114,"Ġparamet":1115,"Ġdisc":1116,"rit":1117,"èµ":1118,"ne":1119,"ä¹Ł":1120,"olds":1121,"Ġmult":1122,"æį®":1123,"Ġpa":1124,"its":1125,"Ġsam":1126,"Ġpoint":1127,"Ġ${\\":1128,"alpha":1129,"Ġmach":1130,"ĠAs":1131,"Ġmost":1132,"Ġmodels":1133,"Ġem":1134,"èĩª":1135,"und":1136,"åŀ":1137,"Ġinput":1138,"Ġperformance":1139,"ause":1140,"æīĢ":1141,"line":1142,"Ġdet":1143,"è§£":1144,"çłģ":1145,"è±¡":1146,"Ġ6":1147,"ove":1148,"Ġdevelop":1149,"Ġdataset":1150,"åĲİ":1151,"Ġsign":1152,"ugh":1153,")\\":1154,"çŃī":1155,"igma":1156,"sp":1157,"Ġwere":1158,"å¸¸":1159,"ough":1160,"Ġform":1161,"mathbb":1162,"åĩ½":1163,"éĢļ":1164,"Ġthem":1165,"Ġprogramm":1166,"Ġmethods":1167,"ings":1168,"å°Ĩ":1169,"ĠSt":1170,"ib":1171,"Ġlay":1172,"Ġcould":1173,".,":1174,"ç¼ĸ":1175,"Ġsm":1176,"èĢĮ":1177,"åĩ½æķ°":1178,"enc":1179,"rm":1180,"Ġrob":1181,"Ġwhat":1182,"åĵ":1183,"Ġstate":1184,"{{\\":1185,"ĠCon":1186,"è¡¨":1187,"åºĶ":1188,"Ġinclud":1189,"ear":1190,"Ġdistrib":1191,"éľĢè¦ģ":1192,"lp":1193,"ĠHow":1194,"æĸĩ":1195,"è°":1196,"ential":1197,"æľ¬":1198,"Ġcre":1199,"xim":1200,"Ġass":1201,"ambda":1202,"è½":1203,"fore":1204,"NN":1205,"Ġdefin":1206,"](":1207,"Ġimpro":1208,"ty":1209,"ively":1210,"åŀĭ":1211,"Ġpres":1212,"æµ":1213,"æĽ´":1214,"ount":1215,"orm":1216,"Ġrequ":1217,"åĨħ":1218,"éĹ®":1219,"åŁ":1220,"ia":1221,"Ġhelp":1222,"åľ°":1223,"ious":1224,"éĻ":1225,"vol":1226,"Ġ'":1227,"eng":1228,"ures":1229,"Ġwell":1230,"åıĺ":1231,"set":1232,"ality":1233,"ification":1234,"err":1235,"Ġbased":1236,"ilar":1237,"ange":1238,"Ġi":1239,"ĠPro":1240,"par":1241,"è®¡":1242,"ail":1243,"Ġest":1244,"éĹ´":1245,"Ġboth":1246,"ology":1247,"ts":1248,"ument":1249,"æľĢ":1250,"ier":1251,"Ġconsid":1252,"pro":1253,"ymbol":1254,"æĸ¹æ³ķ":1255,"Ġhuman":1256,"ident":1257,"Ġcall":1258,"Ġstud":1259,"Ġfeatures":1260,"Ġmany":1261,"plement":1262,"é¢ĺ":1263,"eps":1264,"Ġvalue":1265,"not":1266,"ata":1267,"Ġexpl":1268,"ational":1269,"æıĲ":1270,"Ġhigh":1271,"Ġdoes":1272,"Ġ`":1273,"bm":1274,"Ġter":1275,"åĬł":1276,"elta":1277,"ases":1278,"Ġloc":1279,"Ġpropos":1280,"çĤ":1281,"åŃĺ":1282,"åĮĸ":1283,"Ġfin":1284,"çľ":1285,"å¼Ģ":1286,"Ġprodu":1287,"Ġpr":1288,"Ġoper":1289,"Ġdesc":1290,"ting":1291,"ss":1292,"ç¨ĭåºı":1293,"fig":1294,"ĠCom":1295,"urn":1296,"ook":1297,"Ġ:":1298,"æĪĸ":1299,"Ġimage":1300,"te":1301,"éĶ":1302,"ä¹ĭ":1303,"åŃĹ":1304,"rough":1305,"bolds":1306,"Ġmake":1307,"ogn":1308,"ines":1309,"boldsymbol":1310,"ä»ĸ":1311,"wid":1312,"è¨":1313,"Ġequ":1314,"éĥ½":1315,"è¨Ģ":1316,"over":1317,"Ġnon":1318,"Ġprob":1319,"}{\\":1320,"å¥½":1321,"åħ¥":1322,"Ġcase":1323,"Ġbu":1324,"åĬ¨":1325,"åĽł":1326,"Ġve":1327,"){":1328,"ä»¶":1329,"uch":1330,"ify":1331,"ĠIf":1332,"ry":1333,"åħ³":1334,"Ġ8":1335,"Ġph":1336,"iew":1337,"ays":1338,"ellig":1339,"ç»ĵ":1340,"ĠTo":1341,"Ġstruct":1342,"ision":1343,"uring":1344,"Ġmin":1345,"ern":1346,"ç®Ĺ":1347,"Ġmulti":1348,"ä»£çłģ":1349,"12":1350,"ho":1351,"åŃĲ":1352,"ç³":1353,"Ġeffect":1354,"ric":1355,"ç«":1356,"ience":1357,"edge":1358,"Ġimplement":1359,"åĻ":1360,"lambda":1361,"Ġatt":1362,"å¯¹è±¡":1363,"Ġsystems":1364,"als":1365,"Ġapproach":1366,"Ġ20":1367,"fer":1368,"ĠUn":1369,"é¡":1370,"pport":1371,"ript":1372,"iqu":1373,"Ġ<":1374,"åĻ¨":1375,"Ġshould":1376,"19":1377,"ince":1378,"Ġfact":1379,"Ġgiven":1380,"ark":1381,"Ġmachine":1382,"andom":1383,"Ġget":1384,"åĢ¼":1385,"ä¾ĭ":1386,"ower":1387,"hen":1388,"ew":1389,"Ġimport":1390,"åģ":1391,"æķ°æį®":1392,"Ġ7":1393,"Ġapplic":1394,"Ġtype":1395,"Ġent":1396,"åī":1397,"Ġjust":1398,"leq":1399,"Ġrese":1400,"Ġbl":1401,"reat":1402,"itive":1403,"urre":1404,"èĢħ":1405,"Ġtyp":1406,"éĩį":1407,"sible":1408,"iel":1409,"ered":1410,"æ²":1411,"ten":1412,"çĤ¹":1413,"ck":1414,"sigma":1415,"ention":1416,"éģ":1417,"Ġreal":1418,"ake":1419,"Ġart":1420,"elf":1421,"arge":1422,"ä¹Ī":1423,"Ġ9":1424,"ensure":1425,"\\_":1426,"amma":1427,"Ġadd":1428,"rix":1429,"Ġalgorithms":1430,"éĺ":1431,"Ġvery":1432,"\"}":1433,"çĦ":1434,"Ġbecause":1435,"times":1436,"read":1437,"ink":1438,"-\\":1439,"è¯Ńè¨Ģ":1440,"Ġmem":1441,"Ġerr":1442,"$\\":1443,"å·¥":1444,"Ġsee":1445,"åĲĪ":1446,"Ġpartic":1447,"ving":1448,"Ġam":1449,"åº¦":1450,"ilon":1451,"str":1452,"ctions":1453,"to":1454,"å½ĵ":1455,"ĠFig":1456,"cd":1457,"Ġtra":1458,"ĠAl":1459,"of":1460,"Ġprovid":1461,"Ġestim":1462,"Ġsimilar":1463,"Ġwho":1464,"ĠThere":1465,"apt":1466,"å»":1467,"è¿Ļä¸ª":1468,"Ġ201":1469,"ually":1470,"Ġ#":1471,"æ¬":1472,"ĠHowever":1473,"ä½ĵ":1474,"mu":1475,"å¦Ĥæŀľ":1476,"Ġident":1477,"Ġexperim":1478,"Ġsmall":1479,"Ġline":1480,"ference":1481,"ç¤":1482,"Ġwhile":1483,"Ġthrough":1484,"ox":1485,"çĦ¶":1486,"etter":1487,"yn":1488,"Ġpe":1489,"oss":1490,"Ġ}":1491,"Ł¥":1492,"ä½Ĩ":1493,"ish":1494,"ef":1495,"Ġ!":1496,"Ġproposed":1497,"Ġredu":1498,"round":1499,"æ°":1500,"Ġeven":1501,"Ġincre":1502,"ists":1503,"çĽ¸":1504,"old":1505,"ç³»":1506,"å¾Ĺ":1507,"ç½":1508,"æİ¥":1509,"width":1510,"ote":1511,"Ġgeneral":1512,"Ġac":1513,"Ġimages":1514,"ç¡":1515,"Ġ\\\\":1516,"Ġoutput":1517,"çº¿":1518,"bf":1519,"æ±":1520,"Ġvect":1521,"é«":1522,"Ġ{#":1523,"è®¾":1524,"til":1525,"ware":1526,"yth":1527,"Ġorder":1528,"Ġco":1529,"è°ĥ":1530,"é«ĺ":1531,"Ġvalues":1532,"å»º":1533,"ä¸İ":1534,"Ġallow":1535,".\"":1536,"å¾Ī":1537,"Ġevalu":1538,"Ġprogramming":1539,"ness":1540,"Ġav":1541,"Ġevery":1542,"æľº":1543,"Ġneural":1544,"Ġdire":1545,"éĹ®é¢ĺ":1546,"ocument":1547,"Ġcomplex":1548,"Ġlarge":1549,"Ġret":1550,"beta":1551,"Ġweight":1552,"Ġke":1553,"}}\\":1554,"Ġbetter":1555,"Ġrandom":1556,"}$,":1557,"stand":1558,"Ġnetworks":1559,"Ġfunctions":1560,"ian":1561,"urrent":1562,"ency":1563,"rodu":1564,"Ġ![":1565,"ices":1566,"Ġsequ":1567,"sf":1568,"=\\":1569,"Ġfollowing":1570,"Ġrun":1571,"ople":1572,");":1573,"Ġobs":1574,"hed":1575,"com":1576,"ython":1577,"su":1578,"ension":1579,"è¢":1580,"*]{}":1581,"æ¯Ķ":1582,"Ġsize":1583,"icient":1584,"fter":1585,"_\\":1586,"ved":1587,"ng":1588,"åĪ¶":1589,"éĥ":1590,"æĮĩ":1591,"|\\":1592,"ĠX":1593,"angle":1594,"ared":1595,"ç´":1596,"ysis":1597,"åĿ":1598,"elligence":1599,"based":1600,"Ġ,":1601,"Ġdep":1602,"Ġhand":1603,"port":1604,"oy":1605,"Ġimprove":1606,"pr":1607,"æŃ¤":1608,")}":1609,"Ġ[*":1610,"Ġprovide":1611,"åīį":1612,"Ġobtain":1613,"}$.":1614,"ord":1615,"æŀĦ":1616,"Ġpresent":1617,"è¢«":1618,"è¯¥":1619,"Ġdistribution":1620,"å°ı":1621,"log":1622,"Ġpers":1623,"æĦı":1624,"ivers":1625,"æĸ°":1626,"Ġpri":1627,"éĥ¨":1628,"sc":1629,"Ġsing":1630,"ior":1631,"âĢ":1632,"ps":1633,"ward":1634,"æł·":1635,"ves":1636,"urac":1637,"rt":1638,"Ġgraph":1639,"Ġfram":1640,"Ġ19":1641,"æ¨":1642,"Ġbuil":1643,"åĨĻ":1644,"Ġspace":1645,"ann":1646,"cond":1647,"ables":1648,"è¿Ľè¡Į":1649,"press":1650,"istic":1651,"ĠÐ":1652,"Ġpaper":1653,"Ġcondition":1654,"Ġtask":1655,"éĤ":1656,"æ´":1657,"Ġconsider":1658,"50":1659,"è¯´":1660,"Ġpeople":1661,"æ¨¡":1662,"åĬĽ":1663,"æĥħ":1664,"Ġstand":1665,"Ġsupport":1666,"Ġparameters":1667,"Ġpossible":1668,"Ġprev":1669,"æ¸":1670,"ç»Ħ":1671,"Ġmean":1672,",\"":1673,"åįķ":1674,"Ġ(\\":1675,"ä¿Ŀ":1676,"li":1677,"Ġmuch":1678,"Ġsa":1679,"Ġcorre":1680,"Ġbeh":1681,"Ġbas":1682,"çī©":1683,"phi":1684,"roup":1685,"è¶":1686,"lo":1687,"^{\\":1688,"ource":1689,"Ġcomputer":1690,"respon":1691,"ç¬¦":1692,"Ġlevel":1693,"Ġlabel":1694,"Ġrespect":1695,"Ġinv":1696,"ives":1697,"pi":1698,"oci":1699,"Ġmain":1700,"åĮħ":1701,"èĬ":1702,"[@":1703,"The":1704,"ç»ı":1705,"Ġadv":1706,"Ġloss":1707,"ross":1708,"Ġrecogn":1709,"uracy":1710,"arrow":1711,"Ġmy":1712,"urther":1713,"Ġthose":1714,"ĠEx":1715,"ons":1716,"}}$":1717,"Ġbel":1718,"arget":1719,"01":1720,"Ġbeing":1721,"^*":1722,"ĠQ":1723,"ily":1724,"Ġele":1725,"ock":1726,"ray":1727,"åĽŀ":1728,"Ġmeas":1729,"ĠAn":1730,"utions":1731,"ä»İ":1732,"Ġlayer":1733,"è¿Ĳ":1734,"Ġcontain":1735,"inal":1736,"chie":1737,"Ġunderstand":1738,"Ġimportant":1739,"oint":1740,"Ġenc":1741,"gamma":1742,"åħ·":1743,"ick":1744,"Ġassum":1745,"ĠJava":1746,"Ġback":1747,"ead":1748,"mathrm":1749,"ST":1750,"Ġcorrespon":1751,"ubl":1752,"vir":1753,"Ġcontro":1754,"æĺİ":1755,"è¿ĺ":1756,"Ġeas":1757,"Ġachie":1758,"çľĭ":1759,"ulation":1760,"Ġread":1761,"Ġbound":1762,"Ġsingle":1763,"ivid":1764,"éĤ£":1765,"get":1766,"}(\\":1767,"erest":1768,"Ġbest":1769,"Ġparticular":1770,"cdot":1771,"Ġwithout":1772,"chit":1773,"Ġerror":1774,"åıª":1775,"ç±»åŀĭ":1776,"Ġlead":1777,"data":1778,"omain":1779,"viron":1780,"Ġdescrib":1781,"Ġmatrix":1782,"Ġcommun":1783,"Ġquest":1784,"Ġthree":1785,"asks":1786,"Ġstructure":1787,"ised":1788,"ute":1789,"Ġet":1790,"éĢļè¿ĩ":1791,"ified":1792,"Ġshown":1793,"ences":1794,"oun":1795,"Ġproblems":1796,"Ġvis":1797,"çī¹":1798,"Ġanalysis":1799,"Ġbi":1800,"Ġden":1801,"gy":1802,"bin":1803,"ref":1804,"Ġresearch":1805,"åĬ¡":1806,"Ġstat":1807,"å¢":1808,"Ġlat":1809,"Ġaccuracy":1810,"èī":1811,"Ġlanguages":1812,"çĽ®":1813,"^\\":1814,"Ĥ¨":1815,"Ġtop":1816,"imension":1817,"ired":1818,"\",":1819,"Net":1820,"åŁº":1821,"Ġdepend":1822,"Ġsignific":1823,"vert":1824,"Ġproper":1825,"delta":1826,"gg":1827,"ificial":1828,"Ġclassification":1829,"Ġaddition":1830,"Ġstart":1831,"å¤Ħ":1832,"ä¹ī":1833,"uss":1834,"åħ¨":1835,"ĠCh":1836,"Ġinit":1837,"mon":1838,"ĠRes":1839,"åĳĺ":1840,"Ġpattern":1841,"ledge":1842,"Ġlong":1843,"ert":1844,"ç©":1845,"ĠInt":1846,"Ġlog":1847,"Ġdesign":1848,"ron":1849,"Ġend":1850,"$-":1851,"Ġfind":1852,"æĻ":1853,"app":1854,"ä¹ł":1855,"ances":1856,"Ġtarget":1857,"^{(":1858,"Ġcho":1859,"éļ":1860,"ength":1861,"Ġ/":1862,"ters":1863,"Ġenviron":1864,"pre":1865,"æĢģ":1866,"ä½ķ":1867,"ä¸ŃçļĦ":1868,"Ġintrodu":1869,"Ġz":1870,"å®ŀçİ°":1871,"les":1872,"__":1873,"chitect":1874,"ade":1875,"Ġobserv":1876,"oper":1877,"Ġexpress":1878,"åĲį":1879,"Ġyear":1880,"åĵģ":1881,"Ġful":1882,"Ġgood":1883,"è·":1884,"Ġanaly":1885,"åĪĻ":1886,"Ġconc":1887,"Ġhy":1888,"()":1889,"tilde":1890,"ĠThese":1891,"arning":1892,"ç¬¬":1893,"Ġra":1894,"Ð¾":1895,"ç»Ł":1896,"Ġtechniqu":1897,"Ġprobability":1898,"Ġtasks":1899,"Ġminim":1900,"ible":1901,"document":1902,"Ġinterest":1903,"Ġworld":1904,"ule":1905,"epsilon":1906,"æ¯ı":1907,"nect":1908,"wn":1909,"Ġpol":1910,"ç¤º":1911,"çº¿ç¨ĭ":1912,"Ġwrit":1913,"ç¡®":1914,"æłĩ":1915,"éħ":1916,"Ġchar":1917,"imit":1918,"ä»»":1919,"volution":1920,"Ġlist":1921,"Ġtake":1922,"Ġmight":1923,"å§":1924,"å®¶":1925,")$.":1926,"åĲĳ":1927,"åı¯èĥ½":1928,"Ġtext":1929,"}}_":1930,"Ġproject":1931,"tau":1932,"Ġgu":1933,"Ġdeep":1934,"ield":1935,"Ġide":1936,"16":1937,"Ġpot":1938,"éĩĮ":1939,"Ġrespon":1940,"Ġwant":1941,"br":1942,"Ġsignificant":1943,"æĬĢ":1944,"æĵ":1945,"oid":1946,"Ġben":1947,"ently":1948,"Ġvector":1949,"ven":1950,"Ġdirect":1951,"ä¸¤":1952,"big":1953,"yle":1954,"2017":1955,"ĠBut":1956,"ams":1957,"Ġreas":1958,"æ²¡":1959,"Ġinteg":1960,"els":1961,"éĿŀ":1962,"æī§":1963,"Ġgroup":1964,"åıĺéĩı":1965,"Ġfil":1966,"pec":1967,"Ġnow":1968,"Ġsecond":1969,"iversity":1970,"sh":1971,"Ġsur":1972,"Ġtechnology":1973,"Ġdi":1974,"åıĤ":1975,"åħĥ":1976,"ynam":1977,"Ġexamples":1978,"Ġstandard":1979,"Ġpract":1980,"æ¡":1981,"ä¿¡":1982,"bar":1983,"æī§è¡Į":1984,"Ġpotential":1985,"Ġautom":1986,"por":1987,"ä¸ļ":1988,"ĠBy":1989,"Ġsince":1990,"Ġintelligence":1991,"ner":1992,"atch":1993,"Ġarchitect":1994,"Ġdefined":1995,"other":1996,"Ġactiv":1997,"lection":1998,"Ġfew":1999,"Ġiter":2000,"Ġbehav":2001,"æģ":2002,"Ġemb":2003,"å°±æĺ¯":2004,"own":2005,"åĪĹ":2006,"Ġreturn":2007,"ensuremath":2008,"Ġfound":2009,"odes":2010,"Ġinf":2011,"å·±":2012,"Ġcurrent":2013,"Ġdomain":2014,"Ġlocal":2015,"etail":2016,"gan":2017,"Ġapproxim":2018,"Ġsem":2019,"ĠLe":2020,"Ġpubl":2021,"ä¸ĢäºĽ":2022,"Ġmemory":2023,"çİ¯":2024,"èĩªå·±":2025,"uture":2026,"Ġed":2027,"Ġstill":2028,"å®¹":2029,"ä¸»":2030,"io":2031,"Ġhad":2032,"ĠLet":2033,"Ġsoft":2034,"max":2035,"alth":2036,"ĠSo":2037,"ĠRe":2038,"æ¬¡":2039,"Ġperson":2040,"ather":2041,"æ³¨":2042,"ormal":2043,"Ġarg":2044,"Ġte":2045,"éĢī":2046,"ately":2047,"Ġmust":2048,"Ġinitial":2049,"ense":2050,"Ġspecific":2051,"å¼ķ":2052,"Ġexist":2053,"ism":2054,"Ġexpect":2055,"Ġcompar":2056,"raph":2057,"Ġsum":2058,"ĠSc":2059,"class":2060,"Ġable":2061,"æĮģ":2062,"çķ":2063,"æŃ£":2064,"epend":2065,"äºĭ":2066,"Ġcontext":2067,"çĿ":2068,"Ġorig":2069,"Ġvers":2070,"Ġsimple":2071,"å¤ĸ":2072,"åİŁ":2073,"Ġtypes":2074,"Ġafter":2075,"ç¼ĸç¨ĭ":2076,"Ġoff":2077,"15":2078,"ework":2079,"Ġstep":2080,"pose":2081,"Ġdeter":2082,"Ġindivid":2083,"gment":2084,"æĦŁ":2085,"inu":2086,"+\\":2087,"^{-":2088,"æ·":2089,"ä¾Ľ":2090,"Ġtrained":2091,"Ġscal":2092,"ules":2093,"Ġcost":2094,"é£":2095,"2018":2096,"Ġcharact":2097,"Ġabove":2098,"æĥ³":2099,"ploy":2100,"Ġgreat":2101,"Ġlinear":2102,"ĠFigure":2103,"åıĬ":2104,"Ġvariables":2105,"çŁ¥":2106,"Ġavail":2107,"ĠYou":2108,"me":2109,"Ġser":2110,"ä¸įåĲĮ":2111,"ccess":2112,"æŃ¥":2113,"bs":2114,"ety":2115,"Ġsever":2116,"Ġsamples":2117,"éĽ":2118,"iss":2119,"Ġcal":2120,"Ġright":2121,"Ġcalled":2122,")$,":2123,"Ġwords":2124,"ä½į":2125,"ins":2126,"ĠAnd":2127,"ertain":2128,"Ðµ":2129,"Ġobjects":2130,"ards":2131,"æĵį":2132,"Ġprevious":2133,"Ġknowledge":2134,"èĻ":2135,"è¿ĻäºĽ":2136,"rue":2137,"è®©":2138,"Ġcle":2139,"ocus":2140,"åĪĽ":2141,"Ġrem":2142,"Ġsearch":2143,"åħ¬":2144,"äº§":2145,"\\|":2146,"Ġhis":2147,"Ġword":2148,"ental":2149,"izing":2150,"sq":2151,"Ġseveral":2152,"type":2153,"ĠDe":2154,"Ġparameter":2155,"Ġ$(":2156,"æ±Ĥ":2157,"Ġshows":2158,"åģļ":2159,"Ġpower":2160,"Ġthink":2161,"Ġrobot":2162,"å®Į":2163,"Ġindividual":2164,"2016":2165,"13":2166,"æĵįä½ľ":2167,"Ġlow":2168,"Ġdiscuss":2169,"Ġclasses":2170,"Ġoften":2171,"è¯ķ":2172,"çĶ±":2173,"view":2174,"Ġtool":2175,"éª":2176,"Ġselect":2177,"alid":2178,"Ġless":2179,"Ġins":2180,"ĠWh":2181,"pm":2182,"Ġdetail":2183,"sw":2184,"Ġsent":2185,"Ġcontrol":2186,"14":2187,"éķ":2188,"02":2189,"Ġlimit":2190,"Ġhig":2191,"rop":2192,"Ġconstrain":2193,"ants":2194,"Ġchange":2195,"Ġchang":2196,"Ġsolution":2197,"perv":2198,"åıĸ":2199,"ym":2200,"ĠSe":2201,"Ġdon":2202,"å¹´":2203,"*,":2204,"part":2205,"rite":2206,"ash":2207,"Ġsom":2208,"ording":2209,"18":2210,"æ²¡æľī":2211,"Ġlet":2212,"Ġhere":2213,"æĹł":2214,"ank":2215,"Ġterms":2216,"Ġmeans":2217,"èĬĤ":2218,"rho":2219,"Ġcombin":2220,"Ġbefore":2221,"è®¾è®¡":2222,"Ġpoints":2223,"Ġupd":2224,"ĠAd":2225,"imin":2226,"Ġmeasure":2227,"Ġwithin":2228,"æ®":2229,"Ġdevelopment":2230,"æıĲä¾Ľ":2231,"Ġenvironment":2232,"ĠHere":2233,"xt":2234,"cing":2235,"å¿ĥ":2236,"aches":2237,"Ġchall":2238,"Ġframework":2239,"Ġstudy":2240,"æľ¯":2241,"æº":2242,"Ġapplications":2243,"Ġtri":2244,"Ġche":2245,"ç®Ģ":2246,"lation":2247,"verage":2248,"Ġaccess":2249,"atural":2250,"Ġavailable":2251,"Ġfocus":2252,"Ġincluding":2253,"Ġmultiple":2254,"Ġdiff":2255,"Ġrate":2256,"ges":2257,"Ġrepresentation":2258,"Ġcap":2259,"Ġgl":2260,"Ġgrad":2261,"Ġpop":2262,"Ġuser":2263,"Ġembed":2264,"å§ĭ":2265,"Ġcommon":2266,"éĢĤ":2267,"Ġref":2268,"AN":2269,"Ġinstance":2270,"arly":2271,"idd":2272,"time":2273,"Ġconnect":2274,"ĠOur":2275,"wise":2276,"usion":2277,"tr":2278,"ç´ł":2279,"Ġsequence":2280,"span":2281,"ç»Ļ":2282,"Ġsens":2283,"Ġtak":2284,"Ġrecognition":2285,"Ġduring":2286,"çĿĢ":2287,"({\\":2288,"èģ":2289,"ĠGo":2290,"Ġsource":2291,"Ġreason":2292,"Ġnode":2293,"åħĪ":2294,"plied":2295,"å¤į":2296,"éķ¿":2297,"kes":2298,"Ġclus":2299,"Ġfuture":2300,"cript":2301,"ä¸Ģç§į":2302,"åĪ«":2303,"Ġmed":2304,"Ġstrate":2305,"Ġproduct":2306,"Ġdynam":2307,"}_{\\":2308,"Ġvariable":2309,"Ġkey":2310,"25":2311,"ĠWhen":2312,"Ġcreate":2313,"Ġanother":2314,"Ġpost":2315,"Ġlayers":2316,"hip":2317,"åŃ¦ä¹ł":2318,"èµ·":2319,"17":2320,"here":2321,"Ġquant":2322,"æĪ·":2323,"Ġdev":2324,"30":2325,"Ġdatasets":2326,"sqrt":2327,"Ġpair":2328,"bers":2329,"åĨ³":2330,"ax":2331,"è°ĥçĶ¨":2332,"Ġmaxim":2333,"ĠThen":2334,"Ġfollows":2335,"æĹ¶éĹ´":2336,"Ġlit":2337,"Ġ>":2338,"å±ķ":2339,"Ġpass":2340,"Ġcompon":2341,"Ġlarg":2342,"ldots":2343,"Ġagain":2344,"Ġsuccess":2345,"[]{":2346,"'re":2347,"Ġthough":2348,"abil":2349,"ä»Ģ":2350,"Ġconf":2351,"ĠHe":2352,"ä»Ģä¹Ī":2353,"Ġel":2354,"ars":2355,"ĠZ":2356,"ÑĤ":2357,"ially":2358,"Ð°":2359,"éĴ":2360,"pen":2361,"Ġexperiments":2362,"ç³»ç»Ł":2363,"æķĪ":2364,"Ġtem":2365,"Ġ\\[].":2366,"Ġconstruct":2367,"name":2368,"Ġfurther":2369,"Ġhealth":2370,"å¼Ģåıĳ":2371,"Ġåľ¨":2372,"Ġown":2373,"Ġmet":2374,"èĤ":2375,"ning":2376,"man":2377,"irc":2378,"Ġplay":2379,"Ġauth":2380,"Ġlik":2381,"Ġsyn":2382,"Ġcalc":2383,"å¤ĦçĲĨ":2384,"æķ´":2385,"æĤ¨":2386,"ä¼ĺ":2387,"éģĵ":2388,"aces":2389,"Ġ{#}":2390,"Ġview":2391,"Ġsay":2392,"Ġexec":2393,"Ġmon":2394,"ave":2395,"Ġrequire":2396,"Ġhard":2397,"Ġconver":2398,"Ġoptimization":2399,"ways":2400,"Ġclassif":2401,"åı£":2402,"æĶ¹":2403,"æĸ¹å¼ı":2404,"</":2405,"æł¼":2406,"Ġmade":2407,"Ġrobots":2408,"æ¶":2409,"less":2410,"Ġyears":2411,"inc":2412,"Ġartificial":2413,"Ġeng":2414,"Ġsk":2415,"Ġnext":2416,"ä¸Ķ":2417,"Ġconcept":2418,"}}_{":2419,"Ġcorrect":2420,"Ġtoo":2421,"Ġsat":2422,"):":2423,"Ġoriginal":2424,"we":2425,"Ġcorresponding":2426,"Ġuses":2427,"air":2428,"Ġcent":2429,"ĠWhat":2430,"Ġrele":2431,"ç©º":2432,"åĽłä¸º":2433,"åĬŁ":2434,"ression":2435,"å®ļä¹ī":2436,"imal":2437,"eq":2438,"pervised":2439,"sim":2440,"ources":2441,"è®¡ç®Ĺ":2442,"ood":2443,"Ġindic":2444,"æĶ¾":2445,"Ġsoftware":2446,"Ġ&\\":2447,"ĠMore":2448,"çĽ´":2449,"Ġbr":2450,"ison":2451,"ĠUniversity":2452,"ably":2453,"å½¢":2454,"AR":2455,"Ġinvol":2456,"èī²":2457,"tt":2458,"Ġsection":2459,"Ġprior":2460,"ategor":2461,"Ġscore":2462,"æºĲ":2463,"Ġcharacter":2464,"Ġsample":2465,"ç½®":2466,"ither":2467,"och":2468,"å¤Ł":2469,"Ġfix":2470,"Ġlo":2471,"Ġadapt":2472,"69":2473,"ĠOne":2474,"Ġknown":2475,"geq":2476,"Ġprediction":2477,"Ġserv":2478,"lying":2479,"equ":2480,"Ġaddress":2481,"éħį":2482,"Ġdemon":2483,"Ġocc":2484,"Ġanalyz":2485,"ero":2486,"ral":2487,"iness":2488,"Ġansw":2489,"rightarrow":2490,"arc":2491,"sub":2492,"åĮº":2493,"è¾¾":2494,"Ġregular":2495,"Ġsets":2496,"ients":2497,"Ġpolic":2498,"03":2499,"Ġefficient":2500,"icult":2501,"tal":2502,"ption":2503,"Ġdemonstr":2504,"ĠSection":2505,"Ġreport":2506,"åİ»":2507,"nces":2508,"Delta":2509,"æŁ":2510,"ĠThey":2511,"è¯»":2512,"Ġgenerated":2513,"ij":2514,"Ġquestion":2515,"2015":2516,"è¾ĵ":2517,"æģ¯":2518,"ĠCl":2519,"ted":2520,"Ġnatural":2521,"é¦":2522,"back":2523,"Ġcases":2524,"Ġpublic":2525,"uted":2526,"åºĶçĶ¨":2527,"ĠComput":2528,"Ġidentify":2529,"è´¨":2530,"ators":2531,"Ġvisual":2532,"Ġdifficult":2533,"Ġimpact":2534,"isf":2535,"Ð¸":2536,"Ġapplication":2537,"Ġleast":2538,"Ġrespectively":2539,"æ´»":2540,"ocial":2541,"Ġassoci":2542,"ggest":2543,"ife":2544,"ething":2545,"Ġprograms":2546,"lu":2547,"Ġinclude":2548,"ĠIm":2549,"Java":2550,"æ®µ":2551,"ustom":2552,"Ġapproaches":2553,"Ġtechniques":2554,"è¾ĥ":2555,"aw":2556,"Ġadvan":2557,"face":2558,"ç¾":2559,"[\\":2560,"ä½Ĩæĺ¯":2561,"Ġhigher":2562,"Ġbenef":2563,"Ġrelations":2564,"Ġconsist":2565,"åĨµ":2566,"Ġ(\\[":2567,"}}}":2568,"Ġneur":2569,"Ġalways":2570,"oder":2571,"80":2572,"Ġsemant":2573,"Ġcompil":2574,"Ġprot":2575,"é¡¹":2576,"Ġsuggest":2577,"Ġlast":2578,"éĢł":2579,"ĠOn":2580,"mar":2581,"éĿŀå¸¸":2582,"Ġdecision":2583,"Ġcertain":2584,"Ġobtained":2585,"](#":2586,"valu":2587,"å¿ħ":2588,"ild":2589,"Ġvarious":2590,"å°ĳ":2591,"any":2592,"æīĢæľī":2593,"Ġscen":2594,"Ġlook":2595,"aking":2596,"Ġabst":2597,"Ġthings":2598,"Ġsepar":2599,"Ġtry":2600,"asing":2601,"Ġcrit":2602,"obal":2603,"Ġbin":2604,"ering":2605,"Ġapplied":2606,"Ġtrue":2607,"uc":2608,"æľŁ":2609,"fficient":2610,"å¹³":2611,"Ġwhether":2612,"åŃĹç¬¦":2613,"æµģ":2614,"è¯ĳ":2615,"urs":2616,"åħ¶ä»ĸ":2617,"}}(":2618,"Ġdefinition":2619,"Ġdue":2620,"Ġarchitecture":2621,"èĢĥ":2622,"quad":2623,"åĬ©":2624,"Ġconvolution":2625,"æĭ©":2626,"\">":2627,"Ġensure":2628,"åĨħåŃĺ":2629,"ĠNote":2630,"ruction":2631,"Ġder":2632,"è¯·":2633,"alle":2634,"pling":2635,"Ġ12":2636,"med":2637,"},\\":2638,"Ġstyle":2639,"gree":2640,"oding":2641,"In":2642,"éĢīæĭ©":2643,"Ġaverage":2644,"Ġimplementation":2645,"32":2646,"Ġaround":2647,"Ġvalid":2648,"Ġdefine":2649,"orem":2650,"ames":2651,"=\"}":2652,"05":2653,"level":2654,"Ġworks":2655,"olution":2656,"\\\\":2657,"Ġcalcul":2658,"Ġembedding":2659,"Ġdown":2660,"å·¥ä½ľ":2661,"top":2662,"Ġjob":2663,"Ġtre":2664,"plit":2665,"ĠPython":2666,"ĠWith":2667,"æµĭ":2668,"ool":2669,"Ġcontinu":2670,"Ġmaking":2671,"Ġgradient":2672,"fty":2673,"åı¥":2674,"plicit":2675,"ä¼ł":2676,"åĽ¾":2677,"ç»ĵæŀĦ":2678,"ems":2679,"SS":2680,"Ġreally":2681,"Ġaction":2682,"Ġweights":2683,"è®¤":2684,"Ġorgan":2685,"Ġmakes":2686,"äº¤":2687,"ffect":2688,"æĭ¬":2689,"Ġclos":2690,"å¥½çļĦ":2691,"Ġnoise":2692,"chan":2693,"åĢĻ":2694,"Ġut":2695,"infty":2696,"Ġnodes":2697,"Ġrange":2698,"ĠSince":2699,"Ġways":2700,"Ġsatisf":2701,"Ġdetect":2702,"è§Ħ":2703,"æł¹":2704,"å·²":2705,"Ġbrain":2706,"Ġsomething":2707,"Ġcomplexity":2708,"Ġfield":2709,"izes":2710,"Ġtimes":2711,"Ġcategor":2712,"partial":2713,"ĠThat":2714,"Ġbehavior":2715,"Ġneg":2716,"æ°´":2717,"è¯Ĩ":2718,"Ġoptimal":2719,"ĠTable":2720,"aster":2721,"]:":2722,"Ġsaid":2723,"raction":2724,"xi":2725,"å¯¼":2726,"04":2727,"sequ":2728,"ery":2729,"abor":2730,"Ġterm":2731,"Ġnormal":2732,"æĺ¯ä¸Ģä¸ª":2733,"Ġindepend":2734,"anc":2735,"{}":2736,"verse":2737,"gence":2738,"askell":2739,"Ġinterpre":2740,"oring":2741,"Ġfre":2742,"æĬĬ":2743,"Ġkern":2744,"sing":2745,"èµĦ":2746,"Ġpath":2747,"Ġprocessing":2748,"Ġmechan":2749,"istics":2750,"Ġallows":2751,"è¿ĩç¨ĭ":2752,"Ġself":2753,"Ġstrong":2754,"æĢ»":2755,"æŀĲ":2756,"è¿Ļæł·":2757,"Ġwrite":2758,"èº":2759,"space":2760,"pping":2761,"æĬĢæľ¯":2762,"æĥħåĨµ":2763,".\\":2764,"å®ī":2765,"ires":2766,"çĬ":2767,"Ġlower":2768,"çĶµ":2769,"è¿°":2770,"Ġacross":2771,"çĥ":2772,"åį³":2773,"éĽĨ":2774,"Ġdetection":2775,"val":2776,"Ġpatterns":2777,"ological":2778,"Ġpositive":2779,"ored":2780,"Ġprof":2781,"Ġthus":2782,"EE":2783,"æŁ¥":2784,"Ġgr":2785,"\".":2786,"Ġprovides":2787,"Ġcustom":2788,"tle":2789,"è½¬":2790,"ystem":2791,"Ġdimension":2792,"ming":2793,"å¦Ĥä½ķ":2794,"ivity":2795,"rangle":2796,"è¿Ĳè¡Į":2797,"ĠHaskell":2798,"ĠThus":2799,"Ġdifference":2800,"light":2801,"Ġcompared":2802,"\\].":2803,"rack":2804,"å¤©":2805,"åľº":2806,"æĶ¯":2807,"*~":2808,"Ġdone":2809,"åĽłæŃ¤":2810,"Ġposition":2811,"èº«":2812,"åĿĹ":2813,"å¼º":2814,"inally":2815,"è£":2816,"æīĢä»¥":2817,"Ġcount":2818,"Ġdetermin":2819,"å£":2820,"Ġmot":2821,"åıĤæķ°":2822,"ival":2823,"Ġinstead":2824,"Ġ&=":2825,"ER":2826,"umber":2827,"ĠçļĦ":2828,"ç®¡":2829,"Ġrema":2830,"ç½ĳ":2831,"Ġ\\[],":2832,"Ġdid":2833,"ustr":2834,"Ġbook":2835,"æĶ¶":2836,"usiness":2837,"Ġbelie":2838,"opt":2839,"24":2840,"ready":2841,"æīĭ":2842,"éĩįè¦ģ":2843,"å®ĥä»¬":2844,"Ġmatch":2845,"Ġill":2846,"Fig":2847,"Ġrather":2848,"Ġnecess":2849,"Ġdistance":2850,"Ġcluster":2851,"agn":2852,"å¯¹äºİ":2853,"Ġcannot":2854,"èİ":2855,"çĪ":2856,"å½±":2857,"Ġstre":2858,"Ġproced":2859,"åı·":2860,"nabl":2861,"ties":2862,"eli":2863,"Ġreduce":2864,"æĸĩä»¶":2865,"Ġpur":2866,"Ġidea":2867,"Ġchalleng":2868,"Ġuseful":2869,"operator":2870,"Ġsocial":2871,"hers":2872,"æį¢":2873,"Ġversion":2874,"though":2875,"Ġess":2876,"omm":2877,"Ġamount":2878,"ä¸ī":2879,"ined":2880,"Ġexplain":2881,"ets":2882,"Ġinvest":2883,"nabla":2884,"è®º":2885,"Ġcomputation":2886,"éªĮ":2887,"ising":2888,"æĢĿ":2889,"})$":2890,"AS":2891,"åĲĦ":2892,"Ġ[^":2893,"Ġdeveloped":2894,"Ġ\\{":2895,"Ġfar":2896,"Ġalready":2897,"Ġeither":2898,"idden":2899,"ga":2900,"ane":2901,"Ġâ":2902,"Ð¾Ð":2903,"Ġemploy":2904,"Ġsit":2905,"ath":2906,"æķ°ç»Ħ":2907,"Ġ)":2908,"hemat":2909,"Ġmark":2910,"Ġtree":2911,"Ġatta":2912,"èĥ½å¤Ł":2913,"Ġrelated":2914,"æī¾":2915,"åıĹ":2916,"Ġcommunic":2917,"Ġcapt":2918,"Ġelements":2919,"allel":2920,"ĠCNN":2921,"Ġattention":2922,"duct":2923,"Ġrules":2924,"array":2925,"ended":2926,"ĠSim":2927,"åĪ©":2928,"operatorname":2929,"ä¾ĭå¦Ĥ":2930,"ayes":2931,"])":2932,"Ġdra":2933,"ä»ĸä»¬":2934,"éĶĻ":2935,"uth":2936,"sid":2937,"Ġwid":2938,"reg":2939,"Ġlength":2940,"Ġvide":2941,"Ġagent":2942,"Ġrepl":2943,"Ġdescribed":2944,"Ġfinal":2945,"ĠTherefore":2946,"ited":2947,"Ġexp":2948,"dots":2949,"ï¼Ł":2950,"textbf":2951,"åºĶè¯¥":2952,"eline":2953,"64":2954,"æİĴ":2955,"éĤ£ä¹Ī":2956,"Ġbecome":2957,"äºĮ":2958,"æĸŃ":2959,"action":2960,"ĠNe":2961,"Ġgrow":2962,"aps":2963,"Ġexact":2964,"Ġdirectly":2965,"æĹ¶åĢĻ":2966,"Ġstates":2967,"Ġgenerate":2968,"Ġgen":2969,"ä¸įæĺ¯":2970,"hi":2971,"Ġconsidered":2972,"Ġextract":2973,"var":2974,"è¿Ķ":2975,"60":2976,"ä¸¤ä¸ª":2977,"Ġcontrib":2978,"åĨį":2979,"Ġcur":2980,"'ll":2981,"ception":2982,"ML":2983,"Ġprom":2984,"Ġaccording":2985,"Ġhapp":2986,"Ġgive":2987,"Ġ50":2988,"ç«ł":2989,"æĿ¡":2990,"Ñģ":2991,"astic":2992,"let":2993,"bit":2994,"Ġhumans":2995,"iction":2996,"}^{\\":2997,"Ġquality":2998,"atic":2999,"Ġsense":3000,"è¿ĶåĽŀ":3001,"umn":3002,"Ġglobal":3003,"odel":3004,"èĪ":3005,"image":3006,".$":3007,"Ġris":3008,"hood":3009,"Ġfac":3010,"2014":3011,"ĠRec":3012,"Ġgoal":3013,"Ġcar":3014,"rimin":3015,"utes":3016,"Ġcour":3017,"ĠAll":3018,"Ġmap":3019,"rad":3020,"Ġmachines":3021,"Ġsteps":3022,"2019":3023,"Ġenough":3024,"ĠAt":3025,"åĩĨ":3026,"Ġsetting":3027,"ĠCan":3028,"wards":3029,"Ġfam":3030,"ç¾İ":3031,"non":3032,"Ð½":3033,"Ġexperience":3034,"ply":3035,"Ġfull":3036,"ç®Ģåįķ":3037,"Ġturn":3038,"Ġfixed":3039,"}^{(":3040,"åĪĽå»º":3041,"mbox":3042,"æľį":3043,"ici":3044,"åħĥç´ł":3045,"ope":3046,"å¢ĥ":3047,"ĠWhile":3048,"å¢ŀ":3049,"åĲ¦":3050,"ĠLearning":3051,"åĮħæĭ¬":3052,"éĻ¤":3053,"ç²":3054,"Ġlibr":3055,"Ġlearned":3056,"åŁŁ":3057,"å±ŀ":3058,"Ġ\\[[@":3059,"ived":3060,"ditional":3061,"Ġachieve":3062,"Ġcare":3063,"Ġbuild":3064,"PU":3065,"ling":3066,"å¸®":3067,"Ġsubject":3068,"point":3069,"å¼Ĥ":3070,"sib":3071,"ished":3072,"Ġener":3073,"~~":3074,"langle":3075,"Ġpolicy":3076,"Ġspeech":3077,"Ġcomputational":3078,"çĬ¶":3079,"ç®Ĺæ³ķ":3080,"sec":3081,"èĩªå·±çļĦ":3082,"Ġopen":3083,"ĠInst":3084,"ater":3085,"Ġmov":3086,"ape":3087,"Ġlarger":3088,"åĲĮæĹ¶":3089,"è¿Ļç§į":3090,"ä¹¦":3091,"ik":3092,"Ġevaluation":3093,"VM":3094,"idence":3095,"psilon":3096,"Ġproof":3097,"ÑĢ":3098,"Ġ{{\\":3099,"cent":3100,"ffor":3101,"vec":3102,"Ġname":3103,"Ġability":3104,")^":3105,"Ġtoget":3106,"Ġtogether":3107,"'ve":3108,"Ġrule":3109,"Ġchanges":3110,"Ġleft":3111,"Ġconditions":3112,"ital":3113,"Ġtransform":3114,"Ġconstant":3115,"sian":3116,"Ġamong":3117,"40":3118,"Ġspecial":3119,"Ġrequires":3120,"Ġcontains":3121,"versar":3122,"',":3123,"Ġneeds":3124,"be":3125,"æĪĸèĢħ":3126,"çĭ":3127,"train":3128,"Ġcomputing":3129,"Ġsche":3130,"ries":3131,"ody":3132,"åıį":3133,"Ġvia":3134,"Ġadditional":3135,"Ġactually":3136,"æ»":3137,"empt":3138,"è®¸":3139,"Ġattrib":3140,"è§£åĨ³":3141,"ç«ĭ":3142,"ä¿¡æģ¯":3143,"Ġgoing":3144,"icro":3145,"Ġfeed":3146,"see":3147,"*.":3148,"ç¼ĸè¯ĳ":3149,"Ġu":3150,"resh":3151,"mathsf":3152,"mer":3153,"Ġfour":3154,"by":3155,"Ġ\\|":3156,"Ġhist":3157,"Sigma":3158,"è£ħ":3159,"éĥ¨åĪĨ":3160,"Vert":3161,"day":3162,"åºĵ":3163,"ee":3164,"Ġes":3165,"Ġprec":3166,"ull":3167,"ott":3168,"omega":3169,"}=":3170,"75":3171,"atively":3172,"Ġproperties":3173,"rast":3174,"ĠSh":3175,"åĬŁèĥ½":3176,".[]{":3177,":\"":3178,"åĵį":3179,"ä¸²":3180,"Ġsays":3181,"Ġdesigned":3182,"Ġrelationship":3183,"èİ·":3184,"aries":3185,"åĸ":3186,"Ġshort":3187,"Ġrequired":3188,"éĿ¢çļĦ":3189,"Ġappear":3190,"Ġpriv":3191,"\\{":3192,"éĩĬ":3193,"Ġclassifier":3194,"Ġexisting":3195,"ĠTr":3196,"Ġenergy":3197,"ique":3198,"Ġphys":3199,"Ġevent":3200,"Ġfactor":3201,"argin":3202,"Ġtotal":3203,"ä»¥ä¸ĭ":3204,"ĠEng":3205,"è®®":3206,"ç§°":3207,"Ġtakes":3208,"Ġusers":3209,"Ġbusiness":3210,"Ġprovided":3211,"col":3212,"ĠPer":3213,"Ġexperiment":3214,"Ġhowever":3215,"'m":3216,"Ġtheory":3217,"vare":3218,"IT":3219,"ields":3220,"Ġdenot":3221,"åı¸":3222,"åĲ«":3223,"ĠSu":3224,"é»":3225,"Ġhidden":3226,"æĺĵ":3227,"CA":3228,"çĶ¨æĪ·":3229,"æł¹æį®":3230,"Python":3231,"åķ":3232,"abilities":3233,"Ġhyper":3234,"æ¡Ī":3235,"Ġrest":3236,"Ġintegr":3237,"æ°Ķ":3238,"icle":3239,"varepsilon":3240,"Ġpropose":3241,"Ġunderstanding":3242,"Ġsuper":3243,"Ġpresented":3244,"Ġblock":3245,"ç»ĵæŀľ":3246,"lex":3247,"ĠApp":3248,"Ġsimul":3249,"most":3250,"çģ":3251,"}}}}":3252,"versarial":3253,"Ġlikely":3254,"PI":3255,"way":3256,"Ġver":3257,"åĩł":3258,"Ġscience":3259,"Ġkernel":3260,"omet":3261,"Ġlife":3262,"Ġtesting":3263,"Big":3264,"ĠProgram":3265,"æ¯ıä¸ª":3266,"inter":3267,"Ġfrequ":3268,"Ġrece":3269,"ond":3270,"èĩ´":3271,"rel":3272,"Ġeasy":3273,"ĠNew":3274,"Ġbig":3275,"æ¸ħ":3276,"Ġvol":3277,"Ġseen":3278,"Ġtools":3279,"uments":3280,"thing":3281,"Ġmove":3282,"Ġcomparison":3283,"Ġsec":3284,"def":3285,"Ġindust":3286,"ä¿®":3287,"\\!":3288,"åĳ½":3289,"Ġcross":3290,"Ġanswer":3291,"Ġlot":3292,"çº§":3293,"ighb":3294,"Ġcell":3295,"Ġsimply":3296,"pri":3297,"Ġitself":3298,"Ġwritten":3299,"imensional":3300,"çİĩ":3301,"Ġ${":3302,"Ġ30":3303,"Ġfail":3304,"met":3305,"paramet":3306,"ug":3307,"åĪĨæŀĲ":3308,"jor":3309,"Ġworking":3310,"è§Ĥ":3311,"length":3312,"è¯Ŀ":3313,"Ġsignal":3314,"çİ¯å¢ĥ":3315,"fe":3316,"Ġavoid":3317,"ç»´":3318,"Ġvectors":3319,"Ġ15":3320,"å¿«":3321,"arent":3322,"bl":3323,"vant":3324,"Ġsegment":3325,"aussian":3326,"Ġbre":3327,"Ġrobust":3328,"Ġagainst":3329,"Ġexpected":3330,"ograph":3331,"nal":3332,"Ġbeg":3333,"éĺŁ":3334,"è®°":3335,"CR":3336,"Ġstrategy":3337,"Script":3338,"aging":3339,"Ġresearc":3340,"Ġelement":3341,"23":3342,"cer":3343,"æ¨¡å¼ı":3344,"åħ¬åı¸":3345,"Ġselection":3346,"æ£":3347,"Ġsolutions":3348,"èĮ":3349,"ird":3350,"Ġdiscrimin":3351,"wor":3352,")=":3353,"like":3354,"pth":3355,"ĠFirst":3356,"Ġbinary":3357,"Ġaccount":3358,"Ġpersonal":3359,"ĠFurther":3360,"ä»¥åıĬ":3361,"ype":3362,"ĠBe":3363,"Ġface":3364,"ift":3365,"çļĦæĺ¯":3366,"Ġwhy":3367,"Ġ($":3368,"ĠBayes":3369,"éĵ":3370,"psi":3371,"Ġobjective":3372,"éĴĪ":3373,"AT":3374,"Ġabstract":3375,"pot":3376,"Ġoperations":3377,"ĠFinally":3378,"Ġspeed":3379,"Ġzero":3380,"æ·±":3381,"Ġauthor":3382,"Ġfully":3383,"å¸®åĬ©":3384,"è¯ģ":3385,"Ġdescript":3386,"çĦ¶åĲİ":3387,"é¥":3388,"Ġnumbers":3389,"èĭ":3390,"Ġdig":3391,"ä»·":3392,"Ġeffective":3393,"Ġdetails":3394,"Ġassociated":3395,"ogle":3396,"Ġsolve":3397,"89":3398,"Ġengine":3399,"AI":3400,"å¤ĩ":3401,"Ġadvanta":3402,"SE":3403,"éĢŁ":3404,"èĦ":3405,"Ġapply":3406,"æŁĲ":3407,"Ġpoly":3408,"ĠMach":3409,"tic":3410,"å±Ĥ":3411,"Ġcollect":3412,"more":3413,"Ġillustr":3414,"Ġgame":3415,"éĶ®":3416,"æīį":3417,"]$":3418,"Ġinference":3419,"Ġaccur":3420,"ologies":3421,"alk":3422,"Ġalong":3423,"isc":3424,"Ġrecent":3425,"Ġhaving":3426,"åĪĿ":3427,"Ġrecomm":3428,"Ġcompare":3429,"indow":3430,"son":3431,"iate":3432,"irt":3433,"åħ±":3434,"Ġlabels":3435,"Ġincreasing":3436,"Ġmus":3437,"ional":3438,"oh":3439,"acy":3440,"urity":3441,"Ġeth":3442,"ands":3443,"Ġfore":3444,"STM":3445,"å®¢":3446,"Ġnegative":3447,"Ġregression":3448,"ĠData":3449,"Ġsort":3450,"pd":3451,"supervised":3452,"az":3453,"æİ¨":3454,"Ġrepresentations":3455,"Ġq":3456,"Ġdoesn":3457,"Ġfunctional":3458,"ç»Ĩ":3459,"Ġequival":3460,"ingu":3461,"ĠNetwork":3462,"Ġcourse":3463,"åĨħå®¹":3464,"Ex":3465,"Ġprinc":3466,"ounds":3467,")(":3468,"wh":3469,"45":3470,"09":3471,"ĠEach":3472,"Ġfilter":3473,"dimensional":3474,"Ġ16":3475,"Ġscient":3476,"å¼Ģå§ĭ":3477,"Ġbecom":3478,"Ġep":3479,"éĻħ":3480,"å¾Īå¤ļ":3481,"å¸Ĥ":3482,"æĹ¥":3483,"é¦ĸ":3484,"Ġmess":3485,"Ġincrease":3486,"35":3487,"ä½ľä¸º":3488,"Ġmajor":3489,"Ġplace":3490,"Ġdri":3491,"Ġkeep":3492,"Ġpix":3493,"linear":3494,"å·²ç»ı":3495,"cm":3496,"bject":3497,"mit":3498,"Ġloo":3499,"Ġcaus":3500,"sens":3501,"æĸĻ":3502,"plies":3503,"çķĮ":3504,"nu":3505,"åı¦":3506,"ID":3507,"erial":3508,"è¡¨è¾¾":3509,"Ġcomponents":3510,"Ġfl":3511,"Ġvert":3512,"æķĻ":3513,"Ġothers":3514,"position":3515,"ret":3516,"wide":3517,"Ġfit":3518,"Ġquestions":3519,"åİĨ":3520,"è¯¯":3521,"ĠArt":3522,"unction":3523,"ä¸įåĲĮçļĦ":3524,"å½±åĵį":3525,"Ġconcern":3526,"åĽ½":3527,"ceed":3528,"Ġ${{\\":3529,"Ġcompute":3530,"çĲĨè§£":3531,"Ġusually":3532,"Ġsitu":3533,"Ġreference":3534,"Ġissu":3535,"imits":3536,"ĠNow":3537,"Ġpopular":3538,"ches":3539,"\\],":3540,"é£Ł":3541,"ç»§":3542,"çĶ¨äºİ":3543,"}}{\\":3544,"85":3545,"Ġside":3546,"ĠOver":3547,"Ġmeaning":3548,"erve":3549,"led":3550,"ä¹ĭéĹ´":3551,"Ġwhole":3552,"Ġedge":3553,".)":3554,"Ġrow":3555,"ä»¤":3556,"èĩ³":3557,"gorithm":3558,"clusion":3559,"Ł³":3560,"$)":3561,"Ġperformed":3562,"Ġhead":3563,"ç±»çļĦ":3564,"æİ§":3565,"ĠSome":3566,"ä»ħ":3567,"arse":3568,"84":3569,"Ġonline":3570,"Ġactions":3571,"earch":3572,"Ġkind":3573,"ä»»åĬ¡":3574,"Ġexplicit":3575,"Ġbasic":3576,"ger":3577,"Ġcompet":3578,"Ġprocedure":3579,"Ġindependent":3580,"Ġassume":3581,"è¡¨ç¤º":3582,"Ġevaluate":3583,"Ġconvolutional":3584,"29":3585,"Ġbit":3586,"Ġput":3587,"Ġparallel":3588,"87":3589,"Ġsimpl":3590,"Ġfile":3591,"Ġeffor":3592,"conom":3593,"agement":3594,"ãģ":3595,"Ġobserved":3596,"å¾ª":3597,"Ġareas":3598,"65":3599,"Ġimplemented":3600,"Ġsubset":3601,"ega":3602,"Ġliter":3603,"ä¾¿":3604,"Ġsentence":3605,"Ġneighb":3606,"Ġformul":3607,"Ġchoice":3608,"rec":3609,"IN":3610,"Ġneeded":3611,"æľįåĬ¡":3612,"è§ģ":3613,"Ġentire":3614,"ĠEn":3615,"Ġskill":3616,"Ġvideo":3617,"çĲĥ":3618,"äºĴ":3619,"hesis":3620,"Ġincor":3621,"Ġarea":3622,"Ġclear":3623,"perform":3624,"äºĨè§£":3625,"Ġsymbol":3626,"ç¤¾":3627,"ends":3628,"Ġcoll":3629,"é¡»":3630,"Ġneurons":3631,"Pro":3632,"Ġprint":3633,"ging":3634,"æ¯Ķè¾ĥ":3635,"07":3636,"Ġnever":3637,"Ġresources":3638,"atform":3639,"Ġscale":3640,"Ġexpression":3641,"Ġassign":3642,"Ġaltern":3643,"æ³¨æĦı":3644,"å¸¦":3645,"Ġcheck":3646,"27":3647,"overline":3648,"æİ¥åı£":3649,"èĲ":3650,"St":3651,"ensity":3652,"ĠTrans":3653,"é£İ":3654,"Ġissues":3655,"matrix":3656,"åŃĹç¬¦ä¸²":3657,"Ġmathemat":3658,";\\":3659,"Ġconv":3660,"Ġunit":3661,"Ġsampling":3662,"Ġanalyze":3663,"Ġestimate":3664,"Ġstring":3665,"}},":3666,"Ġaim":3667,"Ġsmaller":3668,"Ġconstraints":3669,"ç¦":3670,"}})":3671,"new":3672,"éĥ½æĺ¯":3673,".*":3674,"åŃĺåľ¨":3675,"æĶ¯æĮģ":3676,"uro":3677,"know":3678,"ĠGaussian":3679,"ä¸»è¦ģ":3680,"[^":3681,"ĠRob":3682,"Ġcommunity":3683,"Ġsemantic":3684,"Ġau":3685,"æıĲé«ĺ":3686,"onal":3687,"pir":3688,"ibility":3689,"ories":3690,"Ġpractice":3691,"çľŁ":3692,"Ġaffect":3693,"Ġprocesses":3694,"67":3695,"ample":3696,"Phi":3697,"Ġchann":3698,"play":3699,"box":3700,"Ġmaximum":3701,"Om":3702,"Ġcolumn":3703,"ĠScience":3704,"ĠFrom":3705,"iciency":3706,"subset":3707,"Ġwriting":3708,"exp":3709,"learning":3710,"Con":3711,"ferences":3712,"nonumber":3713,"ground":3714,"Ġdynamic":3715,"èĥ":3716,"âĢľ":3717,"âĢĿ":3718,"off":3719,"Ġoperation":3720,"å¿ħé¡»":3721,"reen":3722,"iting":3723,"Ġcy":3724,"Ġtranslation":3725,"Ġcreated":3726,"Ġ25":3727,"ren":3728,"Ġestimation":3729,"æ¯Ķå¦Ĥ":3730,"Ġinteresting":3731,"Ġsw":3732,"éļ¾":3733,"ĠTechn":3734,"Ġdatab":3735,"ï¼ī":3736,"Ġbo":3737,"Ġsynta":3738,"Ġagents":3739,"isions":3740,"ides":3741,"table":3742,"Ġflow":3743,"Ġloop":3744,"Ġdecl":3745,"vex":3746,"Ġselected":3747,"æ¼":3748,"force":3749,"Ġtherefore":3750,"izations":3751,"Ġequal":3752,"æĬ¤":3753,"åŁºæľ¬":3754,"Ġerrors":3755,"ä»»ä½ķ":3756,"ton":3757,"cale":3758,"Ġindex":3759,"Ġtreat":3760,"Ġcomputed":3761,"Ġconvergence":3762,"Ġstructures":3763,"ults":3764,"Ġnecessary":3765,"Ġsignificantly":3766,"orph":3767,"ĠResearch":3768,"Ġones":3769,"Ġcome":3770,"åĥ":3771,"Ġscenari":3772,":\"){":3773,"Omega":3774,"å®īåħ¨":3775,"mid":3776,"LP":3777,"gress":3778,"Ġinvestig":3779,"Ġunique":3780,"alse":3781,"Ġeasily":3782,"æ¶Ī":3783,"çĻ":3784,"ifically":3785,"Ġdenote":3786,"Ġproduce":3787,"ĠGoogle":3788,"Ġthread":3789,";\">":3790,"Ġessential":3791,"ining":3792,"Ġmix":3793,"Ġground":3794,"34":3795,"iers":3796,"Ġemot":3797,"=\";\">":3798,"inking":3799,"æ¦Ĥ":3800,"fully":3801,"è¶³":3802,"Ġcam":3803,"ç§ĳ":3804,"ĠAr":3805,")}\\":3806,"Ġupdate":3807,"è·¯":3808,"Ġrisk":3809,"ensive":3810,"Ġbuilding":3811,"Ġnote":3812,"Ġannot":3813,"ç»Ń":3814,"AC":3815,"æ¸¸":3816,"ips":3817,"Ġfree":3818,"Ġbelow":3819,"net":3820,"Ã©":3821,"iving":3822,"Ġquite":3823,"Ġsynt":3824,"Ġresearchers":3825,"SP":3826,"Ġarray":3827,"ensor":3828,"ä½łçļĦ":3829,"pecially":3830,"Ġcirc":3831,"NI":3832,"ä»ĭ":3833,"Ġproperty":3834,"æĿĤ":3835,"Ġreview":3836,"Ġgives":3837,"æĺ¯åĲ¦":3838,"Ġrefer":3839,"æīĵ":3840,"Ġsupp":3841,"ierarch":3842,"Ġher":3843,"ĠSystem":3844,"èį":3845,"2013":3846,"OP":3847,"å®ĮæĪĲ":3848,"Ġcomputers":3849,"åĥı":3850,"åħ³ç³»":3851,"å¹¶ä¸Ķ":3852,"ring":3853,"onom":3854,"Ġinstances":3855,"istical":3856,"mathit":3857,"Ġbase":3858,"ah":3859,"Ġcompos":3860,"å¼ķçĶ¨":3861,"è®¿":3862,"Ġearly":3863,"ĠPh":3864,"Ġshe":3865,"Ġgeneration":3866,"Ġinterface":3867,"opy":3868,"Ġintroduced":3869,"Ġlimited":3870,"urb":3871,"struct":3872,"Ġapproximation":3873,"æĲ":3874,"Ġcontinuous":3875,"AM":3876,"ä¸ºäºĨ":3877,"Ġnovel":3878,"Ġbegin":3879,"Gamma":3880,"Ġsus":3881,"Ġrole":3882,"è¯Ńåı¥":3883,"ĠExper":3884,"ï¼Ī":3885,"è½¯":3886,"Ġadversarial":3887,"Ġrecommend":3888,"è§Ĩ":3889,"Ġfig":3890,"Ġargument":3891,"Ġcompiler":3892,"Ġresulting":3893,"Ġrepresents":3894,"Ġrelevant":3895,"Ġ\\,":3896,"Ġaspect":3897,"ĠTheorem":3898,"Ġspect":3899,"ochastic":3900,"ordin":3901,"å£°":3902,"ç¥":3903,"Ġetc":3904,"95":3905,"å®ŀä¾ĭ":3906,"rary":3907,"BM":3908,"Ġtechnique":3909,"idem":3910,"è¯į":3911,"Ġdoing":3912,"21":3913,"We":3914,"Ġnumer":3915,"Ġtraditional":3916,"order":3917,"å±ŀæĢ§":3918,"Ġdistributions":3919,"Ġcontent":3920,"appa":3921,"Ġtransition":3922,"Ġdocument":3923,"Ġteam":3924,"Ġrecon":3925,"è¶Ĭ":3926,"ler":3927,"Ġthing":3928,"\\}$":3929,"ĠDeep":3930,"Ġpredictions":3931,"Ġsqu":3932,"éĶģ":3933,"Ġlittle":3934,"}|":3935,"ĠMoreover":3936,"çħ":3937,"çļĦæĹ¶åĢĻ":3938,"OS":3939,"mark":3940,"è½½":3941,"ĠDes":3942,"Ġnam":3943,"Ġjoint":3944,"Ġflo":3945,"Ġinputs":3946,"çĸ":3947,"åħį":3948,"Ġ14":3949,"Ġthresh":3950,"ĠUsing":3951,"Ġhypot":3952,"é¢Ħ":3953,"åĳ³":3954,"éĢļå¸¸":3955,"Ġmodule":3956,"Ġ13":3957,"Ġsure":3958,"Ġparts":3959,"Ġcomplete":3960,"æµĭè¯ķ":3961,"åĤ¨":3962,"æĸ°çļĦ":3963,"éĹ¨":3964,"Ġmind":3965,"cup":3966,"Ġseries":3967,"ç®¡çĲĨ":3968,"Ġmention":3969,"Ġiss":3970,"Ġplatform":3971,"åıĳå±ķ":3972,"æĺ¾":3973,"}}{":3974,"was":3975,"Ġproviding":3976,"Ġresponse":3977,"irtual":3978,"elihood":3979,"Ġutil":3980,"Ġaud":3981,"\\[":3982,"Ġissue":3983,"elligent":3984,"iform":3985,"Ġdeal":3986,"çĬ¶æĢģ":3987,"ç©ºéĹ´":3988,"é¢Ĩ":3989,"Ġfinding":3990,"Ġcomponent":3991,"å®ļçļĦ":3992,"known":3993,"Ġpossib":3994,"åĩı":3995,"num":3996,"Ġoperator":3997,"çĽ´æİ¥":3998,"Ġè¿Ļ":3999,"Ġstatic":4000,"di":4001,")}$":4002,"éĶĻè¯¯":4003,"onts":4004,"èĥ½åĬĽ":4005,"é¡¹çĽ®":4006,"ĠMachine":4007,"Ġeffects":4008,"AP":4009,"setlength":4010,"Ġuntil":4011,"Ġadj":4012,"ĠNo":4013,"86":4014,"cdots":4015,"tical":4016,"pped":4017,"poral":4018,"uning":4019,"ä¸įèĥ½":4020,"itle":4021,"Ġstudents":4022,"Ġlater":4023,"Ġonce":4024,"ault":4025,"èĻĳ":4026,"Ġcapture":4027,"æıı":4028,"Ġmill":4029,"Ġconsists":4030,"Ġlogic":4031,"06":4032,"Ġmiss":4033,"Ġfaster":4034,"åħ·æľī":4035,"Ġclose":4036,"Ġ(*":4037,"pled":4038,"å¤§çļĦ":4039,"éļı":4040,"ude":4041,"}}^":4042,"Ġspat":4043,"kappa":4044,"ä¸įä¼ļ":4045,"Ġpairs":4046,"pag":4047,"ensions":4048,"Ġmaintain":4049,"Ġindividuals":4050,"ç´¢":4051,"minimal":4052,"åĳ¢":4053,"æĻ¯":4054,"ON":4055,"ç¨ĭåºıåĳĺ":4056,"Ġchoose":4057,"Ġwhose":4058,"mod":4059,"Ġconfig":4060,"widehat":4061,"Ġlevels":4062,"Ġexists":4063,"Ġå¦Ĥæŀľ":4064,"Ġoverall":4065,"Ġincludes":4066,"ĠGiven":4067,"å®ŀéĻħ":4068,"aim":4069,"ymb":4070,"rete":4071,"actions":4072,"ET":4073,"å¾ªçİ¯":4074,"Ġmaps":4075,"å®ĥçļĦ":4076,"Ġtaking":4077,"}{-":4078,"è®¿éĹ®":4079,"ĠNot":4080,"Ġquick":4081,"Ġbenefits":4082,"arant":4083,"å¸ĥ":4084,"Th":4085,"Ġintroduce":4086,"Ġreward":4087,"ises":4088,"Ġdeveloper":4089,"sensors":4090,"Ġeduc":4091,"Ġdepth":4092,"Ġalmost":4093,"Ġtable":4094,"Ġcomplet":4095,"ken":4096,"Ġcommunication":4097,"çİ°åľ¨":4098,"å¤įæĿĤ":4099,"Ġfeel":4100,"Ġiteration":4101,"gies":4102,"Ġchild":4103,"ĠBayesian":4104,"è´¹":4105,"Ġgain":4106,"Ġdecre":4107,"osen":4108,"odds":4109,"rsf":4110,"æī¿":4111,"(\"":4112,"Ġcontrast":4113,"rsfs":4114,"mathrsfs":4115,"ä¹Ĳ":4116,"bsy":4117,"documentclass":4118,"ffic":4119,"Ġsufficient":4120,"éĩĩ":4121,"amss":4122,"amsf":4123,"amsmath":4124,"amsfonts":4125,"ĠAlgorithm":4126,"amssymb":4127,"amsbsy":4128,"head":4129,"greek":4130,"Ġpast":4131,"ç¼ĸåĨĻ":4132,"Ġlatent":4133,"Ġgroups":4134,"_{{\\":4135,"upgreek":4136,"83":4137,"Ġtheore":4138,"æľª":4139,"Ġlight":4140,"ysym":4141,"wasysym":4142,"png":4143,"å¿µ":4144,"Ġregard":4145,"emma":4146,"idemargin":4147,"oddsidemargin":4148,"Ġsimilarity":4149,"]{}]{}":4150,"Ġeconom":4151,"Ġconnected":4152,"ĠAcc":4153,"å»ºè®®":4154,"å¤´":4155,"åĪĴ":4156,"ĠIntern":4157,"ocks":4158,"Ġbuilt":4159,"å¤ª":4160,"ĠAfter":4161,"Ġinflu":4162,"Ġprim":4163,"Ġexactly":4164,"Ġefficiency":4165,"éĻĲ":4166,"ĠGener":4167,"ii":4168,"____":4169,"ĠIs":4170,"ĠComputer":4171,"Ġespecially":4172,"Ġbecomes":4173,"Ġfast":4174,"Ġbias":4175,"äº§åĵģ":4176,"çīĪ":4177,"Ġabs":4178,"Ġdistributed":4179,"IF":4180,"èģĶ":4181,"åĮħåĲ«":4182,"26":4183,"})\\":4184,"è¾ĵåħ¥":4185,"anies":4186,"å¯¹è±¡çļĦ":4187,"star":4188,"ĠCol":4189,"Ġprofess":4190,"ike":4191,"sem":4192,"ä½ľçĶ¨":4193,"Ġdescribe":4194,"Ġarticle":4195,"Ġhar":4196,"Ġchallenges":4197,"è½¦":4198,"éĢĴ":4199,"Ġsoci":4200,"Ġoffer":4201,"arily":4202,"side":4203,"Ġfinite":4204,"vious":4205,"Ġprinci":4206,"Ġlibrary":4207,"Ġconduct":4208,"Ġachieved":4209,"çŁ¥éģĵ":4210,"bib":4211,"ä¼¼":4212,"Ġinteract":4213,"èĮĥ":4214,"Ġred":4215,"cle":4216,"DP":4217,"mine":4218,"70":4219,"CNN":4220,"Ġoutperform":4221,"Ġbaseline":4222,"Ġfactors":4223,"Ġrepresented":4224,"äº«":4225,"Ġholds":4226,"Ġappropri":4227,"Ġphase":4228,"ĠEq":4229,"Ġexc":4230,"28":4231,"Ġtransfer":4232,"ĠFurthermore":4233,"go":4234,"éŁ³":4235,"Ġguarant":4236,"ä½İ":4237,"Ġconvers":4238,"ä¾Ŀ":4239,"IC":4240,"Re":4241,"Ġyet":4242,"Ġmechanism":4243,"iation":4244,"rap":4245,"Ġsl":4246,"ĠIntelligence":4247,"Ġtell":4248,"Ġhighly":4249,"Ġcompany":4250,"æĽ´åĬł":4251,"clus":4252,"Ġevents":4253,"self":4254,"pdf":4255,"Ġ24":4256,"erior":4257,"çŁ":4258,"Ġ$\\{":4259,"æĻº":4260,"ilde":4261,"Ġinterpret":4262,"ulti":4263,"å±Ģ":4264,"ç¡Ģ":4265,"Ġautomat":4266,"aut":4267,"åŁºç¡Ģ":4268,"erc":4269,"enge":4270,"soft":4271,"Ġclustering":4272,"ä¸ĵ":4273,"Ġtaken":4274,"2012":4275,"Ġday":4276,"ä¸Ģä¸ĭ":4277,"æĿ¥è¯´":4278,"Ġsequences":4279,"isp":4280,"Ġassist":4281,"Ġaccurate":4282,"ream":4283,"Ġseems":4284,"ĠOr":4285,"ĠArtificial":4286,"Ġvariance":4287,"Ġdecisions":4288,"Theta":4289,"Ġfair":4290,"æĪĳä»¬åı¯ä»¥":4291,"come":4292,"Ġcombination":4293,"imate":4294,"Ġrunning":4295,"nother":4296,"Ġtechnologies":4297,"Ġcand":4298,"æ£Ģ":4299,"]).":4300,"sm":4301,"ĠDo":4302,"ser":4303,"bi":4304,"çĭ¬":4305,"39":4306,"æĮī":4307,"Ġask":4308,"æľĢåĲİ":4309,"æİ§åĪ¶":4310,"Ġregion":4311,"\\%":4312,"Ġrandomly":4313,"Ġstack":4314,"æ»¡":4315,"Ġinteger":4316,"chron":4317,"åħ³éĶ®":4318,"'$":4319,"è§Ĵ":4320,"Ġconstraint":4321,")-":4322,"ä¹Łæĺ¯":4323,"ĠAlthough":4324,"çŃĶ":4325,"è¾ĵåĩº":4326,"Ġrat":4327,"Ġdel":4328,"ç»Ī":4329,"æĮĩéĴĪ":4330,"åł":4331,"omial":4332,"CM":4333,"Ġmarket":4334,"Ġelect":4335,"ç»į":4336,"uration":4337,"Ġhierarch":4338,"åĶ":4339,"{{":4340,"uman":4341,"Ġrestr":4342,"æŀģ":4343,"ä»ĭç»į":4344,"çŁ¥è¯Ĩ":4345,"ç¯":4346,"Ġstudies":4347,"Ġadded":4348,"Ġequivalent":4349,"iences":4350,"Ġaccept":4351,"Ġethical":4352,"ili":4353,"èĢĥèĻĳ":4354,"ç²¾":4355,"Ġ~":4356,"ously":4357,"ooth":4358,"cks":4359,"Ġelse":4360,"rices":4361,"Ġplan":4362,"Ġvalidation":4363,"care":4364,"å·¥åħ·":4365,"Ġdegree":4366,"Ġphysical":4367,"Ġexplore":4368,"arl":4369,"Ġincorpor":4370,"Ġcomes":4371,"Ġcollection":4372,"ĠQu":4373,"Ġcandid":4374,"ĠAnother":4375,"LE":4376,"Ġmodeling":4377,"Ġmaterial":4378,"æ¤":4379,"åĳĬ":4380,"Ġbro":4381,"æŀ¶":4382,"forall":4383,"08":4384,"37":4385,"MM":4386,"varphi":4387,"DA":4388,"ged":4389,"ĠLemma":4390,"Ġtransl":4391,"Ġdetermine":4392,"Ġstatistical":4393,"Ġskills":4394,"iable":4395,"Ġunits":4396,"yp":4397,"åħ·ä½ĵ":4398,"Ġchosen":4399,"rr":4400,"bra":4401,"Ġparticip":4402,"circ":4403,"Ġlink":4404,"æĺŁ":4405,"linewidth":4406,"ues":4407,"ĠExperim":4408,"åģ¥":4409,"ĠÂ":4410,"èĬ±":4411,"ognitive":4412,"Ġbehavi":4413,"Ġcreating":4414,"èı":4415,"ĠSimilar":4416,"Ġevolution":4417,"Ġactivation":4418,"ayer":4419,"ç»ĥ":4420,"print":4421,"åĪĩ":4422,"åĵª":4423,"Ġdirection":4424,"çĶŁæĪĲ":4425,"æĽ´å¤ļ":4426,"Ġcore":4427,"å°½":4428,"Ġslow":4429,"è¿Ĳç®Ĺ":4430,"Ġtypically":4431,"cessing":4432,"Ġvariety":4433,"pone":4434,"Ġspeak":4435,"Ġenh":4436,"ending":4437,"sk":4438,"æł¸":4439,"Ġfeedback":4440,"Ġge":4441,"åŃĺåĤ¨":4442,"Ġcover":4443,"Ġfund":4444,"Cl":4445,"Ġadvantage":4446,"}$\\":4447,"Ġnature":4448,"Ġpractical":4449,"Ġvision":4450,"çĽ®æłĩ":4451,"å¾ĹåĪ°":4452,"GAN":4453,"Ġauthors":4454,"å½ķ":4455,"encies":4456,"Ġconsum":4457,"Ġbox":4458,"Ð»":4459,"ounter":4460,"Ġstrategies":4461,"æĸ¹éĿ¢":4462,"rie":4463,"çĽ¸åħ³":4464,"åı°":4465,"Ġlines":4466,"Ġprove":4467,"Ġbench":4468,"Ġeasier":4469,"æłĪ":4470,"Ġnorm":4471,"è½¯ä»¶":4472,"Ġattempt":4473,"Ġbody":4474,"*)":4475,"itor":4476,"æĪĳä»¬çļĦ":4477,"æııè¿°":4478,"ohn":4479,"elves":4480,"æľĽ":4481,"Ġmatching":4482,"å¹¿":4483,"Ġimportance":4484,"under":4485,"æĿĲ":4486,"Ġgenerally":4487,"ĠTuring":4488,"Ġwon":4489,"ses":4490,"}}^{":4491,"Ġestabl":4492,"ctor":4493,"aged":4494,"Ġsecurity":4495,"Ġdemonstrate":4496,"rics":4497,"49":4498,"Ġsegmentation":4499,"pportun":4500,"Ġlocation":4501,"etilde":4502,"eed":4503,"widetilde":4504,"Ġposterior":4505,"Ġprogress":4506,"Ġcoordin":4507,"Ġthought":4508,"OR":4509,"Ġjobs":4510,"ropy":4511,"Ġideas":4512,"Ġreach":4513,"åķĨ":4514,"Ġpowerful":4515,"Ġexpon":4516,"anced":4517,"é¦ĸåħĪ":4518,"ember":4519,"Ġ17":4520,"Ġadopt":4521,"éģ¿":4522,"etic":4523,"ĠMat":4524,"che":4525,"ĠNeural":4526,"é©":4527,"anguage":4528,"Ġdatabase":4529,"Ġremov":4530,"style":4531,"Ġmatrices":4532,"fect":4533,"roduction":4534,"Ġmom":4535,"izer":4536,"ĠPl":4537,"Ġvirtual":4538,"æĺ¯ä¸Ģç§į":4539,"Ġinequ":4540,"Ġmut":4541,"æĺ¯ä¸Ģ":4542,"itute":4543,"36":4544,"éĶĢ":4545,"Ġedges":4546,"Ġempir":4547,"anning":4548,"ç§¯":4549,"taint":4550,"Ġattack":4551,"Ġarbit":4552,"ene":4553,"Ġdraw":4554,"Ġcoe":4555,"äº§çĶŁ":4556,"')":4557,"Ġquery":4558,"Ġexcept":4559,"åĩºçİ°":4560,"Ġtoday":4561,"ĠProgramming":4562,"çĶ±äºİ":4563,"LU":4564,"ĠModel":4565,"*]{},":4566,"lish":4567,"Ġsubst":4568,"ä»½":4569,"Ġcompanies":4570,"æİĴåºı":4571,"Ġuniform":4572,"Ġleads":4573,"Ġthreshold":4574,"Ġsparse":4575,"AE":4576,"Ġemer":4577,"atory":4578,"Ġcolor":4579,"ä¸ĬçļĦ":4580,"/\\":4581,"Ġfine":4582,"scale":4583,"Ġbasis":4584,"Ġoutputs":4585,"ifying":4586,"Ġregions":4587,"oura":4588,"nov":4589,"Ġcult":4590,"Ġcontroll":4591,"åħ¶ä¸Ń":4592,"å¯¼èĩ´":4593,"Ġfive":4594,"Ġrelation":4595,"Ġparticularly":4596,"Ġtowards":4597,"iveness":4598,"];":4599,"Ġcomb":4600,"Ġmeasures":4601,"chool":4602,"Ġstochastic":4603,"map":4604,"aced":4605,"Ġexecution":4606,"Ġcontin":4607,"ĠBl":4608,"Ġassumption":4609,"ln":4610,"Ġmetric":4611,"ration":4612,"å¦Ĥä¸ĭ":4613,"}-":4614,"éĵ¾":4615,"Ġguid":4616,"ĠMark":4617,"where":4618,"Ġprogrammers":4619,"Ġdem":4620,"Ġrank":4621,"Le":4622,"çļĦä»£çłģ":4623,"Ġimprovement":4624,"è§ī":4625,"çļĦæĸ¹æ³ķ":4626,"Ġ[[":4627,"Ġexplo":4628,"DE":4629,"æĬ½":4630,"çĮ":4631,"Ġupper":4632,"æ¨¡åŀĭ":4633,"limits":4634,"å¤ļä¸ª":4635,"ä¸ĸ":4636,"Ġcritical":4637,"Ġopportun":4638,"itch":4639,"PS":4640,"è®²":4641,"era":4642,"ocal":4643,"ç¯ĩ":4644,"Ġsources":4645,"è¾ĳ":4646,"Ġold":4647,"Ġshared":4648,"ĠHence":4649,"prime":4650,"PR":4651,"Ġseem":4652,"Ġmapping":4653,"çłĶ":4654,"Ġindustry":4655,"79":4656,"igen":4657,"Ġsolving":4658,"Ġactivity":4659,"ĠConsid":4660,"iod":4661,"}=\\":4662,"Ġscheme":4663,"Ġbelieve":4664,"split":4665,"åħī":4666,"Ġimproved":4667,"spec":4668,"ç«¯":4669,"hib":4670,"ç§»":4671,"orn":4672,"Ġ;":4673,"æľīä¸Ģä¸ª":4674,"éĿĻ":4675,"Ġweak":4676,"ĠComp":4677,"au":4678,"Ġdistin":4679,"Ġdenotes":4680,"hing":4681,"Ġmanagement":4682,"éĩĳ":4683,"Ġspatial":4684,"cap":4685,"ĠClass":4686,"Ġlooking":4687,"Ġ]{}":4688,"Ġscores":4689,"æ¬¢":4690,"è¿ĻéĩĮ":4691,"use":4692,"GD":4693,"Ġcustomer":4694,"Ġmusic":4695,"ĠAnal":4696,"pus":4697,"Ġclaim":4698,"Ġhistory":4699,"isms":4700,"with":4701,"oud":4702,"åĲĦç§į":4703,"è¿Ľç¨ĭ":4704,"Ġevaluated":4705,"Ġquantum":4706,"Ġconcepts":4707,"Ġtests":4708,"}^\\":4709,"Ġforward":4710,"Ġiterations":4711,"Ġsyntax":4712,"Ġbatch":4713,"éľĢæ±Ĥ":4714,"Ġrelative":4715,"Ġconvex":4716,"å¾Ģ":4717,"èµĦæºĲ":4718,"åıĳçİ°":4719,"Ġstore":4720,"af":4721,"Ġmis":4722,"lease":4723,"Ġservice":4724,"æĪĲåĳĺ":4725,"neq":4726,"Ġstage":4727,"Ġç¬¬":4728,"è¿ŀ":4729,"Ġminimum":4730,"Ġthird":4731,"ography":4732,"çļĦäºº":4733,"ĠOther":4734,"Ġrecently":4735,"ĠOverall":4736,"Ġdiscussed":4737,"Ġappropriate":4738,"ä¿ĿæĮģ":4739,"Ġunderlying":4740,"Ġsummar":4741,"Ġrepe":4742,"Ġlaw":4743,"Ġactual":4744,"nc":4745,"Com":4746,"ched":4747,"æŀĦéĢł":4748,"ĠSpec":4749,"load":4750,"ĠObject":4751,"Ġ_":4752,"aring":4753,"}}}\\":4754,"att":4755,"bu":4756,"æľĪ":4757,"value":4758,"subseteq":4759,"iented":4760,"å¼Ĥå¸¸":4761,"Ġfigure":4762,"Ġport":4763,"æĸĩç«ł":4764,"yond":4765,"çĶŁæ´»":4766,"ä¾ĭåŃĲ":4767,"ottom":4768,"Ġdensity":4769,"Ġsym":4770,"HP":4771,"Ġarchitectures":4772,"Ġpool":4773,"è¡¨è¾¾å¼ı":4774,"ecause":4775,"Ġextre":4776,"éģ¿åħį":4777,"Ġgraphs":4778,"word":4779,"ours":4780,"itable":4781,"Ġmental":4782,"gener":4783,"CC":4784,"Ġpredicted":4785,"Ġhappen":4786,"å¡":4787,"semb":4788,"Ġautomatically":4789,"Ġinsight":4790,"è®¡ç®Ĺæľº":4791,"alf":4792,"Ġseparate":4793,"=\"}](":4794,"ĠInd":4795,"AL":4796,"certaint":4797,"90":4798,"Ġexperimental":4799,"ĠYes":4800,"Ġleading":4801,"Ġfields":4802,"Ġembeddings":4803,"Ġdynamics":4804,"ĠLSTM":4805,"Ġrecurs":4806,"Ġgreater":4807,"Ġsplit":4808,"ĠJavaScript":4809,"test":4810,"Ġincreases":4811,"inite":4812,"elines":4813,"Ġbreak":4814,"Ġdecom":4815,"Ġ40":4816,"Ġdepends":4817,"Ġintelligent":4818,"Ġå½ĵ":4819,"Ġ18":4820,"Ġinteraction":4821,"è§£éĩĬ":4822,"è¿ĺæĺ¯":4823,"ariance":4824,"Ġpie":4825,"Ġpurpose":4826,"çŃĸ":4827,"ĠAlso":4828,"mm":4829,"tings":4830,"OC":4831,"Ġaugment":4832,"Ġwater":4833,"åįı":4834,"å¸Į":4835,"çķ¥":4836,"Ġhandle":4837,"Ġarguments":4838,"ç¦»":4839,"ĠMe":4840,"OM":4841,"ĠMon":4842,"Ġfood":4843,"Ġ$(\\":4844,"ç©¶":4845,"Ġlikelihood":4846,"Ġprobably":4847,"Ġprevent":4848,"gs":4849,"åħħ":4850,"ste":4851,"Ġtitle":4852,"Ġsignals":4853,"å¢ŀåĬł":4854,"eter":4855,"åĽ´":4856,"Ġoccur":4857,"Ġdifferences":4858,"Ġformal":4859,"\\])":4860,"Ġrestrict":4861,"æ¨¡åĿĹ":4862,"è®¸å¤ļ":4863,"\\}":4864,"è¡Įä¸º":4865,"world":4866,"Ġassess":4867,"ĠML":4868,"Ġeffectively":4869,"ĠIntroduction":4870,"ĠSp":4871,"Ġprogrammer":4872,"Ġsaf":4873,"è½»":4874,"Ġpp":4875,"Ġcriter":4876,"å¤±":4877,"è®¤ä¸º":4878,"Ġlonger":4879,"æĿ¡ä»¶":4880,"land":4881,"oot":4882,"Ġsimulation":4883,"åįĩ":4884,"Ġalloc":4885,"Ġcollabor":4886,"Ġchallenge":4887,"Ġimplies":4888,"ĠMicro":4889,"rid":4890,"ä¹ĭåīį":4891,"å£°æĺİ":4892,"Ġ%":4893,"ç»§æī¿":4894,"çħ§":4895,"Ġregularization":4896,"48":4897,"sl":4898,"ees":4899,"Ġshare":4900,"Ġframe":4901,"ç¼ĸç¨ĭè¯Ńè¨Ģ":4902,"Ġdevices":4903,"çīĩ":4904,"å¸Ī":4905,"}({\\":4906,"ä¹Łåı¯ä»¥":4907,"Ġprotect":4908,"Ġobservations":4909,"Ġtrac":4910,"çļĦæķ°æį®":4911,"Ġstatement":4912,"åıĳçĶŁ":4913,"ĠAut":4914,"Ġequation":4915,"ale":4916,"åĽ¢":4917,"å®¹æĺĵ":4918,"Ñĥ":4919,"Ġpopulation":4920,"çª":4921,"èĻļ":4922,"Ġdiag":4923,"Ġpartition":4924,"Ġreduction":4925,"Ġalign":4926,"æĻºèĥ½":4927,"Ġblocks":4928,"åĨħéĥ¨":4929,"æĢ§èĥ½":4930,"Ð°Ð":4931,"çº¦":4932,"isual":4933,"omin":4934,"}}$,":4935,"è¥":4936,"Ġpercent":4937,"hetic":4938,"æĪı":4939,"ares":4940,"nection":4941,"Ġquickly":4942,"è¿ĳ":4943,"èµ·æĿ¥":4944,"è¥¿":4945,"forward":4946,"Ġadding":4947,"ditionally":4948,"nomial":4949,"Ġperiod":4950,"Ġfamily":4951,"endix":4952,"rong":4953,"script":4954,"çĪ±":4955,"Ġbackground":4956,"forcement":4957,"æĥħåĨµä¸ĭ":4958,"no":4959,"plication":4960,"oms":4961,"Ġchain":4962,"ĠDef":4963,"ha":4964,"Ġlabeled":4965,"æłĳ":4966,"å½Ĵ":4967,"neg":4968,"book":4969,"atives":4970,"ĠWeb":4971,"uff":4972,"Ġshape":4973,"omen":4974,"Ġliterature":4975,"ĠAPI":4976,"iring":4977,"ptions":4978,"Ġtemporal":4979,"æ¦Ĥå¿µ":4980,"Ġdeveloping":4981,"icles":4982,"çĶ¨çļĦ":4983,"è¾¹":4984,"ole":4985,"SA":4986,"Ġreflect":4987,"æķ°åŃĹ":4988,"Ġconsistent":4989,"èģĮ":4990,"47":4991,"Ġservices":4992,"Ġepoch":4993,"zz":4994,"Ġwar":4995,"ĠâĪ":4996,"Ġgover":4997,"Ġmedical":4998,"Ġconditional":4999,"æĹłæ³ķ":5000,"Ġmanner":5001,"vent":5002,"Ġconsequ":5003,"èĪ¬":5004,"ilities":5005,"è¯Ńæ³ķ":5006,"Ġweb":5007,"Ġtruth":5008,"æłĩåĩĨ":5009,"Ġthinking":5010,"31":5011,"fact":5012,"Ġwidely":5013,"Ġisn":5014,"lement":5015,"Ġindu":5016,"Ġfalse":5017,"Figure":5018,"Ġtrees":5019,"Ġmentioned":5020,"Ġslight":5021,"Ġtransformation":5022,"\\,":5023,"97":5024,"å¾ħ":5025,"une":5026,"Ġsupervised":5027,"Ġexpert":5028,"çļĦéĹ®é¢ĺ":5029,"Ġtrying":5030,"elling":5031,"Ġexplan":5032,"SR":5033,"Ġhealthcare":5034,"ĠReg":5035,"Ġapplying":5036,"ç»ľ":5037,"åĸľ":5038,"ĠTechnology":5039,"Ġdomains":5040,"Ġobserve":5041,"é¢ĨåŁŁ":5042,"greg":5043,"ructions":5044,"Ġque":5045,"Ġestimated":5046,"Ġattributes":5047,"Ġdeploy":5048,"Ġbal":5049,"Ġobservation":5050,"}}}$":5051,"Pi":5052,"IM":5053,"Ġoffers":5054,"Ġreplace":5055,"\")":5056,"Ġord":5057,"äºĨä¸Ģä¸ª":5058,"Ġtopic":5059,"Ġcategories":5060,"Ġdou":5061,"Ġtermin":5062,"ooks":5063,"Ġmembers":5064,"Ġdigital":5065,"ume":5066,"ä½įç½®":5067,"fit":5068,"ĠMethod":5069,"ĠFe":5070,"osing":5071,"Ġcategory":5072,"ĠMod":5073,"è½¬æį¢":5074,"Ġmotiv":5075,"do":5076,"Ġhardware":5077,"NNs":5078,"ä¸Ģæ¬¡":5079,"Ġ32":5080,"ouse":5081,"Ġbelong":5082,"sy":5083,"Ġmedia":5084,"ĠWork":5085,"}}(\\":5086,"Ġperforms":5087,"Ġalternative":5088,"38":5089,"Ġnames":5090,"Ġwide":5091,"Ġreduced":5092,"Ġsal":5093,"dd":5094,"ĠImage":5095,"åı¯èĥ½ä¼ļ":5096,"çĹ":5097,"ç½ĳç»ľ":5098,"ĠEnglish":5099,"anch":5100,"ç¡®ä¿Ŀ":5101,"Ġstarting":5102,"Ġever":5103,"}_\\":5104,"Ġsustain":5105,"Ġreported":5106,"æ¸¸æĪı":5107,"Ġsettings":5108,"éĿ¢åĲĳ":5109,"Ġrelatively":5110,"åıĪ":5111,"209":5112,"deep":5113,"Ġnear":5114,"åĳ¨":5115,"mediate":5116,"æħ":5117,"ĠPar":5118,"Ġpatient":5119,"Ġwindow":5120,"Ġlack":5121,"itude":5122,"Ġ([":5123,"ĠCont":5124,"ĠMy":5125,"ä¿®æĶ¹":5126,"Ġsentences":5127,"certainty":5128,"Ġaway":5129,"struction":5130,"æĭŁ":5131,"Ġsemantics":5132,"riend":5133,"'d":5134,"Ġsatisfy":5135,"Ġperspect":5136,"èıľ":5137,"è¯Ħ":5138,"ä¹ĭåĲİ":5139,"åĪĿå§ĭ":5140,"Ġapproximate":5141,"Ġratio":5142,"åłĨ":5143,"eler":5144,"èĩªåĬ¨":5145,"Ġflex":5146,"Ġtrack":5147,"Ġdim":5148,"Ġperfect":5149,"Ġmatter":5150,"Ġmass":5151,"Ġ:=":5152,"éĢĤåĲĪ":5153,"}}$.":5154,"Ġproducts":5155,"Ġreducing":5156,"Ġclassifiers":5157,"}[":5158,"igm":5159,"ĠMO":5160,"ç¼º":5161,"Ġanything":5162,"èĩªçĦ¶":5163,"tri":5164,"çļĦåĢ¼":5165,"æĬ¥":5166,"hang":5167,"ilit":5168,"ä¸ĭéĿ¢":5169,"Ġprivacy":5170,"Ġneuron":5171,"Ġtheoretical":5172,"Ġdescription":5173,"Ġdevelopers":5174,"ait":5175,"Ġcontinue":5176,":*":5177,"åħ»":5178,"ek":5179,"overy":5180,"Ġgovern":5181,"obile":5182,"Ġtag":5183,"Ġchallenging":5184,"ina":5185,"ä¸Ģæł·":5186,"ĠRel":5187,"çĻ½":5188,"ement":5189,"adem":5190,"Ġsociety":5191,"Go":5192,"çĥŃ":5193,"brack":5194,"æŃ¢":5195,"Ġexpressions":5196,"ä¹ĭä¸Ģ":5197,"2010":5198,"Ġautonom":5199,"Ġderiv":5200,"mut":5201,"Ġrates":5202,"å®¢æĪ·":5203,"åĪĨéħį":5204,"ä¸ĢèĪ¬":5205,"Ġfollowed":5206,"Ġcognitive":5207,"Ñı":5208,"Ġfrequency":5209,",-":5210,"Ġmeta":5211,"æĪĺ":5212,"Ġran":5213,"co":5214,"Ġhold":5215,"appro":5216,"Ġfundam":5217,"æĪĲä¸º":5218,"äººçļĦ":5219,"Ġmagn":5220,"Ġinterested":5221,"åħ³äºİ":5222,"Ġmessage":5223,"Ġenvironments":5224,"ĠBecause":5225,"Ġcr":5226,")=\\":5227,"æ·»":5228,"cast":5229,"Ġcou":5230,"æ¡Ĩ":5231,"Ġvary":5232,"æĬ½è±¡":5233,"Ġcorrelation":5234,"Ġinside":5235,"ĠConsider":5236,"æĤ":5237,"åĩ½æķ°çļĦ":5238,"Ġgeneralization":5239,"Ġencoder":5240,"pagation":5241,"=\"\\":5242,"osed":5243,"Ġeducation":5244,"è®Ń":5245,"textrm":5246,"Ġpolynomial":5247,"96":5248,"é¡º":5249,"ded":5250,"æĸĩæľ¬":5251,"Ġland":5252,"bb":5253,"Ġbounds":5254,"åĪĹè¡¨":5255,"æĪ¿":5256,"Ġinvolved":5257,"Ġdiagn":5258,"{(":5259,"å¯Ĩ":5260,"Ġactive":5261,"haps":5262,"ocol":5263,"Ġarbitrary":5264,"]\\":5265,"Ġevidence":5266,"java":5267,"ĠJohn":5268,"Ġpreviously":5269,"åĪ©çĶ¨":5270,"cont":5271,"Ġbenefit":5272,"çľĭåĪ°":5273,"Ġretrie":5274,"ĠEqu":5275,"Ġcompletely":5276,"Ġbounded":5277,"plications":5278,"iddle":5279,"uit":5280,"Ġexponential":5281,"Ġinequality":5282,"acc":5283,"Ġchannel":5284,"ulate":5285,"Ġrelationships":5286,"Ġworkers":5287,"Ġotherwise":5288,"EEE":5289,"Ġload":5290,"æĸ¹æ¡Ī":5291,"ĠInter":5292,"Ġoptimize":5293,"æī¾åĪ°":5294,"ĠTest":5295,"åº·":5296,"æľºåĻ¨":5297,"ĠResults":5298,"owered":5299,"Ġitems":5300,"]{},":5301,"äººä»¬":5302,"Ġcorresponds":5303,"98":5304,"éĩįè¦ģçļĦ":5305,"Ġ-\\":5306,"Ġdefault":5307,"pol":5308,"size":5309,"å·®":5310,"place":5311,"Ñĭ":5312,")^{":5313,"Ġincluded":5314,"ĠAg":5315,")}{":5316,"Ġinvolves":5317,"ai":5318,"Ġhypothesis":5319,"åĪ¤":5320,"Ġmoment":5321,"æī©":5322,"Ġcov":5323,"åŃ©":5324,"ones":5325,"RL":5326,"Ġbits":5327,"ishing":5328,"Ġparent":5329,"vey":5330,"ĠPart":5331,"ĠSupp":5332,"Ġpert":5333,"Ġcorrespond":5334,"é¸":5335,"Ġvs":5336,"raining":5337,"NIST":5338,"Ġcopy":5339,"çĽ¸åĲĮ":5340,"Ġla":5341,"Ġincreased":5342,"igu":5343,"oice":5344,"Ġactivities":5345,"cor":5346,"Lambda":5347,"entional":5348,"Ġir":5349,"ç¥ŀ":5350,"Ġformat":5351,"åıĺåĮĸ":5352,"SC":5353,"oph":5354,"lin":5355,"æ¸©":5356,"Ġtempl":5357,"ium":5358,"Ġindicates":5359,"Ġsmooth":5360,"è¦ģæ±Ĥ":5361,"acity":5362,"ä¹ĭéĹ´çļĦ":5363,"Ġleg":5364,"Ġreasoning":5365,"ä¸įæĸŃ":5366,"flow":5367,"Ġop":5368,"Ġprivate":5369,"èĢĮä¸Ķ":5370,"Ġacqu":5371,"æķĪçİĩ":5372,"Ġbeyond":5373,"Ġhence":5374,"ĠMost":5375,"]\\].":5376,"miss":5377,"ç¢":5378,"Ġsid":5379,"æŃ£ç¡®":5380,"Ġgames":5381,"Ġefficiently":5382,"normal":5383,"ferent":5384,"isation":5385,"Ġcurrently":5386,"ternal":5387,"Ġpatients":5388,"çłĶç©¶":5389,"Ġconnections":5390,"mail":5391,"æĿ¥çļĦ":5392,"Ġopp":5393,"Ġexplicitly":5394,"De":5395,"æ´»åĬ¨":5396,"trained":5397,"Ġdiscussion":5398,"Ġclusters":5399,"Ġpredictive":5400,"CT":5401,"åĬ¿":5402,"Ġhelps":5403,"oration":5404,"æµ·":5405,"Ġ$[":5406,"Ġdetailed":5407,"Ġinsp":5408,"Ġruns":5409,"ĠCent":5410,"Ġbroad":5411,"è¶£":5412,"Ġpixel":5413,"ĠCor":5414,"}+":5415,"Ġhope":5416,"arlier":5417,"List":5418,"{-":5419,"Ġaspects":5420,"Ġadjust":5421,"inforcement":5422,"è¿ĩç¨ĭä¸Ń":5423,"Ġbehind":5424,"Ġcause":5425,"Ġreturns":5426,"hest":5427,"è´Ł":5428,"æ·»åĬł":5429,"ĠAssum":5430,"åģ¥åº·":5431,"Ġforms":5432,"Ġstatistics":5433,"Ġtalk":5434,"Ġpen":5435,"Ġmetrics":5436,"ç¿":5437,"éĺ¶":5438,"overed":5439,"Ġcorrel":5440,"ĠSecond":5441,"list":5442,"Ġupon":5443,"eries":5444,"Ġeigen":5445,"ĠMicrosoft":5446,"68":5447,"iter":5448,"Ġencoura":5449,"æĿĥ":5450,"ĠAb":5451,"AD":5452,"\\%$":5453,"Ġsuccessful":5454,"Ġdise":5455,"ournal":5456,"abilistic":5457,"Ġevol":5458,"å»ºç«ĭ":5459,"pare":5460,"}}}_":5461,"Ġclean":5462,".'":5463,"Ġprecision":5464,"Ġsound":5465,"inds":5466,"),\\":5467,"Ġuncertainty":5468,"éĢ»":5469,"Ġmodern":5470,"Ġrecord":5471,"ÐµÐ":5472,"Ġdimensions":5473,"Ġaggreg":5474,"åĿĢ":5475,"}\\|":5476,"Ġinternal":5477,"Ġeffort":5478,"éģį":5479,"Ġinnov":5480,"ĠSub":5481,"Ġgenerator":5482,"ĠInstitute":5483,"Ġconstruction":5484,"Ġperforming":5485,"Ġtraject":5486,"éĢ»è¾ĳ":5487,"ĠInstead":5488,"Ġgoals":5489,"semble":5490,"Ġphot":5491,"éĩıçļĦ":5492,"æ¼Ķ":5493,"Ġoverl":5494,"Ġprojects":5495,"mselves":5496,"ĠLanguage":5497,"Ġtreatment":5498,"ĠPr":5499,"Ġempirical":5500,"Ġprobabilities":5501,"ront":5502,"Ġalthough":5503,"ifies":5504,"ĠæĢ»":5505,"mary":5506,"Ġdistingu":5507,"which":5508,"Ġthemselves":5509,"Ġsituation":5510,"ĠAp":5511,"();":5512,"Ġoptions":5513,"Ġcalculated":5514,"Ġinteractions":5515,"ä¸ľ":5516,"ĠMany":5517,"æļ":5518,"Ġens":5519,"leftarrow":5520,"Ġtend":5521,"]{}\\":5522,"çĨ":5523,"irect":5524,"Ġimproving":5525,"Ġderived":5526,"ĠEven":5527,"Ġ80":5528,"tics":5529,"Ġplot":5530,"pite":5531,")*":5532,"Ġallowing":5533,"rank":5534,"meric":5535,"Ġconfidence":5536,"Str":5537,"Ġimag":5538,"78":5539,"iment":5540,"ats":5541,"gments":5542,"Ġperturb":5543,"Ġfiles":5544,"èĢģ":5545,"å½¢å¼ı":5546,"Ġtal":5547,"SM":5548,"Ġestimates":5549,"Ġmillion":5550,"Ġunsupervised":5551,"SL":5552,"Pr":5553,"åĲĹ":5554,"Ġproduced":5555,"Ġadvanced":5556,"object":5557,"norm":5558,"è´Ń":5559,"Ġcalls":5560,"ä¼ĺåĮĸ":5561,"åŁºäºİ":5562,"èĳ":5563,"èİ·å¾Ĺ":5564,"Ġvoid":5565,"isy":5566,"bold":5567,"Ġstra":5568,"åºķ":5569,"Ġ(\\[])":5570,"Ġmanip":5571,"Ġssid":5572,"Ġphr":5573,"åĿĩ":5574,"oded":5575,"åºĶçĶ¨ç¨ĭåºı":5576,"]\\]":5577,"Ġ($\\":5578,"Ġunknown":5579,"éª¤":5580,"ä¸ĸçķĮ":5581,"RE":5582,"comes":5583,"Ġpixels":5584,"bert":5585,":\\":5586,"hu":5587,"init":5588,"æŃ¥éª¤":5589,"Ġcombined":5590,"å½ĵåīį":5591,"Ġconnection":5592,"gl":5593,"è¯¾":5594,"Ġshowed":5595,"å°±åı¯ä»¥":5596,"Ġ60":5597,"Ġpure":5598,"Ġstreng":5599,"dist":5600,"ç±»åŀĭçļĦ":5601,"å·§":5602,"æ£ĢæŁ¥":5603,"ĠAdditionally":5604,"prod":5605,"bo":5606,"Ġconcerns":5607,"ĠSuch":5608,"è¶ħ":5609,"æ³Ľ":5610,"èµĭ":5611,"æ¤į":5612,"Ġgrowth":5613,"åħ¸":5614,"Ġ->":5615,"ĠSet":5616,"74":5617,"Ġ$|":5618,"Ġsuff":5619,"Ġmathematical":5620,"ĠAss":5621,"æĢİ":5622,"åģĩ":5623,"Ġ64":5624,"ĠInformation":5625,"Ġframes":5626,"åĩıå°ĳ":5627,"Ġblack":5628,"pa":5629,"ulations":5630,"Ġearlier":5631,"itation":5632,"Ġpublished":5633,"Ġdetermined":5634,"éĩĩçĶ¨":5635,"ç¼ĸè¯ĳåĻ¨":5636,"æ¬¾":5637,"èİ·åıĸ":5638,"cos":5639,"Ġcoding":5640,"éĺħ":5641,"writ":5642,"Ġidentity":5643,"add":5644,"Ġhighlight":5645,"ĠST":5646,"\\|_":5647,"perative":5648,"oll":5649,"faces":5650,"ush":5651,"èĲ¥":5652,"Ġobvious":5653,"format":5654,"clude":5655,"Ġextended":5656,"Ġauto":5657,"term":5658,"powered":5659,"parameters":5660,"specific":5661,"ĠÎ":5662,"ured":5663,"94":5664,"å¹²":5665,"ä¸Ģå®ļ":5666,"bot":5667,"Ġslightly":5668,"Ġchat":5669,"Ġachieves":5670,"Ġhim":5671,"Ġdeg":5672,"Ġtheorem":5673,"artment":5674,"ultane":5675,"éĻ©":5676,"ĠåĴĮ":5677,"Ġdrop":5678,"Ġscenario":5679,"Ġsizes":5680,"Ġ<>":5681,"Ġgram":5682,"Ġtested":5683,"åĬ¨æĢģ":5684,"ilos":5685,"ĠPerl":5686,"Ġfloating":5687,"bre":5688,"Ġgot":5689,"ĠNetworks":5690,"inks":5691,"Ġreading":5692,"âĪ":5693,"éĿĻæĢģ":5694,"hspace":5695,"section":5696,"æĸĩåĮĸ":5697,"Ġconvert":5698,"SI":5699,"Ġsomet":5700,"Ġresid":5701,"Ġcounter":5702,"åĽĽ":5703,"åĲ¬":5704,"ataset":5705,"maz":5706,"Ġcontaining":5707,"æķ´ä¸ª":5708,"ognition":5709,"Ġresolution":5710,"åĽ¢éĺŁ":5711,"Ġstream":5712,"åįģ":5713,"åĬłåħ¥":5714,"ĠMan":5715,"Ġexception":5716,"SD":5717,"free":5718,"ç®ĢåįķçļĦ":5719,"ĠSVM":5720,"Ġcandidate":5721,"oriented":5722,"æĴ":5723,"Ġanalog":5724,"Ġintu":5725,"Un":5726,"$]{}":5727,"Ġextracted":5728,"Ġindicate":5729,"åŁİ":5730,"Ġ\\[]).":5731,"ĠCal":5732,"Ġmotion":5733,"è¯´æĺİ":5734,"matic":5735,"mma":5736,"å°±ä¼ļ":5737,"ey":5738,")[":5739,"ç¼ĵ":5740,"LL":5741,"Ġmodules":5742,"Ġdistinct":5743,"Ġgetting":5744,"è®¾ç½®":5745,"Ġextension":5746,"Ġefforts":5747,"ĠBoth":5748,"Ġgenerating":5749,"MT":5750,"å¸ĮæľĽ":5751,"Ġtensor":5752,"ĠAmeric":5753,"}}_{\\":5754,"Ġchanging":5755,"Ġsupported":5756,"Ġsmart":5757,"Ġgeneric":5758,"}\\\\":5759,"Ġcharacters":5760,"Ġattribute":5761,"è¿ľ":5762,"Ġeverything":5763,"æľīæķĪ":5764,"edia":5765,"ĠRep":5766,"ĠGu":5767,"Ġage":5768,"Ġdest":5769,"atures":5770,"Ġdesired":5771,"åŃ©åŃĲ":5772,"Ġwhereas":5773,"Ġpages":5774,"ä»İèĢĮ":5775,"Ġstarted":5776,"tun":5777,"Ġcapable":5778,"ump":5779,"æĿ¿":5780,"ä¸¾":5781,"Ġdiscrete":5782,"ç¡®å®ļ":5783,"ĠAccording":5784,"roun":5785,"ellow":5786,"Ġcells":5787,"Ġsafety":5788,"Ġsequential":5789,"Ġmicro":5790,"ç¤¾ä¼ļ":5791,"Ġremains":5792,"Ġstudent":5793,"82":5794,"æĶ¹åıĺ":5795,"Ġworth":5796,"Ġwrong":5797,"ariant":5798,"è´£":5799,"ĠæĪĳ":5800,"Ġclearly":5801,"uting":5802,"Ġgeomet":5803,"Ġpay":5804,"defined":5805,"ĠSystems":5806,"Ġneighbor":5807,"èĭ±":5808,"unc":5809,"aving":5810,"Ġcolle":5811,"çĪ¶":5812,"ĠSm":5813,"Ġaware":5814,"Ġstored":5815,"Ġä¸Ń":5816,"aten":5817,"itative":5818,"ĠGAN":5819,"CN":5820,"Ġinfluence":5821,"Ġencoding":5822,"orld":5823,".</":5824,"èĻ½":5825,"Ġpose":5826,"Ġoutcomes":5827,"Ġgrid":5828,"åľ°åĿĢ":5829,"ç§°ä¸º":5830,"ĠÃ":5831,"ï¼Ľ":5832,"äºĭä»¶":5833,"rect":5834,"GB":5835,"åıªæľī":5836,"76":5837,"Ġcosts":5838,"Ġsometimes":5839,"Ġcut":5840,"åĪĿå§ĭåĮĸ":5841,"åºĶçļĦ":5842,"des":5843,"è°¢":5844,"æĭ¥":5845,"Ch":5846,"IFAR":5847,"Ġfilters":5848,"ĠÐ¿":5849,"ä¸ªäºº":5850,"Ġextra":5851,"ÑĮ":5852,"]),":5853,"}-\\":5854,"ĠPat":5855,"æĺ¯åľ¨":5856,"ä½łåı¯ä»¥":5857,"56":5858,"ĠOf":5859,"uck":5860,"ĠEngine":5861,"Ġreasons":5862,"ners":5863,"otimes":5864,"Ġweighted":5865,"Al":5866,"äººåĳĺ":5867,"å®Įåħ¨":5868,"vergence":5869,"ependent":5870,"Ġlibraries":5871,"Ġmer":5872,"Ġassumptions":5873,"èĬĤçĤ¹":5874,"'_":5875,"trans":5876,"åħ¶å®ŀ":5877,"Ġoutside":5878,"EN":5879,"ĠCPU":5880,"sup":5881,"ĠDisc":5882,"Ġscene":5883,"Ġbring":5884,"Ġdiction":5885,"æĸ½":5886,"uzz":5887,"Ġstraight":5888,"ĠLi":5889,"å¤§å°ı":5890,"Ġpartial":5891,"mathtt":5892,"æİ¢":5893,"Ġparad":5894,"è¯Ńè¨ĢçļĦ":5895,"ä¿Ŀè¯ģ":5896,"avor":5897,"èµĸ":5898,"Ġsymmet":5899,"Ġruntime":5900,"Ġupdates":5901,"amp":5902,"Ġcru":5903,"Ġbelief":5904,"Ġtim":5905,"uby":5906,"Ġresource":5907,"çº¢":5908,"Ġinstructions":5909,"è¿ĺæľī":5910,"Ġpractices":5911,"Ġclassical":5912,"Ġdepending":5913,"æıĲä¾ĽäºĨ":5914,"%\"}":5915,"dot":5916,"ularity":5917,"Ġconsc":5918,"parameter":5919,"Ġyields":5920,"æĳ":5921,"Ġ2014":5922,"ä¼ģ":5923,"dri":5924,"Ġnonlinear":5925,"ache":5926,"Ġmeet":5927,"Ġcorrectly":5928,"plicated":5929,"å¸Ĥåľº":5930,"Ġcapabilities":5931,"æ¡Ĩæŀ¶":5932,"ze":5933,"Ġitem":5934,"Ġbenchmark":5935,"æĬķ":5936,"ĠPre":5937,"down":5938,"ĠDevel":5939,"Ġfall":5940,"Ġstory":5941,"Ġspecies":5942,"Ġdescent":5943,"redict":5944,"Ġpassed":5945,"Ġsimultane":5946,"èĻ½çĦ¶":5947,"Ġeffectiveness":5948,"*\\":5949,"rees":5950,"ĠSpecifically":5951,"Ġign":5952,"Ġenhance":5953,"æİĮ":5954,"edu":5955,"54":5956,")]":5957,"æľºåĪ¶":5958,"Ġrobotics":5959,"ĠNational":5960,"ãĤ":5961,"Ġgenerative":5962,"Ġcurve":5963,"Ġcenter":5964,").$":5965,"Ġengineering":5966,"ä¸įè¦ģ":5967,"Res":5968,"æĪĲåĬŁ":5969,"Ġbad":5970,"Ġsituations":5971,"208":5972,"Ġacceler":5973,"ĠStud":5974,"ä¸ºä»Ģä¹Ī":5975,"pace":5976,"Ġmissing":5977,"Ġhor":5978,"ĠSimilarly":5979,"}]":5980,"å°Ŀ":5981,"Ġtechnical":5982,"Ġdial":5983,"Ġhome":5984,"weight":5985,"Ġcentral":5986,"Ġsomeone":5987,"Ġconscious":5988,"çī¹æĢ§":5989,"åĪ°äºĨ":5990,"Ġreconstruction":5991,"è®¨":5992,"åºŃ":5993,"Ġgoes":5994,"utor":5995,"æĽ´å¥½":5996,"ä¸Ģèµ·":5997,"Ġaver":5998,"Ġgets":5999,"åħĭ":6000,"rum":6001,"rist":6002,"Ġang":6003,"Ġmax":6004,"æĿŁ":6005,"Ġdevice":6006,"åıĭ":6007,")+":6008,"ĠNext":6009,"Ġrecognize":6010,"çļĦæĸ¹å¼ı":6011,"å¹³åı°":6012,"ä¾Ŀèµĸ":6013,"Ġhalf":6014,"ĠBas":6015,"Ġentropy":6016,"Ġconsidering":6017,"Ġlatter":6018,"Ġabsol":6019,"Ġremain":6020,"Ġsampled":6021,"åİĭ":6022,"Ġcorpus":6023,"Ġscenarios":6024,"Ġcapacity":6025,"Ġdoc":6026,"Psi":6027,"çŁŃ":6028,",$":6029,"Ġinfer":6030,"step":6031,"Ġdiverse":6032,"æı¡":6033,"ĠSec":6034,"è´¨éĩı":6035,"ç§ĳåŃ¦":6036,"Ġimplementations":6037,"è¿Ļä¸Ģ":6038,"ä¹Łå°±æĺ¯":6039,"bal":6040,"ĠMOSS":6041,"ender":6042,"Ġformula":6043,"Ã£":6044,"57":6045,"Ġstudied":6046,"Ġroot":6047,"ncy":6048,"apter":6049,"Ġhighest":6050,"sam":6051,"orage":6052,"Ġallowed":6053,"çīĪæľ¬":6054,"Ġperspective":6055,"æīįèĥ½":6056,"Ġupdated":6057,"Ġ21":6058,"zeta":6059,"otype":6060,"Ġ90":6061,"Ġaudio":6062,"å¯»":6063,"RI":6064,"Ġconstructed":6065,"å¯Į":6066,"call":6067,"Ġsuitable":6068,"Ġcommunities":6069,"Ġjud":6070,"*:":6071,"Ġoutperforms":6072,"AB":6073,"Ð¸Ð":6074,"Ġoperators":6075,"Ġconfiguration":6076,"const":6077,"åĲ¸":6078,"nowledge":6079,"Ġcharacteristics":6080,"Ġbeginning":6081,"åŃĹèĬĤ":6082,"Ġscientists":6083,"åİŁåĽł":6084,"Ġpenal":6085,"Ġsensors":6086,")}{\\":6087,"Ġanim":6088,"é»ĳ":6089,"lean":6090,"Ġscope":6091,"46":6092,"CL":6093,"Ġtransport":6094,"ĠæĪĳä»¬":6095,"NET":6096,"case":6097,"It":6098,"Ġfundamental":6099,"Ġexperiences":6100,"inary":6101,"ulated":6102,"Ġunivers":6103,"ried":6104,"å¾®":6105,"Ã£o":6106,"èĤ²":6107,"é»ĺ":6108,"æĮĩä»¤":6109,"Ġadvance":6110,"Ġvertices":6111,"phas":6112,"Ġsuggests":6113,"*~*":6114,"Ġnor":6115,"åºıåĪĹ":6116,"Ġreceived":6117,"Ġspecifically":6118,"è¯¦":6119,"ĠBi":6120,"ok":6121,"rief":6122,"pty":6123,"ancy":6124,"Ġsynthetic":6125,"92":6126,"Ar":6127,"Ġ2012":6128,"Ġscript":6129,"cases":6130,"OL":6131,"layer":6132,"Ġnotion":6133,"Ã¡":6134,"ä¼ģä¸ļ":6135,"éĻį":6136,"Ġexternal":6137,"42":6138,"å¤§å®¶":6139,"è¿Ļæł·çļĦ":6140,"inger":6141,"Ġpolicies":6142,"ç»ıéªĮ":6143,"Ġmoving":6144,"çīĮ":6145,"Ġassigned":6146,"ford":6147,"é¡ºåºı":6148,"Ġattacks":6149,"Ġsquare":6150,"ination":6151,"å¦":6152,"asc":6153,"Ġdisplay":6154,"Ġtypical":6155,"ros":6156,"ifferent":6157,"&\\":6158,"graph":6159,"Ġautonomous":6160,"ä¸įä»ħ":6161,"Ġqual":6162,"éĺ²":6163,"Ġwebs":6164,"Ġversions":6165,"Ġnoisy":6166,"Ġdecoder":6167,"Ġplanning":6168,"Ġdenoted":6169,"As":6170,"çĶ¨æĿ¥":6171,"comp":6172,"çļĦä¸Ģ":6173,"ĠGe":6174,"Ġey":6175,"Ġnamed":6176,"state":6177,"Ġsubsequ":6178,"II":6179,"çŃīçŃī":6180,"code":6181,"åħ´":6182,"arth":6183,"pid":6184,"ĠSch":6185,"ĠWhy":6186,"èī¯":6187,"Ġcalculate":6188,"Ġult":6189,"èīº":6190,"èĤī":6191,"ided":6192,"stack":6193,"Ġlove":6194,"Ġinher":6195,"bered":6196,"Ġremaining":6197,"Ġadaptive":6198,"Ġenable":6199,"Ġmechanisms":6200,"Ġconventional":6201,"Ġveh":6202,"Ġrely":6203,"ĠMulti":6204,"Ġfacial":6205,"ĠEd":6206,"åĸľæ¬¢":6207,"Ġnotation":6208,"Ġlearns":6209,"my":6210,"ĠResNet":6211,"207":6212,"ç«Ļ":6213,"aves":6214,"Ġcamera":6215,"Ġbranch":6216,"hens":6217,"ç±»ä¼¼":6218,"Ġwidth":6219,"Ġautomated":6220,"Ġdemonstrated":6221,"Ġinstant":6222,"Ġsatisfies":6223,"Ġrequirements":6224,"Ġdeli":6225,"è¿Ļæĺ¯":6226,"Ġimplicit":6227,"Ġbottom":6228,"ĠCo":6229,"arr":6230,"Ġ2013":6231,"Ġspecified":6232,"Ġpack":6233,"Ġ\\;":6234,"éĢŁåº¦":6235,"éĺ³":6236,"Ġresponses":6237,"59":6238,"Ġidentified":6239,"'\\":6240,"å°Ħ":6241,"èĽ":6242,"Ġyield":6243,"Ġcruc":6244,"Ġorganizations":6245,"ĠCIFAR":6246,"ĠSw":6247,"Ġkinds":6248,"¤Ĳ":6249,"Ġbusinesses":6250,"reed":6251,"ibli":6252,"Ġtrade":6253,"brid":6254,"Ġassemb":6255,"Ġmode":6256,"Class":6257,"Ġ2015":6258,"ury":6259,"Ġelimin":6260,"chi":6261,"Ġsect":6262,"Ġreve":6263,"Ġsurpr":6264,"\"}](":6265,"Ġ[$\\":6266,"Ġextend":6267,"Ġprobabilistic":6268,"ĠEm":6269,"72":6270,"ĠConference":6271,"Ġextraction":6272,"ĠInternational":6273,"inux":6274,"Ġ([@":6275,"Ġanalyzing":6276,"rained":6277,"raft":6278,"Ġcompre":6279,"Ġstable":6280,"Ġprotocol":6281,"ä¸ĢæŃ¥":6282,"Ġentity":6283,"ĠMarkov":6284,"åĬłè½½":6285,"Ġprinciple":6286,"fficients":6287,"CE":6288,"ele":6289,"OT":6290,"Ġexpand":6291,"seud":6292,"acing":6293,"Ġrot":6294,"}+\\":6295,"é¤Ĳ":6296,"å¦Ĥæŀľä½ł":6297,"ĠHuman":6298,"Ġvertex":6299,"ĠCL":6300,"Ġinterval":6301,"Ġnumerical":6302,"Ġbar":6303,"Ġgap":6304,"è§ĦåĪĻ":6305,"SN":6306,"è·Ł":6307,"63":6308,"Ġproduction":6309,"Ġheur":6310,"Ġlive":6311,"oting":6312,"Ġexhib":6313,"rupt":6314,"Ġstrength":6315,"å¹¶åıĳ":6316,"Ġlargest":6317,"éĽĨåĲĪ":6318,"Ġopportunities":6319,"cking":6320,"Im":6321,"ĠSee":6322,"Ġnull":6323,"stream":6324,"ley":6325,"ĠPo":6326,"Ġextrem":6327,"PC":6328,"Ġautomatic":6329,"äºī":6330,"ä¿ĿæĬ¤":6331,"Ġdays":6332,"Ġinfinite":6333,"Ġfocused":6334,"Ġ[@]":6335,")|":6336,"avig":6337,"Ġspars":6338,"Ġdivid":6339,"Ġensemble":6340,"Ġwin":6341,"Ġinstruction":6342,"Ġscientific":6343,"Ġled":6344,"206":6345,"iny":6346,"model":6347,"Ġinvolve":6348,"Ġnothing":6349,"ture":6350,"flo":6351,"Ġdescribes":6352,"81":6353,"posed":6354,"æĻ®":6355,"LM":6356,"ĠMNIST":6357,"asible":6358,"äºĭæĥħ":6359,"icial":6360,"CV":6361,"processing":6362,"ĠAppendix":6363,"å¥¹":6364,"Ġchildren":6365,"Ġ[$":6366,"éĺħè¯»":6367,"comput":6368,"éģĩ":6369,"indows":6370,"training":6371,"path":6372,"Ġinform":6373,"å®¶åºŃ":6374,"ĠSuppose":6375,"å¾ģ":6376,"GG":6377,"æ²¹":6378,"Int":6379,"æ¢":6380,"mun":6381,"Ġspaces":6382,"Ġamounts":6383,"string":6384,"å¹¶ä¸į":6385,"iol":6386,"Ġdiv":6387,"Ġconclusion":6388,"Ġadaptation":6389,"Ġclimate":6390,"ung":6391,"Ġsolved":6392,"é£İæł¼":6393,"Ġbibli":6394,"Ġstim":6395,"bots":6396,"Ġchannels":6397,"æķħ":6398,"Ġenvironmental":6399,"åľ°æĸ¹":6400,"Ġimproves":6401,"$).":6402,"æ¯į":6403,"Ġ2016":6404,"iles":6405,"ä¼łéĢĴ":6406,"Ġstrict":6407,"Ġsuccessfully":6408,"uge":6409,"ä¸ĬéĿ¢":6410,"Ġheav":6411,"ĠUse":6412,"åı¯ä»¥åľ¨":6413,"PL":6414,"Ġrequest":6415,"Ġdecomposition":6416,"93":6417,"ĠOnce":6418,"Ġepochs":6419,"roll":6420,"Ġlives":6421,"Ġcustomers":6422,"LSTM":6423,"åĩłä¸ª":6424,"çī¹çĤ¹":6425,"Ġpackage":6426,"ä»·åĢ¼":6427,"ĠGPU":6428,"Ġcoefficients":6429,"èĻļæĭŁ":6430,"ĠUnder":6431,"Ġspeaker":6432,"èº«ä½ĵ":6433,"ä»£è¡¨":6434,"Ġthroughout":6435,",{\\":6436,"ãĢĭ":6437,"ops":6438,"ĠAnalysis":6439,"ãĢĬ":6440,"âĢĻ":6441,"ĠAda":6442,"43":6443,"Ġheight":6444,"Ġexploration":6445,"Ġhom":6446,"æĢ§çļĦ":6447,"String":6448,"Ġpoor":6449,"Ġfill":6450,"æī©å±ķ":6451,"Ġlab":6452,"ĠOpen":6453,"*(":6454,"Ġpiece":6455,"ky":6456,"Ġresponsible":6457,"Ġcollected":6458,"NA":6459,"Ġhappens":6460,"Ġsensor":6461,"gen":6462,"joy":6463,"ĠCar":6464,"Ġemployed":6465,"Ġbehaviour":6466,"plex":6467,"iling":6468,"Ġfra":6469,"Ġsubjects":6470,"ä»Ĭ":6471,"bigg":6472,"aste":6473,"æŃ¤å¤ĸ":6474,"æĽ¿":6475,"çĨŁ":6476,"Ġrepresenting":6477,"Ġmodified":6478,"Ġnews":6479,"åı¦å¤ĸ":6480,"åĪ¤æĸŃ":6481,"ä½¿å¾Ĺ":6482,"Ġrobustness":6483,"ashion":6484,"71":6485,"Ġpointer":6486,"Ġdual":6487,"Ġprefer":6488,"{{{\\":6489,"Ġemphas":6490,"Ġcomparing":6491,"åı¯ä»¥éĢļè¿ĩ":6492,"Ġteach":6493,"ĠAm":6494,"æİĮæı¡":6495,"ĠDec":6496,"ä»¥ä¸Ĭ":6497,"used":6498,"ĠDr":6499,"Ġproport":6500,"åįł":6501,"ä¸įåı¯":6502,"dis":6503,"73":6504,"å¾ĭ":6505,"å°Ŀè¯ķ":6506,"ervation":6507,"Ġpage":6508,"æľ¬ä¹¦":6509,"ĥåľ":6510,"Ġdidn":6511,"Ġclosed":6512,"fra":6513,"ynchron":6514,"ç¬¬äºĮ":6515,"Ġrep":6516,"Ġtw":6517,"åŀĥåľ":6518,"åŀĥåľ¾":6519,"qquad":6520,"itions":6521,"ç¿»":6522,"Ġhierarchical":6523,"åĶ®":6524,"Ġpresence":6525,"æľĢç»Ī":6526,"Ġcrucial":6527,"Ġrecurrent":6528,"rable":6529,"ran":6530,"QL":6531,"Ġimpos":6532,"å¸¸è§ģ":6533,"Ġpret":6534,"henomen":6535,"Ġimprovements":6536,"Ġì":6537,"rror":6538,"Ġamb":6539,"å¿«éĢŁ":6540,"ructure":6541,"Ġstorage":6542,"éŁ³ä¹Ĳ":6543,"Ġrepeated":6544,"Ġbibliography":6545,"fl":6546,"ĠÐ²":6547,"éĺŁåĪĹ":6548,"ç±³":6549,"herent":6550,"DF":6551,"Table":6552,"Ġtrust":6553,"related":6554,"Ġminimize":6555,"62":6556,"bmatrix":6557,"åŁİå¸Ĥ":6558,"dec":6559,"vial":6560,"ĠMc":6561,"åĳ½ä»¤":6562,"Ġoption":6563,"ades":6564,"Ġrapid":6565,"This":6566,"Ġpotentially":6567,"éĹŃ":6568,"Ġfraction":6569,"Ġinsights":6570,"Ġlocations":6571,"Ġ23":6572,"berg":6573,"Ġswitch":6574,"Ġassignment":6575,"akes":6576,"ister":6577,"`,":6578,"Ġschool":6579,"len":6580,"ancial":6581,"Ġexpressed":6582,"ites":6583,"ä¸ľè¥¿":6584,"key":6585,"Ġcommonly":6586,"roid":6587,"Ġæĺ¯":6588,"Ġexperts":6589,"connect":6590,"Ġpick":6591,"tact":6592,"Ġinterpretation":6593,"rate":6594,"zero":6595,"é¢Ŀ":6596,"ĠRem":6597,"Ġband":6598,"Ġdomin":6599,"Ġaccom":6600,"iff":6601,"EM":6602,"po":6603,"é¥°":6604,"Ġstay":6605,"æĭ¥æľī":6606,"Ġgradients":6607,")}}":6608,"åĪ¶ä½ľ":6609,"Ġsummary":6610,"Ġtopics":6611,"éĺ¶æ®µ":6612,"å²":6613,"æĢİä¹Ī":6614,"Ġvolume":6615,"æĮĩåĲĳ":6616,"-$":6617,"]^":6618,"Ġä½¿çĶ¨":6619,"ifier":6620,"Ġmember":6621,"Ġautomation":6622,"Ġusage":6623,"ĠRNN":6624,"ĠBased":6625,"Ġtemper":6626,"Ġstrings":6627,"otic":6628,"Ġboundary":6629,"Ġresidual":6630,"52":6631,"åħ³æ³¨":6632,"ĠDep":6633,"Ġinner":6634,"åĲĮæŃ¥":6635,"nn":6636,"gu":6637,"minus":6638,"åı²":6639,"Ġshall":6640,"Ñĩ":6641,"Ġsix":6642,"Ġthous":6643,"Ġshowing":6644,"Object":6645,"Ġintern":6646,"Ġabstraction":6647,"Ġanswers":6648,"Ġexpensive":6649,"Ġphilos":6650,"å¼ł":6651,"Ġpooling":6652,"åĲįç§°":6653,"åı«":6654,"python":6655,"^{*":6656,"æŁĲä¸ª":6657,"Ġoperating":6658,"Ġexplained":6659,"åıªæĺ¯":6660,"ä¸Ģä»½":6661,"work":6662,"ĠMa":6663,"rays":6664,"osp":6665,"Ġreinforcement":6666,"Ġempty":6667,"Ġpresents":6668,"enced":6669,"Ġdocuments":6670,"Ġneuro":6671,"tes":6672,"Ġproduces":6673,"}^{-":6674,"Ġrecall":6675,"åĦ":6676,"Ġnecessarily":6677,"van":6678,"Ġå°Ĩ":6679,"èµĭåĢ¼":6680,"DD":6681,"sych":6682,"Ġprojection":6683,"æĿ¾":6684,"è®°å½ķ":6685,"æĿĲæĸĻ":6686,"ä¹°":6687,"ĠRo":6688,"ĠOpt":6689,"å¥Ĺ":6690,"blem":6691,"Ġphenomen":6692,"ĠSing":6693,"Ġconducted":6694,"Ġsafe":6695,"ĠIBM":6696,"Ġpress":6697,"58":6698,"ES":6699,")})":6700,"è®¡åĪĴ":6701,"Ġtail":6702,"UC":6703,"Ġbooks":6704,"æıĴ":6705,"ords":6706,"æĮīçħ§":6707,"çİ©":6708,"ĠShe":6709,"Ġdictionary":6710,"ĠEquation":6711,"æ´ģ":6712,"Ġsimultaneously":6713,"æĽ´å¤ļçļĦ":6714,"xspace":6715,"ont":6716,"Ġimplementing":6717,"Ġåĩ½æķ°":6718,"})$.":6719,"Ġpersonalized":6720,"Ġconcaten":6721,"Ġcombine":6722,"Ġ28":6723,"^*$":6724,"è¿Ĳç®Ĺç¬¦":6725,"numbered":6726,"41":6727,"è¿ŀæİ¥":6728,"Ġgradu":6729,"Ġchoices":6730,"ĠFace":6731,"ç¼ĸçłģ":6732,"Ġpositions":6733,"Ġnormalization":6734,"approx":6735,"Ġmonth":6736,"åį°":6737,"fill":6738,"pg":6739,"åĽŀçŃĶ":6740,"ä¸īä¸ª":6741,"æĲľ":6742,"çģµ":6743,"Ġappears":6744,"é¡µ":6745,"Ġhelpful":6746,"Ġ},":6747,"making":6748,"ĠLisp":6749,"run":6750,"Ġremove":6751,"Ġrecommendations":6752,"marks":6753,"Ġsetup":6754,"Ġinvestigate":6755,"ason":6756,"umer":6757,"Ġentities":6758,"ented":6759,"åı³":6760,"ĠCode":6761,"Ġlimitations":6762,"æĤ¨çļĦ":6763,"_{(":6764,"åĽŀæĶ¶":6765,"Ġnamely":6766,"Ġestimator":6767,"wedge":6768,"æĬĢå·§":6769,"IS":6770,"pc":6771,"çļĦå¯¹è±¡":6772,"ä¸įè¿ĩ":6773,"è¡¨çİ°":6774,"Ġcloud":6775,"Ġparticipants":6776,"åĦ¿":6777,"Ġsynchron":6778,"ĠMay":6779,"Ġmarg":6780,"Ġvoice":6781,"Ġcovariance":6782,"Ġbiological":6783,"imately":6784,"åĸĦ":6785,"ĠCompar":6786,"æħ¢":6787,"ĠTraining":6788,"Ġminimal":6789,"Ġrepro":6790,"Ġperhaps":6791,"Ġplayer":6792,"æĦıä¹ī":6793,"Ġsimulations":6794,"Ġbrief":6795,"çķĻ":6796,"Ġball":6797,"lik":6798,"ĠVisual":6799,"Ġsemi":6800,"ĠPri":6801,"ĠRead":6802,"words":6803,"ĠIEEE":6804,"ĠProf":6805,"ç»§ç»Ń":6806,"èħ":6807,"unnumbered":6808,"Ġindeed":6809,"Ġvan":6810,"Ġmanif":6811,"ç¨ĭåºıçļĦ":6812,"è¯ī":6813,"Ġcat":6814,"Ġdefinitions":6815,"åıªèĥ½":6816,"Ġassumed":6817,"Ġreasonable":6818,"Ġrespond":6819,"Ġvoc":6820,"Ġmobile":6821,"poses":6822,"Ġstructured":6823,"Ġmist":6824,"ĠLog":6825,"å·¦":6826,"Ġranking":6827,"Ġqueries":6828,"51":6829,"inf":6830,"åĪ°çļĦ":6831,"åħģ":6832,"ĠRL":6833,"Ġstrongly":6834,"plete":6835,"setminus":6836,"æ»¡è¶³":6837,"ĠMIT":6838,"åĮ»":6839,"Ġformulation":6840,"Ġcaused":6841,"Ġanalytics":6842,"Ġcomplicated":6843,"53":6844,"èĦļ":6845,"Ġprimary":6846,"åħ±äº«":6847,"Ġair":6848,"åı¦ä¸Ģä¸ª":6849,"Ġtracking":6850,"Ġextremely":6851,"Ġrelax":6852,"small":6853,"ĠString":6854,"Ġfunctionality":6855,"Ġtook":6856,"amples":6857,"Ġadvantages":6858,"Ġpaths":6859,"æĪĳä»¬éľĢè¦ģ":6860,"Ġmeasured":6861,"Ġshift":6862,"Ġjo":6863,"Ġdeclar":6864,"éķ¿åº¦":6865,"Ġdiversity":6866,"Ġrare":6867,"Ġcommand":6868,"æĥħæĦŁ":6869,"éģįåİĨ":6870,"åĲ¯":6871,"IL":6872,"XX":6873,"Ġthreat":6874,"mann":6875,"Ġrout":6876,"åħģè®¸":6877,"medi":6878,"Ġlooks":6879,"Ġsustainable":6880,"Ġmac":6881,"ĠConclusion":6882,"åĪĨç±»":6883,"Ġsurface":6884,"augh":6885,"Ġcontributions":6886,"texttt":6887,"ĠAct":6888,")},":6889,"è¯¦ç»Ĩ":6890,"èĢĮä¸įæĺ¯":6891,"aur":6892,"?\"":6893,"ĠÑģ":6894,"ĠEngineering":6895,"Ġinterv":6896,"Ġbill":6897,"ronic":6898,"Ġequations":6899,"scr":6900,"ä¸¤ç§į":6901,"Ġsimulated":6902,"}}}_{":6903,"æīĢæľīçļĦ":6904,"Ġhuge":6905,"è¿ĲåĬ¨":6906,"ç»´æĬ¤":6907,"è¿Ń":6908,"iliar":6909,"åı¯ä»¥ä½¿çĶ¨":6910,"äººç±»":6911,"Ġenabl":6912,"ED":6913,"]}":6914,"textwidth":6915,"Ġhours":6916,"arest":6917,"enn":6918,"Ġcomprehens":6919,"ĠâĢ":6920,"ĠList":6921,"oolean":6922,"æĪĳçļĦ":6923,"å¾Ħ":6924,"Ġessentially":6925,"Ġsymbols":6926,"Ġthrow":6927,"Ġidentifying":6928,"ç¨ĭåºıè®¾è®¡":6929,"åıĮ":6930,"Ġsubt":6931,"ĠWorld":6932,"æĽ´å¥½åľ°":6933,"anks":6934,"Ġlists":6935,"Ġenables":6936,"bound":6937,"èĮĥåĽ´":6938,"IG":6939,"Ġpict":6940,"Ġreduces":6941,"Ġmar":6942,"+,":6943,"åħ³éĶ®åŃĹ":6944,"erman":6945,"Ġexerc":6946,"gets":6947,"atur":6948,"Ġenjoy":6949,"åľºæĻ¯":6950,"osis":6951,"Ġimperative":6952,"rier":6953,"ĠYour":6954,"BC":6955,"ĠState":6956,"eras":6957,"Ġroom":6958,"çĽĬ":6959,"Ġ26":6960,"({{\\":6961,"ç¬¬ä¸Ģä¸ª":6962,"Ġserver":6963,"Ġconven":6964,"ä¸¥":6965,"hand":6966,"aks":6967,"Ġstatements":6968,"ev":6969,"Ġdialog":6970,"}^*":6971,"91":6972,"Ġè¯·":6973,"Ġyourself":6974,"Ġdr":6975,"é»ĺè®¤":6976,"dag":6977,"Ġintermediate":6978,"æĬĢèĥ½":6979,"$:":6980,"Ġintr":6981,"ifications":6982,"aly":6983,"RU":6984,"å®Ŀ":6985,"è¿Ńä»£":6986,"ä»£çłģçļĦ":6987,"cons":6988,"Ġmonit":6989,"fitting":6990,"itivity":6991,"Ġcommit":6992,"Ġvideos":6993,"Ġdiscover":6994,"ached":6995,"ä¸ĵä¸ļ":6996,"Ġpercept":6997,"Ġcodes":6998,"ĠTwo":6999,"inear":7000,"Ġeconomic":7001,"labeled":7002,"Ġchanged":7003,"Ġcomposition":7004,"}'":7005,"èµ°":7006,"Ġpretty":7007,"åĪ»":7008,"ä¸ĩ":7009,"emory":7010,"Ġexplanation":7011,"Ġcolumns":7012,"(-":7013,"raw":7014,"outh":7015,"å°Ķ":7016,"aff":7017,"xy":7018,"Ġlex":7019,"Ġoptimized":7020,"Ġincom":7021,"PA":7022,"arm":7023,"çģ«":7024,"Ġ27":7025,"å¿Ĺ":7026,"åŃ¦çĶŁ":7027,"Ġpapers":7028,"ĠRuby":7029,"ĠInternet":7030,"plo":7031,"Ġfinancial":7032,"izon":7033,"Ġemotional":7034,"ĠDNN":7035,"Ġnavig":7036,",.,":7037,"peech":7038,"ĠFollow":7039,"ç¨³":7040,"Ġpredicting":7041,"\\|^":7042,"åŁ¹":7043,"Ġpan":7044,"start":7045,"Ġdemand":7046,"leg":7047,"ĠPa":7048,"what":7049,"gebra":7050,"Ġfriend":7051,"orphism":7052,"fram":7053,"Ġdeviation":7054,"Ġacadem":7055,"Ġann":7056,"ĠPers":7057,"Ġinterfaces":7058,"ĠCre":7059,"åĵģçīĮ":7060,"Ġvariation":7061,"Ġcity":7062,"Ġboost":7063,"205":7064,"Ġradi":7065,"ä¼Ĺ":7066,"éĥ½ä¼ļ":7067,"Ġresol":7068,"Ġforest":7069,"|{\\":7070,"formance":7071,"textit":7072,"Ġorganization":7073,"Ġraw":7074,"\\!\\!":7075,"Ġpip":7076,"Ġviews":7077,"æķĪæŀľ":7078,"ĠTra":7079,"Ġviol":7080,"mitted":7081,"Ġasym":7082,"\\}$.":7083,"æĢ§åĴĮ":7084,"Ġalignment":7085,"Ġidentical":7086,"Ġkernels":7087,"Ġreferred":7088,"Ġrisks":7089,"èĽĭ":7090,"éĥ½æľī":7091,"Ġembedded":7092,"æĢĿèĢĥ":7093,"Ġdeb":7094,"Ġteac":7095,"Ġreality":7096,"RF":7097,"requ":7098,"Ġintegrated":7099,"Ġlif":7100,"Ġcurves":7101,"body":7102,"çĶ»":7103,"Ġmainly":7104,".](":7105,"color":7106,"Ġeveryone":7107,"ube":7108,"ä»ĸä»¬çļĦ":7109,"ĠSoft":7110,"Ġcomments":7111,"åį´":7112,"mission":7113,"61":7114,"Ġpseud":7115,"Ġweek":7116,"ä»į":7117,"éĹ®é¢ĺçļĦ":7118,"Ġinitialization":7119,"using":7120,"this":7121,"Ġè¿Ļä¸ª":7122,"éĺ»":7123,"Ġentries":7124,"Ġmessages":7125,"ĠRobot":7126,"æĮĩå®ļ":7127,"Ġ70":7128,"Ġsubstant":7129,"real":7130,"Ġfront":7131,"å°ģ":7132,"ao":7133,"]$.":7134,"çī¹å¾ģ":7135,"long":7136,"çŃĸçķ¥":7137,"CS":7138,"åĽłç´ł":7139,"ĠRobots":7140,"æł¸å¿ĥ":7141,"=(":7142,"ä¼łç»Ł":7143,"Ġ|\\":7144,"ĠDuring":7145,"inese":7146,"stein":7147,"ney":7148,"Ġcycle":7149,"underline":7150,"Ġgenerates":7151,"Ġtemplate":7152,"Ġintegration":7153,"iding":7154,"Ġindependently":7155,"Ġpromote":7156,"adr":7157,"deed":7158,"ogene":7159,"æ¡£":7160,"ĠAlex":7161,"ĠFunction":7162,"omic":7163,"ĠIndeed":7164,"ceedings":7165,"Ġprinciples":7166,"é¢ľ":7167,"Ġtru":7168,"Ġincreasingly":7169,"kern":7170,"åıĺå¾Ĺ":7171,"æ¿":7172,"lt":7173,"abul":7174,"Ġforce":7175,"è¯¢":7176,"Ġaff":7177,"Ġ2017":7178,"Ġattract":7179,"mers":7180,"Ġcontribution":7181,"Ġtraffic":7182,"Ġapproximately":7183,"eck":7184,"Ġentry":7185,"Sh":7186,"åĮ¹":7187,"Ġoutcome":7188,"Ġmagnitude":7189,"Tr":7190,"çĹħ":7191,"Ġpossibility":7192,"________":7193,"Ġflu":7194,"Ġguarantee":7195,"ĠRelated":7196,"shot":7197,"çľŁæŃ£":7198,"Ġreplaced":7199,"plicity":7200,"Ġgrowing":7201,"ufact":7202,"æķ°æį®åºĵ":7203,"ç¬¦åı·":7204,"é¢ĳ":7205,"Ġemotions":7206,"èĥĮ":7207,"range":7208,"Ġspectral":7209,"values":7210,"æ±ł":7211,"icy":7212,"ĠExperiments":7213,"ĠCenter":7214,"Ġaims":7215,"æľ¬èº«":7216,"olec":7217,"çļĦæĹ¶éĹ´":7218,"PT":7219,"éļıçĿĢ":7220,"fortun":7221,"çļĦä¸Ģä¸ª":7222,"çĶļ":7223,"Ġid":7224,"lementary":7225,"Ġvisit":7226,"é²":7227,"é¥®":7228,"unch":7229,"Ġstimul":7230,"ĠDepartment":7231,"Ġdouble":7232,"ening":7233,"Ġago":7234,"Sc":7235,"change":7236,"Ġoccurs":7237,"çŃīå¾ħ":7238,"Ġorth":7239,"ĠNN":7240,"pass":7241,"è®Ńç»ĥ":7242,"Ġpredic":7243,"urope":7244,"ula":7245,"Ġfavor":7246,"mes":7247,"Ġfinally":7248,"py":7249,"Ġconfl":7250,"}.$":7251,"apes":7252,"Ġdistinguish":7253,"Ġcombining":7254,"orth":7255,"ĨĴ":7256,"Ġdisease":7257,"function":7258,"ĠFound":7259,"Ġtoken":7260,"Ġalone":7261,"æł¼å¼ı":7262,"Ġillustrated":7263,"ç¤ºä¾ĭ":7264,"Reg":7265,"antic":7266,"standing":7267,"éĢĲ":7268,"ç»ĵæĿŁ":7269,"Ġscreen":7270,"ä¸ŃåĽ½":7271,"EG":7272,"Ġsounds":7273,"æ¿Ģ":7274,"utorial":7275,"Ġonto":7276,"Ġsharing":7277,")\\\\":7278,"typ":7279,"ris":7280,"tering":7281,"å¸¦æĿ¥":7282,"}.":7283,"çĶŁåĳ½":7284,"cre":7285,"Ġsched":7286,"Ġexecuted":7287,"Ġsite":7288,"clusions":7289,"Ġbalance":7290,"Ġ[<":7291,"SV":7292,"Ġplease":7293,"Ġund":7294,"Ġsensitive":7295,"Ġsn":7296,"Ġwave":7297,"èįĲ":7298,"Ġinverse":7299,"}}}(":7300,"ĠOut":7301,"äºĶ":7302,"Ġimpossible":7303,"ĠDav":7304,"Ġlingu":7305,"Ġgenetic":7306,"éĻ¤äºĨ":7307,"Ġplatforms":7308,"ä½ı":7309,"åĳĺå·¥":7310,"Ġnormalized":7311,"æĸ¯":7312,"Ġdiscriminator":7313,"active":7314,"åĩ»":7315,"ĠLa":7316,"rol":7317,"Ġbiases":7318,"çĽĸ":7319,"For":7320,"Ġclin":7321,"æİ¨èįĲ":7322,"çªģ":7323,"æĢĿæĥ³":7324,"Ġidentification":7325,"rote":7326,"Ġworse":7327,"Ġvariants":7328,"ĠExt":7329,"$;":7330,"åĲĮæł·":7331,"Ġsoon":7332,"Ġhash":7333,"lang":7334,"Ġdrawn":7335,"Ġrang":7336,"ony":7337,"Ġstability":7338,"onic":7339,"æķ°éĩı":7340,"åĩĨå¤ĩ":7341,"ĠDist":7342,"Ġgovernment":7343,"}})$":7344,"]$,":7345,"Ġmiddle":7346,"æĮĳ":7347,"ä¸įéľĢè¦ģ":7348,"Ġcriterion":7349,"oney":7350,"Ġrough":7351,"cles":7352,"Ġderive":7353,"Ġlogical":7354,"%)":7355,"valid":7356,"overs":7357,"Ġscaling":7358,"isely":7359,"äººå·¥":7360,"arb":7361,"è¯¾ç¨ĭ":7362,"ãĥ":7363,"204":7364,"æĹħ":7365,"çļĦåĩ½æķ°":7366,"axis":7367,"ager":7368,"ession":7369,"éĩįå¤į":7370,"åĮ¹éħį":7371,"Ġintroduction":7372,"AG":7373,"ication":7374,"ynamic":7375,"çī¹åĪ«":7376,"ĠEl":7377,"å·¥ç¨ĭ":7378,"åħ¨å±Ģ":7379,"Ġdependent":7380,"Ġfusion":7381,"ç¨ĭå¼ı":7382,"rew":7383,"Ġcomposed":7384,"rounding":7385,"Ã§":7386,"Ġanimals":7387,"ç»ĦæĪĲ":7388,"Ġopin":7389,"æĸ¹ä¾¿":7390,"}{{\\":7391,"Ġrobotic":7392,"åĪĨåĪ«":7393,"éļĲ":7394,"})$,":7395,"æķĻèĤ²":7396,"Ġworked":7397,"Ġmit":7398,"å®¤":7399,"mediately":7400,"å®ŀéªĮ":7401,"ä¹İ":7402,"Ġthreads":7403,"({":7404,"),$":7405,"lock":7406,"while":7407,"Â·":7408,"Ġstraightforward":7409,"]{}.":7410,"æĺ¾ç¤º":7411,"hess":7412,"éĩįæĸ°":7413,"ipal":7414,"ĠWat":7415,"radient":7416,"Ġremember":7417,"åĨ²":7418,"elled":7419,"æĥ³è¦ģ":7420,"jpg":7421,"Ġconflict":7422,"ĠDevelop":7423,"Ġexpectation":7424,"driven":7425,"Ġgreen":7426,"æ¤įçī©":7427,"~~~~":7428,"Ġpreserv":7429,"sort":7430,"Ġdependency":7431,"æıĲåįĩ":7432,"Ġintended":7433,"çı":7434,"æ²Ł":7435,"abulary":7436,"RM":7437,"figures":7438,"Ġ[]{":7439,"Ġmanage":7440,"æľīäºĽ":7441,"ĠSche":7442,"PHP":7443,"RC":7444,"é¢ľèī²":7445,"ä¸ĬéĿ¢çļĦ":7446,"Ġfeasible":7447,"åİŁåĪĻ":7448,"çĶļèĩ³":7449,"æ··":7450,"Ġfed":7451,"çİ°ä»£":7452,"Ġcoming":7453,"æĦıåĳ³":7454,"åĽ°":7455,"Ġdecide":7456,"Ġmixture":7457,"ĠÐ½":7458,"ĠDataset":7459,"esides":7460,"effect":7461,"åİĨåı²":7462,"ĠStep":7463,"Ðº":7464,"Ġutter":7465,"Ġcompat":7466,"Ġplayers":7467,"Ġvar":7468,"èĦĳ":7469,"åĮºåĪ«":7470,"Ġpossibly":7471,"Ġ2010":7472,"åį³åı¯":7473,"Ġcompile":7474,"Ġcomparable":7475,"å¿ħè¦ģ":7476,"Ġspread":7477,"Ġweather":7478,"pers":7479,"oe":7480,"è·µ":7481,"^+":7482,"ä¸ĢçĽ´":7483,"Ġflexible":7484,"Ġmask":7485,"Ġgiving":7486,"rial":7487,"Ġabsolute":7488,"Ġvast":7489,"tack":7490,"ĠHis":7491,"Ġax":7492,"CI":7493,"Ġclosely":7494,"Ġdeterministic":7495,"tage":7496,"çļĦè¯Ŀ":7497,"Ġdirections":7498,"Ġblue":7499,"pat":7500,"åĩºäºĨ":7501,"hered":7502,"Ġcloser":7503,"ĠGr":7504,"\\}$,":7505,"\\]).":7506,"éĿ¢åĲĳå¯¹è±¡":7507,"ERT":7508,"error":7509,"ipl":7510,"conds":7511,"ä½ĵéªĮ":7512,"mathop":7513,"Ġasked":7514,"[]":7515,"ariate":7516,"Ġincrement":7517,"Ġcreation":7518,"Ġimmediately":7519,"åģľ":7520,"alities":7521,"Ġdang":7522,"isons":7523,"'}":7524,"phistic":7525,"lim":7526,"ä»¥ä¸ĭæĺ¯":7527,"Ġum":7528,"ypes":7529,"Ġround":7530,"ĠAre":7531,"ï¼ģ":7532,"Ġhistor":7533,"æķ°åŃ¦":7534,"å®ŀè·µ":7535,"è®¨è®º":7536,"Ġtrig":7537,"ä¸°":7538,"Ġillustrate":7539,"éĩĬæĶ¾":7540,"Of":7541,"Ġrich":7542,"ĠSure":7543,"ĠCertain":7544,"åĬ¨çī©":7545,"sto":7546,"æŃĮ":7547,"å½ĵçĦ¶":7548,"Ġgrammar":7549,"Ġfacilit":7550,"ĠSem":7551,"ĠGraph":7552,"ĠAdv":7553,"Ġadvances":7554,"Ġexistence":7555,"pression":7556,"\\{\\":7557,"olding":7558,"etermin":7559,"Ġmarginal":7560,"Ġtrials":7561,"è´¢":7562,"Ġsparsity":7563,"Ġbat":7564,"åĩºæĿ¥":7565,"Ġguess":7566,"åĪł":7567,"æŁĲäºĽ":7568,"æĦıåĳ³çĿĢ":7569,"è®¾å¤ĩ":7570,"Ġcompression":7571,"Ġdimensionality":7572,"Ġfaces":7573,"å©":7574,"è¿½":7575,"Ġmatches":7576,"Ġconsistency":7577,"mathscr":7578,"etch":7579,"Ġcriteria":7580,"aily":7581,"Ġspectrum":7582,"Ġcame":7583,"}|\\":7584,"ief":7585,"éĢĴå½Ĵ":7586,"Ġfewer":7587,"Ġwebsite":7588,"Ã³":7589,"ÑģÑĤ":7590,"Ġmostly":7591,"Ġreferences":7592,"Ġaccurately":7593,"è¿Ľåħ¥":7594,"Ġbeaut":7595,"æĶ¾åľ¨":7596,"Ġrefers":7597,"Ġremoved":7598,"ç«ŀ":7599,"fortunately":7600,"Ġutility":7601,"ä¸ļåĬ¡":7602,"Ġdifficulty":7603,"Sec":7604,"ĠGl":7605,"chen":7606,"é¼":7607,"Ġcomment":7608,"Ġfashion":7609,"æ·±åħ¥":7610,"Ġfamiliar":7611,"ÐµÐ½":7612,"ĠCNNs":7613,"Ġwrote":7614,"!\\":7615,"æ²ŁéĢļ":7616,"Ġrows":7617,"inters":7618,"ä»·æł¼":7619,"floor":7620,"Ġ[@].":7621,"Ġrecursive":7622,"Ġtravel":7623,"Ġcop":7624,"Ġmargin":7625,"Ġpurposes":7626,"ä¸Ģç¯ĩ":7627,"main":7628,"Ġintegers":7629,"å¹¿æ³Ľ":7630,"åľ°çĲĥ":7631,"å®ŀéĻħä¸Ĭ":7632,"èµĽ":7633,"oses":7634,"éĴĪå¯¹":7635,"Ġreveal":7636,"å¡ŀ":7637,"ĠReLU":7638,"Ġeventually":7639,"Ġreconstruct":7640,"Ġmeasurements":7641,"Ġcred":7642,"ĠChinese":7643,"Ġwhite":7644,"Ġstarts":7645,"Ġvariant":7646,"åĵªäºĽ":7647,"Ġdimensional":7648,"çĸĹ":7649,"ĠMin":7650,"ctors":7651,"Ġreprodu":7652,"åĬŀ":7653,"Ġmajority":7654,"ĠEvery":7655,"Ġrelease":7656,"ĠWill":7657,"fix":7658,"æķ´æķ°":7659,"Ġnoted":7660,"ĠChina":7661,"Ġdiagram":7662,"ba":7663,"Ġ95":7664,"Ġvariations":7665,"process":7666,"Ġexcell":7667,"é¦Ļ":7668,"Ġcoordinates":7669,"æĹ©":7670,"Ġcard":7671,"urations":7672,"éĢģ":7673,"æĩ":7674,"Ġ]":7675,"Ġlabor":7676,"èīºæľ¯":7677,"Ġstop":7678,"Ġhund":7679,"Ġheart":7680,"Ġant":7681,"Ad":7682,"ĠProject":7683,"acle":7684,"ĠType":7685,"202":7686,"åı¯ä»¥å¸®åĬ©":7687,"Ġ\\#":7688,"sol":7689,"vector":7690,"Ġaren":7691,"ffer":7692,"åĨ³å®ļ":7693,"Ġconcent":7694,"ĠPe":7695,"çĦ¶èĢĮ":7696,"Ġretrieval":7697,"brace":7698,"Ġ(-":7699,"Ġsophistic":7700,"Ġ29":7701,"year":7702,"å½¢æĪĲ":7703,"Ġmanufact":7704,"Ġfailure":7705,"Ġsupports":7706,"Ġrad":7707,"}}=":7708,"RS":7709,"equiv":7710,"Ġæĸ¹æ³ķ":7711,"éĶĢåĶ®":7712,"Ġ^":7713,"å¼ĤæŃ¥":7714,"Ġmaterials":7715,"irm":7716,"Ġdependencies":7717,"ĠComputing":7718,"ĠSV":7719,"ç¼©":7720,"Ġdense":7721,"TS":7722,"then":7723,"æĶ¶éĽĨ":7724,"çļĦæľĢ":7725,"Ġovercome":7726,"Ġdecrease":7727,"parent":7728,"å±±":7729,"ĠYork":7730,"Ġhandling":7731,"æĺ¯ä»Ģä¹Ī":7732,"Ġé¦ĸåħĪ":7733,"è¿Ĳè¡ĮæĹ¶":7734,"Ġinherit":7735,"write":7736,"Ġcomplement":7737,"Ġsimpler":7738,"Ġreceive":7739,"arp":7740,"stood":7741,"$),":7742,"å¸¸éĩı":7743,"ç»ĨèĬĤ":7744,"uthor":7745,"Ġchoosing":7746,"åİŁçĲĨ":7747,"Ph":7748,"Ġminimizing":7749,"çĭ¬ç«ĭ":7750,"ç»ĦåĲĪ":7751,"seen":7752,"æĲľç´¢":7753,"task":7754,"node":7755,"ĠâĪĴ":7756,"çĽ®åīį":7757,"disc":7758,"ĠRandom":7759,"}}({\\":7760,"å¯Ł":7761,"é¾":7762,"Ġsuggested":7763,"Ġvarying":7764,"empl":7765,"ĠAM":7766,"Ġplaces":7767,"çĽĳ":7768,"boldmath":7769,"Ġvariational":7770,"Ġargue":7771,"ĠFuture":7772,"Ġcarry":7773,"åıĤèĢĥ":7774,"ĠEurope":7775,"Ġ_{":7776,"Ġ2018":7777,"Ġlinks":7778,"lev":7779,"èĢħçļĦ":7780,"Ġsuperior":7781,"çĥ¤":7782,"encoder":7783,"ĠImageNet":7784,"que":7785,"An":7786,"æµģç¨ĭ":7787,"Ġstress":7788,"Ġbugs":7789,"\\|\\":7790,"Ġwanted":7791,"Ġhierarchy":7792,"ĠSN":7793,"ublic":7794,"ĠChe":7795,"å¥³":7796,"Ġcoefficient":7797,"volutional":7798,"yset":7799,"203":7800,"Ġphilosoph":7801,"éĤ£äºĽ":7802,"çīĽ":7803,"Ġformer":7804,"To":7805,"apping":7806,"Ġprocedures":7807,"ĠAmerican":7808,"Ġvaluable":7809,"Ġnearly":7810,"Ġguide":7811,"Ġours":7812,"frak":7813,"Ġstructural":7814,"æŀĦéĢłåĩ½æķ°":7815,"den":7816,"ç»ĩ":7817,"Ġtransportation":7818,"Ġanalys":7819,"æ¥":7820,"\":":7821,"Ġparadigm":7822,"Ġinspired":7823,"unctions":7824,"å®ĥä»¬çļĦ":7825,"eper":7826,"group":7827,"ä½¿çĶ¨çļĦ":7828,"Ġ$\\{\\":7829,"Ġspecification":7830,"IP":7831,"Ġestablish":7832,"%,":7833,"ĠProcessing":7834,"èĭ¥":7835,"Ġpsych":7836,"åĪĽéĢł":7837,"obs":7838,"Ġguidelines":7839,"Right":7840,"Ġdefines":7841,"`.":7842,"Ġneighborhood":7843,"åĭ":7844,"ucl":7845,"ĠTop":7846,"Ġdepict":7847,"Ġpreferences":7848,"Ġincorporate":7849,"Ġapplies":7850,"Ġreli":7851,"Ġmeaningful":7852,"Ġæł¹æį®":7853,"Ġessay":7854,"Ġsufficiently":7855,"Ġconsciousness":7856,"Ġconclude":7857,"emptyset":7858,"ogram":7859,"Ġ209":7860,"Ġbehaviors":7861,"squ":7862,"ctic":7863,"Ġmovement":7864,"inst":7865,"Ġcorpor":7866,"Ġdivided":7867,"->":7868,"è¡¡":7869,"Ġhelped":7870,"Ġmoves":7871,"Ġmitig":7872,"ĠMean":7873,"}}^{(":7874,"efficient":7875,"Ġverify":7876,"ki":7877,"ä¸»é¢ĺ":7878,"Ġbecame":7879,"alue":7880,"aptic":7881,"domain":7882,"æ®Ĭ":7883,"Ġproved":7884,"Ġå¯¹äºİ":7885,"Off":7886,"CP":7887,"apan":7888,"aturally":7889,"ĠStand":7890,"Ġserve":7891,"Ġreader":7892,"sky":7893,"Ġprofessor":7894,"MF":7895,"){#":7896,"äººå·¥æĻºèĥ½":7897,"Ġsimplicity":7898,"ĠNon":7899,"ĠMed":7900,"å¤ļæķ°":7901,"Ġrect":7902,"Ġhyperparameters":7903,"ĠSGD":7904,"how":7905,"ĠÐ¸":7906,"Ġconj":7907,"198":7908,"Ġcountries":7909,"Ġ?":7910,"Ġchecking":7911,"Ġthousands":7912,"plus":7913,"ĠLike":7914,"mathfrak":7915,"ĠHy":7916,"Ġannotations":7917,"Ġextent":7918,"athered":7919,"Ġculture":7920,"ĠFl":7921,"ativity":7922,"fold":7923,"ĠCertainly":7924,"Ġdefining":7925,"ä¸ĭæĿ¥":7926,"Ġplans":7927,"éĴŁ":7928,"BP":7929,"Ġwalk":7930,"ĠAc":7931,"Ġoutl":7932,"å®³":7933,"formative":7934,")/":7935,"aught":7936,"ĠAtt":7937,"æĽ²":7938,"ĠJust":7939,"ĠAny":7940,"çī¹æ®Ĭ":7941,"å¥ĩ":7942,"çĽ¸å¯¹":7943,"010":7944,"JavaScript":7945,"Ġsurv":7946,"ync":7947,"Ġdecoding":7948,"çĽ®çļĦ":7949,"éħĴ":7950,"CD":7951,"Ġquadr":7952,"èĳĹ":7953,"ĠExample":7954,"æĬķèµĦ":7955,"ĠNLP":7956,"æ°ĳ":7957,"Ġcompetitive":7958,"oders":7959,")^{-":7960,"Ġreliable":7961,"Ġcontribute":7962,"è§¦":7963,"ĠDi":7964,"Ġjava":7965,"TP":7966,"æ±ĩ":7967,"Ġgeneralized":7968,"kens":7969,"Ġiterative":7970,"éĢłæĪĲ":7971,"Ġwild":7972,"input":7973,"Ġprecisely":7974,"Ġrestaur":7975,"*{":7976,"çĶŁäº§":7977,"Ġmeasurement":7978,"Ġadopted":7979,"ä¸°å¯Į":7980,"Ġcompact":7981,"Ġclassify":7982,"Ġsoftmax":7983,"Ġexploit":7984,".*]{}":7985,"Ġappe":7986,"ĠAutom":7987,"Ġserious":7988,"ä»ĸçļĦ":7989,"KL":7990,"Ġtrajectory":7991,"Ġphrase":7992,"ĠVari":7993,"Ġcommunicate":7994,"Ġspecify":7995,"æľªæĿ¥":7996,"ridge":7997,"ada":7998,"Ġsong":7999,"Ġleave":8000,"è¿ĽåĪ¶":8001,"ä¹Łä¼ļ":8002,"Ġä»İ":8003,"Ġestablished":8004,"è¯»åıĸ":8005,"Ġcomputations":8006,"å°Ĩåħ¶":8007,"Ġturns":8008,"ĠWell":8009,"Ġaugmentation":8010,"bracket":8011,"åĩºçļĦ":8012,"valuation":8013,"å¨":8014,"Ġentirely":8015,"xx":8016,"ç»ĥä¹ł":8017,"Ġrise":8018,"Ġ\\|\\":8019,"ä½Ļ":8020,"Ġpropagation":8021,"itory":8022,"Ġtemperature":8023,"Ġuniversal":8024,"Ġworst":8025,"Ġdiagonal":8026,"Ġtransformations":8027,"ml":8028,"Ġoperate":8029,"Ġindustries":8030,"ĠConv":8031,"Ġtargets":8032,"åıªè¦ģ":8033,"Ġpolit":8034,"leep":8035,"};":8036,"é¸¡":8037,"ĠAssoci":8038,"Ġcombinations":8039,"Ġarticles":8040,"Ġtu":8041,"hel":8042,"åĳĬè¯ī":8043,"eger":8044,"ids":8045,"Ġaccompl":8046,"Ġ\\[])":8047,"riz":8048,"Ġ()":8049,"rical":8050,"Ġiniti":8051,"æĽ´å¥½çļĦ":8052,"Ġnotice":8053,"ĠIT":8054,"Ġcapability":8055,"Ġclassified":8056,"ani":8057,"life":8058,"Ġarri":8059,"Ġexecute":8060,"Ġpassing":8061,"nowled":8062,"batch":8063,"é¡¶":8064,"Ġinstall":8065,"Ġevaluating":8066,"Ġhorizon":8067,"åĲ§":8068,"ĠUS":8069,"Ġenter":8070,"ĠPHP":8071,"Ġhost":8072,"Ġfairly":8073,"Ġdistances":8074,"Ġmonitoring":8075,"Ġemail":8076,"Ġaccessible":8077,"åı¤":8078,"åĲįåŃĹ":8079,"ç¿»è¯ĳ":8080,"Set":8081,"ancing":8082,"å¤ļçº¿ç¨ĭ":8083,"Cè¯Ńè¨Ģ":8084,"ios":8085,"afe":8086,"ĠRet":8087,"ĠTheir":8088,"][":8089,"erring":8090,"Ġneighbors":8091,"ĠNews":8092,"èŀ":8093,"mn":8094,"connected":8095,"æķ£":8096,"Ġfiltering":8097,"utive":8098,"Ġensuring":8099,"Ġhab":8100,"Ġsophisticated":8101,"åĮĸçļĦ":8102,"reement":8103,"Ġprote":8104,"æŀĦå»º":8105,"ç»ıå¸¸":8106,"æĺ¯æĮĩ":8107,"Ġmor":8108,"è´Ńä¹°":8109,"context":8110,"Ġhybrid":8111,"Ġtips":8112,"Ġcoo":8113,"Ġinterests":8114,"ĠTime":8115,"âĪĴ":8116,"åĮºåŁŁ":8117,"Ġpromising":8118,"Ġexcellent":8119,"åĪĨä¸º":8120,"ĠWatson":8121,"Ġtyped":8122,"åıĹåĪ°":8123,"ĠID":8124,"OW":8125,"heses":8126,"cluding":8127,"çĭĹ":8128,"Ġreaders":8129,"ĠOptim":8130,"æĮĳæĪĺ":8131,"},$":8132,"]{};":8133,"irection":8134,"Ġcars":8135,"ĠMathemat":8136,"Ġregarding":8137,"hy":8138,"|^":8139,"Ġstd":8140,"ĠScal":8141,"æ¶ī":8142,"Ġrev":8143,"Ġfrequently":8144,"itter":8145,"Ġconsequences":8146,"Ġinsert":8147,"Ġcrow":8148,"Ġten":8149,"Ġlemma":8150,"æŁ¥æī¾":8151,"Ġreleased":8152,"ĠFoundation":8153,"RR":8154,"Ġdiscriminative":8155,"Ġroad":8156,"ĠÃĹ":8157,"ĠFacebook":8158,"'(":8159,"Ġprocessor":8160,"è®©æĪĳä»¬":8161,"æŃ£åľ¨":8162,"ĠFollowing":8163,"Ġstages":8164,"ĠWindows":8165,"Ġinterpreted":8166,"Ġcomputationally":8167,"board":8168,"Ġguarantees":8169,"ç½ĳç«Ļ":8170,"åŃĲç±»":8171,"å¤ªéĺ³":8172,"æĮģç»Ń":8173,"Ġconfigurations":8174,"è°ĥæķ´":8175,"Ġuniformly":8176,"ç¾¤":8177,"Ġprecise":8178,"ç´§":8179,"Ġequality":8180,"åĪĽå»ºä¸Ģä¸ª":8181,"Ġmolec":8182,"icon":8183,"ç§¯æŀģ":8184,"ĠTw":8185,"ĠIN":8186,"Ġideal":8187,"èĢĮæĺ¯":8188,"æľºä¼ļ":8189,"Ġcreates":8190,"Ġopportunity":8191,"æĥ¯":8192,"ĠÐ¾":8193,"Ġdate":8194,"ĠAN":8195,"Ġmonitor":8196,"Ġpruning":8197,"ĠHar":8198,"Ġframeworks":8199,"è§Ī":8200,"ĠProfess":8201,"Ġlocated":8202,"åģĩè®¾":8203,"Ġå°ı":8204,"ĠAD":8205,"Ġ}\\":8206,"Ġprogrammed":8207,"åįĹ":8208,"Ġstri":8209,"æ¶Īè´¹":8210,"ĠBen":8211,"|_":8212,"ĠDespite":8213,"åĳ½åĲį":8214,"sole":8215,"çĽĺ":8216,"Ġarrays":8217,"é©¬":8218,"çľģ":8219,"SF":8220,"Ġdiffer":8221,"è¯·æ±Ĥ":8222,"ĠInit":8223,"Ġanom":8224,"Map":8225,"Ġ=\\":8226,"ĠDesign":8227,"inition":8228,"Ġchess":8229,"æĵįä½ľç³»ç»Ł":8230,"Ġcollaboration":8231,"æ¶Īæģ¯":8232,"human":8233,"Qu":8234,"æķ°æį®ç»ĵæŀĦ":8235,"Ġdropout":8236,"negative":8237,"icious":8238,"Ġtuning":8239,"ĠPress":8240,"Ġ\\_":8241,"Ġscales":8242,"orphic":8243,"gra":8244,"åĪłéĻ¤":8245,"ĠUnited":8246,"ĠÐº":8247,"ä¸Ģæ®µ":8248,"èĩªçĶ±":8249,"è§īå¾Ĺ":8250,"ä¸´":8251,"Ġdrive":8252,"gest":8253,"æĶ¿":8254,"xili":8255,"reedy":8256,"æĸ¹æ³ķçļĦ":8257,"oust":8258,"Ġdriving":8259,"Ġparsing":8260,"field":8261,"Ġmixed":8262,"ĠSP":8263,"å±ħ":8264,"Ġconsisting":8265,"ĠJapan":8266,"true":8267,"rVert":8268,"istent":8269,"è§ĦèĮĥ":8270,"Ġunlabeled":8271,"Ġ31":8272,"Ġ[\\":8273,"optimal":8274,"ä»ĺ":8275,"Ġproposal":8276,"Ġliving":8277,"CF":8278,"éĻĲåĪ¶":8279,"vx":8280,"mazon":8281,"Ġeleg":8282,"ĠPol":8283,"ĠLab":8284,"Ġæľī":8285,"åĬ±":8286,"æĿ¥çľĭ":8287,"nds":8288,"åıĺéĩıçļĦ":8289,"ĠJournal":8290,"xiliary":8291,"Ġunderstood":8292,"Ġtack":8293,"äº²":8294,"Ġstandards":8295,"AV":8296,"Ġclient":8297,"textsc":8298,">]{}":8299,"Ġemployees":8300,"local":8301,"Ġcertainly":8302,"Ġcommerc":8303,"æ²»":8304,"Ġconverge":8305,"rastructure":8306,"such":8307,"Ġversus":8308,"^{-\\":8309,"idean":8310,"Ġcontained":8311,"ithmet":8312,"char":8313,"wang":8314,"Ġste":8315,"Ġvocabulary":8316,"ĠBu":8317,"Ġdu":8318,"çŃĳ":8319,"ç³»åĪĹ":8320,"uclidean":8321,"Ġ(\"":8322,"Ġlegal":8323,"onym":8324,"Ġ+\\":8325,"Ġcoordinate":8326,"Ġæľ¬":8327,"rog":8328,"thread":8329,"Ġrealistic":8330,"lVert":8331,"Ġcompr":8332,"],[@":8333,"åĽº":8334,"Ġcontrols":8335,"MD":8336,"images":8337,"Type":8338,"Ġwaste":8339,"MS":8340,"Ġsuperv":8341,"Ġrepresentative":8342,"åħ¬åı¸çļĦ":8343,"åħ´è¶£":8344,"ĠDavid":8345,"Ġproperly":8346,"ĠSum":8347,"Ġadjac":8348,"Ġencoded":8349,"EC":8350,"from":8351,"è¾¾åĪ°":8352,"Ġmillions":8353,"Ġblog":8354,"ĠExperimental":8355,"multi":8356,"Ġcandidates":8357,"ĠBig":8358,"Ġagree":8359,"else":8360,"ĠMethods":8361,"tab":8362,"Ġseparately":8363,"Ġtyping":8364,"ç¡¬":8365,"Ġcontexts":8366,"çĽ´åĪ°":8367,"Ġconstructor":8368,"BN":8369,"å¼ĢåıĳèĢħ":8370,"Ġmanually":8371,"ĠGeneral":8372,"Ġviewed":8373,"æ´¾":8374,"æİ¥åıĹ":8375,"Ġschedul":8376,"Ġinvariant":8377,"Ġdetected":8378,"Ġcomparisons":8379,"check":8380,"Ġtrends":8381,"ĠUs":8382,"learn":8383,"Ġorient":8384,")}_{":8385,"Ġlatest":8386,"Ġepis":8387,"é«ĺçļĦ":8388,"ä½ľèĢħ":8389,"æĭī":8390,"æĹłè®º":8391,"race":8392,"Ġdam":8393,"Ġdecay":8394,"Ġpseudo":8395,"ç³ĸ":8396,"Ġstru":8397,"ingly":8398,"èĻļæĭŁæľº":8399,"Ġsubsequent":8400,"æ¸Ĳ":8401,"ĠStat":8402,"Ġval":8403,"Ġredund":8404,"Ġ35":8405,"Ġproductivity":8406,"Ġconference":8407,"Ġ__":8408,"Ġinitialized":8409,"inv":8410,"enet":8411,"Ġ&=&":8412,"çĵ":8413,".[":8414,"asp":8415,"ested":8416,"MC":8417,"ç²ī":8418,"]\\],":8419,"points":8420,"ĠCalif":8421,"Ġinterpol":8422,"program":8423,"ç»Ŀ":8424,":=":8425,"å¤ļå°ĳ":8426,").\\":8427,"}),":8428,"~\\":8429,"Ġ*(":8430,"åĲİçļĦ":8431,"Ġsurvey":8432,"Ġ208":8433,"æĺİç¡®":8434,"Ġharder":8435,"ä¹Łæľī":8436,"å»ºçŃĳ":8437,"ĠÂ±":8438,"Offset":8439,"ä½ľçĶ¨åŁŁ":8440,"æĸĩæ¡£":8441,"ĠRecall":8442,"Ġnet":8443,"ceil":8444,"atever":8445,"ç¬¬ä¸Ģ":8446,"Ġextensive":8447,"TML":8448,"Ġrestricted":8449,"Ġperception":8450,"å£«":8451,"ĠVGG":8452,"å¤ļç§į":8453,"propagation":8454,"Ġremark":8455,"Ġchance":8456,"åįĬ":8457,"sequently":8458,"bon":8459,"Ġimplications":8460,"uzzy":8461,"éĿł":8462,"å¯¹è¯Ŀ":8463,"åįİ":8464,"ä¼ĺåħĪ":8465,"è¡ĮçļĦ":8466,"ĠFL":8467,"æľįåĬ¡åĻ¨":8468,"Ġcalculation":8469,"Ġtutorial":8470,"Ġaffected":8471,"Ġdemonstrates":8472,"èĦļæľ¬":8473,"ibri":8474,"ĠNP":8475,"Ġanyone":8476,"EL":8477,"æ¯ıæ¬¡":8478,"Ġtried":8479,"ogeneous":8480,"chang":8481,"Ġsymmetric":8482,"Ġsubsets":8483,"Ġdecades":8484,"Ð¾Ð²":8485,"source":8486,"pmb":8487,"cho":8488,"Ġcultural":8489,"ç§»åĬ¨":8490,"MP":8491,"ocation":8492,"ĠBack":8493,"Ġfoot":8494,"\"}.":8495,"Ġfocuses":8496,"Ġencourage":8497,"Ġoptimizing":8498,"Ġ$.":8499,"Ġoverhead":8500,"ĠGP":8501,"Ġtalking":8502,"å¤§å¤ļæķ°":8503,"Ġdeeper":8504,"'.":8505,"ç»Ħç»ĩ":8506,"opping":8507,"ĠEr":8508,"Ġ207":8509,"Ġheld":8510,"network":8511,"ĠCommun":8512,"}}})":8513,"tail":8514,"Ġoverview":8515,"ullet":8516,"å°¾":8517,"Ġrelies":8518,"ÐµÑĤ":8519,"Ġselecting":8520,"Ġdealing":8521,"è·³":8522,"Ġboundaries":8523,"hold":8524,"Ġwonder":8525,"Ġtokens":8526,"Ġä½ł":8527,"Ġdaily":8528,"è¯»èĢħ":8529,"Ġrecover":8530,"Ġcontinues":8531,"Ġalgebra":8532,"Ġpermut":8533,"åį¡":8534,"çļĦå½±åĵį":8535,"arity":8536,"çļĦå·¥ä½ľ":8537,"ĠHam":8538,"é«ĺçº§":8539,"Ġconverges":8540,"going":8541,"ĠGroup":8542,"Ġlever":8543,"Ġmaximize":8544,"itely":8545,"called":8546,"ĠWhere":8547,"oted":8548,"æ½":8549,"OD":8550,"Ġ128":8551,"Ġnaturally":8552,"Ġfitness":8553,"parency":8554,"written":8555,"æķ°æį®çļĦ":8556,"ductive":8557,"BF":8558,"Ġseed":8559,"å¤ĸéĥ¨":8560,"Ġdelay":8561,"]()":8562,"Ġpenalty":8563,"Ġappearance":8564,"çĶµå½±":8565,"åľ¨äºİ":8566,"Ġcircuit":8567,"Ġultimately":8568,"æĺł":8569,"Ġmining":8570,"Ġeye":8571,"Ġmal":8572,"ĠForm":8573,"uned":8574,"ä¼°":8575,"å¯»æī¾":8576,"èī¯å¥½çļĦ":8577,"ster":8578,"Ġclinical":8579,"Ġsave":8580,"ÑĤÐ¾":8581,"Ġstuff":8582,"Ġmini":8583,"ithmetic":8584,"Ġforecast":8585,"ĠDifferent":8586,"bx":8587,"Ġreached":8588,"%.":8589,"Ġexplored":8590,"Ġsubspace":8591,"Ġsentiment":8592,"Ġrewards":8593,"æľĭ":8594,"æ¯ıä¸Ģä¸ª":8595,"Ġchatbots":8596,"Ġvehicles":8597,"Ġbud":8598,"Ġmathematics":8599,"Ġasympt":8600,"ores":8601,"bugg":8602,"è¶³å¤Ł":8603,"pected":8604,"ĠUnfortunately":8605,"Ð²":8606,"Ġmanual":8607,"éĺ»å¡ŀ":8608,"åĲĪéĢĤ":8609,"èĲ½":8610,"æĦŁåĪ°":8611,"æľīçļĦ":8612,"prot":8613,"Ġproceed":8614,"äº¤éĢļ":8615,"If":8616,"128":8617,"Ġ$|\\":8618,"ĠIts":8619,"Ġplus":8620,"Ġrevolution":8621,"ĠWar":8622,"Ġsurrounding":8623,"emporal":8624,"Ġdivergence":8625,"æİī":8626,"è¿İ":8627,"theless":8628,"urrence":8629,"elt":8630,"istically":8631,"Ġmodify":8632,"Ġcompress":8633,"vd":8634,"Ġcontract":8635,"æ´ŀ":8636,"è§£æŀĲ":8637,"Ġcomprehensive":8638,"Ġchem":8639,"æłĩè®°":8640,"Ġmonot":8641,"Ġannotation":8642,"çļĦéĩįè¦ģ":8643,"ĠæĢ»ä¹ĭ":8644,"output":8645,"Ġacademic":8646,"ç«ŀäºī":8647,"å±ŀäºİ":8648,"Ġcaptured":8649,"ĠProposition":8650,"ball":8651,"org":8652,"ulner":8653,"æıĴåħ¥":8654,"ĠSchool":8655,")-\\":8656,"umb":8657,"Ġkeeping":8658,"\");":8659,"Ġmethodology":8660,"./":8661,"Ġprofessional":8662,"Ġpolym":8663,"Ġbecoming":8664,"ĠGerman":8665,"å®īè£ħ":8666,"ĠRecognition":8667,"Ġbrow":8668,"Ġharm":8669,"models":8670,"Ġcontrolled":8671,"Ġdiscovery":8672,"ilitary":8673,"ĠSpr":8674,"Ġphysics":8675,"Ġcalling":8676,"ĠThrough":8677,"vere":8678,"Ġcompetition":8679,"ĠPattern":8680,"Ġtoward":8681,"}}^{\\":8682,"Ġinherent":8683,"entions":8684,"Ġadds":8685,"Ġsatisfied":8686,"dagger":8687,"Ġplant":8688,"Ġprototype":8689,"Ġanalyzed":8690,"æĪĲæľ¬":8691,"ums":8692,"éĿ¢è¯ķ":8693,"Ġhot":8694,"æĿ¥è¶Ĭ":8695,"Ġprincipal":8696,"Ġseconds":8697,"Ġsynthes":8698,"Ġisol":8699,"ĠElect":8700,"Ġachieving":8701,"Ġgene":8702,"ervice":8703,"dom":8704,"çŃĶæ¡Ī":8705,"Ġplaying":8706,"Ġpatch":8707,"Ġyoung":8708,"Ġcauses":8709,"romise":8710,"RNN":8711,"ado":8712,"first":8713,"æĽ´æĸ°":8714,"Ġdro":8715,"duc":8716,"Ġschemes":8717,"éĩĮéĿ¢":8718,"Ġheuristic":8719,"Ġinteractive":8720,"è·Ŀ":8721,"column":8722,"åĪ¶å®ļ":8723,"Ġemotion":8724,"Ġvisible":8725,"æĸ¹åĲĳ":8726,"Ġintroducing":8727,"Ġreject":8728,"å°Ĩä¼ļ":8729,"hou":8730,"Ġapprec":8731,"tically":8732,"åįķè¯į":8733,"Ġorganized":8734,"oke":8735,"ĠKur":8736,"Section":8737,"Ġsty":8738,"Ġmaybe":8739,"è¿ĶåĽŀåĢ¼":8740,"ĠUnlike":8741,"Ġtechnological":8742,"Ġintroduces":8743,"æĲŃ":8744,"Ġlaws":8745,"è¶ĬæĿ¥è¶Ĭ":8746,"ĠDue":8747,"Ġassembly":8748,"ä»¥ä¾¿":8749,"æ¶īåıĬ":8750,"å®¹åĻ¨":8751,"åįķåħĥ":8752,"çļĦç»ĵæŀľ":8753,"Ġdirected":8754,"é£İéĻ©":8755,"hell":8756,"Ġsimilarly":8757,"Ġske":8758,"Ġ75":8759,"Ġ\\!":8760,"æľĭåıĭ":8761,"zhang":8762,"çł´":8763,"Ġtrend":8764,"ector":8765,"Ġwal":8766,"åĿļ":8767,"ogonal":8768,"Ġcausal":8769,"ç»ĵåĲĪ":8770,"sign":8771,"çĲĨè®º":8772,"arbage":8773,"Ġmen":8774,"rob":8775,"IR":8776,"è§Ĵèī²":8777,"Ġtrial":8778,"Ġexpans":8779,"Ġinnovation":8780,"éĻįä½İ":8781,"Ġextensions":8782,"*-":8783,"Ġconstants":8784,"iverse":8785,"TR":8786,"Ġrecords":8787,"è´Ŀ":8788,"ç§ģ":8789,"ĠCO":8790,"ĠLib":8791,"Ġambigu":8792,"Ġbounding":8793,"Ġresponsib":8794,"Ġauxiliary":8795,"ipped":8796,"Ġcatch":8797,"aware":8798,"mber":8799,"kin":8800,"èĪĴ":8801,"Ġconstrained":8802,"Ġconversation":8803,"Ġsaying":8804,"ĠMar":8805,"Ġconcrete":8806,".(":8807,"Ġutilize":8808,"ĠAppro":8809,"IO":8810,"('":8811,"Data":8812,"Ġnearest":8813,"ĠWik":8814,"Ġtrajectories":8815,"cs":8816,"rep":8817,"Ġalgorithmic":8818,"})}":8819,"js":8820,"ĠAdam":8821,"ĠAv":8822,"}}[":8823,"Ġattempts":8824,"Ġregret":8825,"ç»¼":8826,"overset":8827,"è§ĦåĪĴ":8828,"Ġcreative":8829,"Ġapplicable":8830,"Ġencode":8831,"ometric":8832,"Ġperformances":8833,"æ³¢":8834,"å±Ģéĥ¨":8835,"unk":8836,"Ġ[`":8837,"åĬª":8838,"LS":8839,"Ġstrugg":8840,"Ġstation":8841,"Ġprocessed":8842,"Ġpatches":8843,"Ġcompiled":8844,"Ġä¸Ģ":8845,"è§£åĨ³æĸ¹æ¡Ī":8846,"Ġsubstit":8847,"Ġdoub":8848,"riends":8849,"Ġlost":8850,"ĠFr":8851,"Ġtrick":8852,")}_":8853,"Ġprice":8854,"ĠBro":8855,"Ġpipeline":8856,"Ġbag":8857,"Ġpointers":8858,"umul":8859,"èĴ":8860,"ilibri":8861,"height":8862,"Ġsearching":8863,"Ġdetermining":8864,"dependent":8865,")}(":8866,"Ġaddressed":8867,"cription":8868,"Ġorigin":8869,"Ġhelping":8870,"Ġsil":8871,"ĠMo":8872,"Ġinvolving":8873,"mean":8874,"ä¹ĺ":8875,"Ġwhenever":8876,"äºĨä¸Ģ":8877,"å®ĥæĺ¯":8878,"oost":8879,"ĠProof":8880,"Ġincorrect":8881,"101":8882,"Ġsurprising":8883,"çļĦè¯Ńè¨Ģ":8884,"ornia":8885,"Ġtrace":8886,"Ġarm":8887,"å°ģè£ħ":8888,"æĢĿç»´":8889,"Ġletter":8890,"ĠTe":8891,"èģĮä¸ļ":8892,"Ġexperi":8893,"Ġmoney":8894,"mapsto":8895,"iated":8896,"Ġexploring":8897,"Ne":8898,"ĠNotice":8899,"ĠScheme":8900,"\"},":8901,"Ġtransformed":8902,"Ġextreme":8903,"éļľ":8904,"Ġminimization":8905,"Ġclassic":8906,"\"}).":8907,"åĲĪçĲĨ":8908,"ĠSol":8909,"PP":8910,"çĽ¸åħ³çļĦ":8911,"å¸¸è§ģçļĦ":8912,"Ġexceptions":8913,"å¤įæĿĤåº¦":8914,"}$)":8915,"Ġdatabases":8916,"èĢĹ":8917,"éģĩåĪ°":8918,"na":8919,"Ġlate":8920,"Ġseparation":8921,"Ġmere":8922,"Ġtruly":8923,"ĠSte":8924,"ĠSearch":8925,"é«ĺæķĪ":8926,"å¾·":8927,"Ġ\\(":8928,"æĸ¹éĿ¢çļĦ":8929,"Ġdiagnosis":8930,"Ġretain":8931,"Ġrecorded":8932,"é±":8933,"Ġimpacts":8934,"ivariate":8935,"Ġconsumption":8936,"ĠBefore":8937,"Ġcos":8938,"åĬªåĬĽ":8939,"ä»įçĦ¶":8940,"éģµ":8941,"condition":8942,"Ġintuitive":8943,"matically":8944,"icians":8945,"ostic":8946,"ç¬¦åĲĪ":8947,"åµ":8948,"ĠPost":8949,"Ġrequirement":8950,"Ġminutes":8951,"FT":8952,"Name":8953,"åĪļ":8954,"Ġverification":8955,"Ġvisualization":8956,"pcbi":8957,"Ġcancer":8958,"Ġloops":8959,"ĠStan":8960,"å¥¶":8961,"æĦŁè§ī":8962,"tered":8963,"ĠAmazon":8964,"encing":8965,"éħįç½®":8966,"SO":8967,"å¼Ģåıĳäººåĳĺ":8968,"Ġallocation":8969,"èŀį":8970,"é»Ħ":8971,"ĠTensor":8972,"icode":8973,"Ġunseen":8974,"Ġuns":8975,"é±¼":8976,"2020":8977,"joint":8978,"ishes":8979,"ups":8980,"Ġfindings":8981,"dule":8982,"ĠLinux":8983,"ĠAdd":8984,"Ġcommercial":8985,"Ġ({\\":8986,"Ġå¥½çļĦ":8987,"Ġpresentation":8988,"Ġwent":8989,"Ġunless":8990,"Ġcarried":8991,"ini":8992,"conv":8993,"ĠProfessor":8994,"ĠStates":8995,"åľŁ":8996,"æĹ¢":8997,"ï¿":8998,"Ġsend":8999,"Ġroughly":9000,"ä¸Ĭä¸ĭ":9001,"Ġmanifold":9002,"åµĮ":9003,"èįī":9004,"Ġ}{":9005,"sampling":9006,"Ġ36":9007,"Ġdegrees":9008,"Ġbiased":9009,"Ġregister":9010,"Ġlargely":9011,"Ġreturned":9012,"Ġ[@;":9013,"icks":9014,"ĠExpl":9015,"Ġoverfitting":9016,"gt":9017,"çĶµåŃĲ":9018,"}_{{\\":9019,")_{":9020,"Ġannotated":9021,"Ġbegan":9022,"åĿı":9023,"reference":9024,"Ġpairwise":9025,"åıĳå¸ĥ":9026,"Ġlogistic":9027,"ribution":9028,")$-":9029,"ä¿ĿåŃĺ":9030,"æĬĽ":9031,"igmoid":9032,"äº¤æµģ":9033,"Ġgreatly":9034,"lor":9035,"Ġsatisfying":9036,"Ġactivations":9037,"SVM":9038,"æľīåħ³":9039,"ç¨ĭåº¦":9040,"izers":9041,"Ġvulner":9042,"Ġalb":9043,"è¿ĺåı¯ä»¥":9044,"Ġinfrastructure":9045,"<\\":9046,"levant":9047,"ese":9048,"cosystem":9049,"åĲĪä½ľ":9050,"Ġna":9051,"Ġspecialized":9052,"\\}_{":9053,"resent":9054,"Ġshif":9055,"ç´¢å¼ķ":9056,"Ġpara":9057,"Ġflexibility":9058,"åĲ¦åĪĻ":9059,"Ġbir":9060,"ä¸½":9061,"Ġrespective":9062,"\\]),":9063,"ĠEst":9064,"ĠEnc":9065,"ĠLu":9066,"match":9067,"ĠProblem":9068,"Ġdesigning":9069,"ä¹łæĥ¯":9070,"sample":9071,"ica":9072,"æł¡":9073,"ä»£çłģä¸Ń":9074,"åģı":9075,"Ġpriorit":9076,"ka":9077,"phone":9078,"Ġoverlap":9079,"ĠProcess":9080,"Ġstated":9081,"Ġsignificance":9082,"ĠWord":9083,"å®ĺ":9084,"LR":9085,"annel":9086,"Ġsegments":9087,"æĢ»ç»ĵ":9088,"Ġinheritance":9089,"UT":9090,"é²ľ":9091,"Ġsimulate":9092,"ham":9093,"çĮ«":9094,"ker":9095,"æĭħ":9096,"crib":9097,"Ġeconomy":9098,"ĠCalifornia":9099,"ricult":9100,"Ġsomewhat":9101,"ä½³":9102,"aling":9103,"rated":9104,"çŁ³":9105,"è¿Ļä¸ªéĹ®é¢ĺ":9106,"Ġnative":9107,"ç»Ļåĩº":9108,"ĠII":9109,"ĠMT":9110,"Ġsyntactic":9111,"Ġgeneralize":9112,"Ġgraphical":9113,"å¿ĥçĲĨ":9114,"åĴĸ":9115,"Ġdespite":9116,"Ġevolutionary":9117,"Ġlinked":9118,"Ġsensitivity":9119,"Ġpartially":9120,"UR":9121,"target":9122,"Ġshor":9123,"random":9124,"ç¦ı":9125,"Ġcyber":9126,"Ĺı":9127,"Ġdiscrimination":9128,"Ġreports":9129,"ĠBesides":9130,"ĠéĢļè¿ĩ":9131,"åºĹ":9132,"Ġsmallest":9133,"Ġsections":9134,"MI":9135,"And":9136,"å±ķç¤º":9137,"*]{}.":9138,"Ġcoverage":9139,"Ġknows":9140,"ĠRecently":9141,"Ġthank":9142,"iant":9143,"å¤įåĪ¶":9144,"Ġlosses":9145,"Per":9146,"triang":9147,"æŁĵ":9148,"convex":9149,"Ġtrivial":9150,"Ġ.,":9151,"Ġobst":9152,"Ġsynthesis":9153,"Ġordering":9154,"gorithms":9155,"ä½ľåĵģ":9156,"èģļ":9157,"å¤§éĩı":9158,"loss":9159,"concept":9160,"next":9161,"Ġbaselines":9162,"Ġspike":9163,"Ġadvice":9164,"means":9165,"Ġdecreases":9166,"Ġanimal":9167,"Ġä¸º":9168,"Ġequally":9169,"ĠStandard":9170,"çļĦåĨħåŃĺ":9171,"åħ±åĲĮ":9172,"Ġcontact":9173,"Ġlimits":9174,"æ³¨éĩĬ":9175,"azy":9176,"Ġjointly":9177,"Ġdele":9178,"Ġpieces":9179,"Ġpush":9180,"validation":9181,"ç§Ģ":9182,"ç®±":9183,"Ġupdating":9184,"ĠHigh":9185,"Ġstatus":9186,"Ġstronger":9187,"Ġacoust":9188,"Ġdocumentation":9189,"å¹¶ä¸įæĺ¯":9190,"Ġroutine":9191,"åŃĹæ®µ":9192,"Ġmeant":9193,"è¡Įä¸ļ":9194,"acter":9195,"ĠThanks":9196,"Ġtransitions":9197,"ji":9198,"Ġecosystem":9199,"ĠSoftware":9200,"Ġbuy":9201,"Ġ$,":9202,"Ġinterview":9203,"Ġmilitary":9204,"æķ°æį®ç±»åŀĭ":9205,"ĠMac":9206,"ographic":9207,"çī©è´¨":9208,"ĠAssume":9209,"åį³ä½¿":9210,"æ°´å¹³":9211,"Ġdescribing":9212,"odal":9213,"Ð¼":9214,"ĠæľĢåĲİ":9215,"Ġgenes":9216,"ĠEuclidean":9217,"ĠMich":9218,"Ġtriple":9219,"irable":9220,"çļĦåĨħå®¹":9221,"ä¸ĭéĿ¢çļĦ":9222,"det":9223,"Ġfails":9224,"ĠOOP":9225,"Ġrecording":9226,"èģĶç³»":9227,"Ġprofession":9228,"ils":9229,"person":9230,"_*":9231,"ĠPCA":9232,"ortex":9233,"Ġdru":9234,"Ġer":9235,"Ġextends":9236,"valued":9237,"hav":9238,"Ġexamine":9239,"ament":9240,"Ġ45":9241,"ĠNet":9242,"æ´Ĺ":9243,"åĪĨäº«":9244,"æľĢè¿ĳ":9245,"æŃ»":9246,"ç¤¾äº¤":9247,"ĠLast":9248,"Ġcorrelations":9249,"Par":9250,"Ġ$-":9251,"ĠDiscuss":9252,"insic":9253,"|$":9254,"icine":9255,"ĠFram":9256,"but":9257,"ĠRE":9258,"ĠCommon":9259,"æ±½":9260,"ç¼ºçĤ¹":9261,"ĠPlease":9262,"éĺµ":9263,"Su":9264,"Ġgeometric":9265,"ĠPy":9266,"å¯¹åºĶ":9267,"Ġassuming":9268,"etal":9269,"Ġsurve":9270,"Ġ96":9271,"Ġdead":9272,"Ġrating":9273,"CPU":9274,"ĠImplement":9275,"ĠRGB":9276,"Ġassert":9277,"Ġteams":9278,"Ã¶":9279,"æĿ¥å®ŀçİ°":9280,"Ġreserv":9281,"parallel":9282,"mult":9283,"UI":9284,"Ġbur":9285,"itz":9286,"åħ¨çĲĥ":9287,"åħ¶å®ĥ":9288,"Ġoppos":9289,"iced":9290,"Ġconsequence":9291,"ĠLabor":9292,"Ġmid":9293,"Ġsuppose":9294,"æĩĤ":9295,"Ġremoving":9296,"Ġcontroller":9297,"æĶ¹è¿Ľ":9298,"unders":9299,"Ġmultip":9300,"Ġ@;":9301,"Ġcache":9302,"Ġproven":9303,"ION":9304,"Flow":9305,"ello":9306,"fast":9307,"MSE":9308,"ĠCE":9309,"Ð´":9310,"ĠNatural":9311,"Ġspeaking":9312,"ls":9313,"rey":9314,"enty":9315,"Ġreplacing":9316,"Ġ$\\|":9317,"Ġë":9318,"ç§ĳæĬĢ":9319,"Ġindicating":9320,"Ġpicture":9321,"MA":9322,"Ġnumerous":9323,"Ġ\\{\\":9324,"Ġmag":9325,"He":9326,"Ġmath":9327,"DL":9328,"Ġperturbation":9329,"çļĦç±»":9330,"æķħäºĭ":9331,"uts":9332,"Ġadapted":9333,"Ġtax":9334,"Ġbenchmarks":9335,"Ġintuition":9336,"ĠPredict":9337,"ĠSur":9338,"æ¸ħæĻ":9339,"çĽ¸äºĴ":9340,"spect":9341,"rypt":9342,"Ġaffor":9343,"Ġexceed":9344,"ĠChrist":9345,"Ġåı¯ä»¥":9346,"stract":9347,"otes":9348,"block":9349,"ycl":9350,"ĠTransform":9351,"Ġbrains":9352,"ä¹ħ":9353,"åĬ©äºİ":9354,"ç¨³å®ļ":9355,"Ġinduction":9356,"Ġunc":9357,"Ġillustrates":9358,"Ġphone":9359,"base":9360,"å¯¹åºĶçļĦ":9361,"Ġ34":9362,"Ġfriends":9363,"index":9364,"Web":9365,"App":9366,"Ġmultiplication":9367,"æľ¨":9368,"èĸ":9369,"resolution":9370,"çªĹ":9371,"ucle":9372,"hard":9373,"atile":9374,"clusive":9375,"Ġsyste":9376,"çĶŁçī©":9377,"éĢı":9378,"åĩĨç¡®":9379,"ĠPerformance":9380,"iking":9381,"Ġcentury":9382,"chitz":9383,"Ġarithmetic":9384,"Rightarrow":9385,"Ġconsistently":9386,"åĵĪ":9387,"åĲĥ":9388,"é¡¾":9389,"Ġexplains":9390,"Ġ256":9391,"fil":9392,"ana":9393,"çŃ¾":9394,"Ġnone":9395,"Ġwait":9396,"çĶŁæĢģ":9397,"Ġwhatever":9398,"æīĵåį°":9399,"ĠComputational":9400,"weil":9401,"Ġindices":9402,"ano":9403,"Ġcomfor":9404,"ynchronous":9405,"åıįåºĶ":9406,"åķ¡":9407,"ÃŃ":9408,"ï¿½":9409,"ç¤¾åĮº":9410,"iver":9411,"æµı":9412,"pool":9413,"What":9414,"çĻ¾":9415,"stra":9416,"æµİ":9417,"Ġgender":9418,"display":9419,"æµıè§Ī":9420,"plexity":9421,"Ġcorrelated":9422,"çļĦä½¿çĶ¨":9423,"Ġsuc":9424,"Ġchapter":9425,"lib":9426,"è´¥":9427,"Ġregardless":9428,"Ġlots":9429,"$'":9430,"Ġminor":9431,")+\\":9432,"Ġlies":9433,"Ġtwe":9434,"Ġmacro":9435,"Ġkill":9436,"dent":9437,"åİŁåŀĭ":9438,"Ġintervals":9439,"èĪŀ":9440,"åĪĨéĴŁ":9441,"TC":9442,"æ¹":9443,"Ġenabling":9444,"gent":9445,"Ġ[@],":9446,"å½©":9447,"Ġdependence":9448,"åĴĸåķ¡":9449,"Ġleaders":9450,"ĠDen":9451,"ĠRun":9452,"Ġgrant":9453,"Ġmonths":9454,"Ġexercise":9455,"DR":9456,"Ġprofile":9457,"è¡¥":9458,"ÐµÑĢ":9459,"éĢĶ":9460,"method":9461,"Or":9462,"va":9463,"Ġgave":9464,"sur":9465,"å¤ļçļĦ":9466,"black":9467,"GP":9468,"isition":9469,"zweil":9470,"Ġrapidly":9471,"Ġforget":9472,"Ġplays":9473,"çĽ¸åĲĮçļĦ":9474,")^{\\":9475,"utely":9476,"150":9477,"è§Ĥå¯Ł":9478,"Ġestimating":9479,"Ġdistort":9480,"ç»ıè¿ĩ":9481,"Ġexplanations":9482,"è°Ī":9483,"achine":9484,"quality":9485,"IA":9486,"Ġteacher":9487,"Ġded":9488,"èĵ":9489,"Ġ{{":9490,"ä¸Ĭè¿°":9491,"Ġtries":9492,"è·¯å¾Ħ":9493,"idge":9494,"éĢĢ":9495,"ç»ª":9496,"Ġdecided":9497,"197":9498,"Ġrecovery":9499,"åıĤä¸İ":9500,"Ġsites":9501,"Ġcomputes":9502,"æ¸ħæĻ°":9503,"è¿Ľä¸ĢæŃ¥":9504,"ĠInf":9505,"Ġcameras":9506,"Ġargu":9507,"æŀ¶æŀĦ":9508,"ĠLaw":9509,"sin":9510,"ç¼ĵåŃĺ":9511,"Ġsucceed":9512,"Ġ~~":9513,"regular":9514,"kers":9515,"Ġconversion":9516,"æŃ£ç¡®çļĦ":9517,"Ġimagine":9518,"reds":9519,"Ġdefinitely":9520,"æĻ®éĢļ":9521,"Ġplots":9522,"ĠBer":9523,"Ġproducing":9524,"Be":9525,"Ġ206":9526,"})^":9527,"Ġboxes":9528,"Ġreverse":9529,"æĢ»æĺ¯":9530,"ĠSi":9531,"Ġpossibilities":9532,"ç¹":9533,"gathered":9534,"åľ¨è¿Ļä¸ª":9535,",\\,":9536,"Ġrelev":9537,"Ġinvestigated":9538,"Ġbuffer":9539,"æľĢå¤§":9540,"la":9541,"ĠModels":9542,"relevant":9543,"vari":9544,"Ġworry":9545,"Ġtends":9546,"å¤įæĿĤçļĦ":9547,"ä¼ĺçĤ¹":9548,"atching":9549,"inity":9550,"ĠåĽłæŃ¤":9551,"Ġensures":9552,"ç¹ģ":9553,"ipedia":9554,"åĽŃ":9555,"Ġinvention":9556,"Ġmutual":9557,"åŃ£":9558,"\\*":9559,"ideo":9560,"Ġderivative":9561,"iful":9562,"Ġjour":9563,"Ġdeliver":9564,"Ġhistorical":9565,"Ġnice":9566,"ç»ıæµİ":9567,"åĪĨå¸ĥ":9568,"åĲĦä¸ª":9569,"Ġsymbolic":9570,"slant":9571,"éļĶ":9572,"Ġmaintaining":9573,"tuning":9574,"åįļ":9575,"iot":9576,"Ġdetector":9577,"Ġusual":9578,"ç»¿":9579,"Ġconsideration":9580,"Ġconservation":9581,"Eq":9582,"Ġangle":9583,"Ġ[.":9584,"odot":9585,"Ġheter":9586,"Ġcro":9587,"Ġteaching":9588,"Ġbeneficial":9589,"ĠÏ":9590,"Ġtight":9591,"ä¼ĺç§Ģ":9592,"ĠTod":9593,"Ġacoustic":9594,"ĠSE":9595,"Ġ205":9596,"ĠTake":9597,"å®Įæķ´":9598,"Ġplaced":9599,"è¡¨æł¼":9600,"Ġleverage":9601,"Ġtour":9602,"å°Ĭ":9603,"å¢ŀå¼º":9604,"Ġleaves":9605,"æİ¢ç´¢":9606,"å¼ķåħ¥":9607,"\\'":9608,"Ġcommands":9609,"ìĿ":9610,"Ġtables":9611,"ales":9612,"Ġaveraged":9613,"Ñħ":9614,"Ġ97":9615,"\\_[":9616,"ĠÃ©":9617,"ĠBar":9618,"éº":9619,"alloc":9620,"after":9621,"tan":9622,"Ġrig":9623,"isher":9624,"otal":9625,"Ġrights":9626,"åı¥åŃĲ":9627,"æķ°ç»ĦçļĦ":9628,"Ġconstit":9629,"(),":9630,"Ġimaging":9631,"Ġheavily":9632,"çĽ¸åºĶçļĦ":9633,"Ġrotation":9634,"Ġmaster":9635,"åı¶":9636,"çģµæ´»":9637,"ä¿ĥ":9638,"åľĨ":9639,"ĠOS":9640,"ipschitz":9641,"Ġdog":9642,"Ġdebugg":9643,"ĠDis":9644,"Ġpain":9645,"é£ŀ":9646,"ĠAck":9647,"Ġreviews":9648,"Ġquadratic":9649,"éĽ¶":9650,"Ġspent":9651,"æµª":9652,"underset":9653,"Ġmassive":9654,"Ġabilities":9655,"ĠPhys":9656,"Ġconvenient":9657,"æ¬¢è¿İ":9658,"ĠDet":9659,"Ġpreced":9660,"256":9661,"eless":9662,"Ġcarefully":9663,"Ġdeployment":9664,"æįŁ":9665,"Ġbudget":9666,"Ġspot":9667,"ĠNever":9668,"ĠNumber":9669,"å¹¸":9670,"Ġorthogonal":9671,"Ġdeployed":9672,"æĪĲéķ¿":9673,"Ġrepet":9674,"Ġrecursion":9675,"æŃ£å¸¸":9676,"ĠFort":9677,"ç£":9678,"Ġdanger":9679,"Ġpercentage":9680,"ĠHealth":9681,"ĠHer":9682,"Ġopinion":9683,"Ġstrictly":9684,"Ġinstr":9685,"Ġing":9686,"Ġlabeling":9687,"çľ¼":9688,"Ġcontextual":9689,"Ġtransparent":9690,"Ġtransparency":9691,"å¾Ģå¾Ģ":9692,"ĠConsequently":9693,"Ġdeclare":9694,"ä¸Ĭä¸ĭæĸĩ":9695,"On":9696,"è¦Ĩ":9697,"åīįéĿ¢":9698,"ä¿¡åı·":9699,"Ġinternational":9700,"è¶ĭ":9701,"çĸĳ":9702,"ambridge":9703,"Ġschedule":9704,"eff":9705,"Ġmorph":9706,"Ġserves":9707,"Ġimpress":9708,"erver":9709,"agraph":9710,"ä¼ĺåĬ¿":9711,"èĪĴéĢĤ":9712,"Ġfinds":9713,"Ġtreated":9714,"ĠSupport":9715,"Ġexpansion":9716,"Ġsorted":9717,"Ġaw":9718,"Ġbillion":9719,"èĢĮè¨Ģ":9720,"èģĶç½ĳ":9721,"}\\,":9722,"ĠMonte":9723,"eloc":9724,"Ġ48":9725,"abet":9726,"truth":9727,"vdash":9728,"ĠEvaluation":9729,"figure":9730,"}$]{}":9731,"only":9732,"Ġeditor":9733,"fered":9734,"ĠMet":9735,"Ġarise":9736,"Ġdigits":9737,"Ġ98":9738,"ĠBusiness":9739,"åĳ¼":9740,"ĠSy":9741,"Ġuniverse":9742,"åİĭåĬĽ":9743,"ouble":9744,"Ġequilibri":9745,"olt":9746,"æĦ¿":9747,"ributed":9748,"ĠObs":9749,"Ġsquared":9750,"Ġfire":9751,"}}},":9752,"ĠNa":9753,"ĠOb":9754,"Ġposit":9755,"Ġinduced":9756,"iency":9757,"Ġmodeled":9758,"Ġhealthy":9759,"çī¹å®ļ":9760,"æ¨¡æĿ¿":9761,"åŃĹæ¯į":9762,"DK":9763,"}$-":9764,"scriptstyle":9765,"Ġutilized":9766,"ael":9767,"å®ļä¹īçļĦ":9768,"äºĳ":9769,"cell":9770,"Ġaugmented":9771,"ĠWang":9772,"Ġ=>":9773,"Ġpropag":9774,"ĠAgain":9775,"Ġcouple":9776,"Ġanalyses":9777,"ĠCombin":9778,"Ġcalib":9779,"Ġdialogue":9780,"Ġconvol":9781,"æĪĳä»¬å°Ĩ":9782,"ĠSoci":9783,"No":9784,"Ġpython":9785,"ä»Ĭå¤©":9786,"Ġcreativity":9787,"Ġ85":9788,"ĠSocial":9789,"illa":9790,"Ġshapes":9791,"bed":9792,"ç»ıåİĨ":9793,"æİª":9794,"Ġcountry":9795,"ç¬Ķ":9796,"rang":9797,"Ġsun":9798,"Ġscenes":9799,"ocking":9800,"ä½ĵçļĦ":9801,"FA":9802,"*^":9803,"Ġrelevance":9804,"æĺ¯çĶ±":9805,"ĠQuant":9806,"åĢĴ":9807,"ĠKurzweil":9808,"èĹı":9809,"çĽ¸å½ĵ":9810,"How":9811,"Ġlock":9812,"Ġsav":9813,"vee":9814,"ĠApple":9815,"ĠRay":9816,"ĠInv":9817,"Ġoccup":9818,"Ġgate":9819,"prob":9820,"æŁ¥çľĭ":9821,"ä¹Łå°±æĺ¯è¯´":9822,"ractions":9823,"Ġahead":9824,"Ġconcerned":9825,"ulating":9826,"ĠAnaly":9827,"Ġ92":9828,"overn":9829,"Ġphenomenon":9830,"Ġlocally":9831,"æŃ¤æĹ¶":9832,"Deep":9833,"Ġä¸Ģä¸ª":9834,"ĠGood":9835,"Ġinformative":9836,"icing":9837,"ĠBel":9838,"~*":9839,"Ġinterpreter":9840,"ĠBasic":9841,"çļĦåıĳå±ķ":9842,"Ġsummarized":9843,"é£Łçī©":9844,"ĠÐ¿ÑĢ":9845,"Ġinstit":9846,"otion":9847,"file":9848,"ĠDig":9849,"Ġms":9850,"Ġelectronic":9851,"æĥ³æ³ķ":9852,"Ġremote":9853,"ĠWithout":9854,"_{-":9855,"Error":9856,"oin":9857,"Ġincorporating":9858,"plements":9859,"Ġforces":9860,"ĠBrain":9861,"éĵ¾è¡¨":9862,"Ġsupporting":9863,"çĮ®":9864,"åĨħæł¸":9865,"ĠSign":9866,"ĠRF":9867,"éĥ½åı¯ä»¥":9868,"è§Ĵåº¦":9869,"DS":9870,"ç¤¼":9871,"åľ¨ä¸Ģä¸ª":9872,"Ġrequiring":9873,"æŀĹ":9874,"ç»Ħä»¶":9875,"Ġeight":9876,"Ġscr":9877,"Ġdifferential":9878,"èĩªæĪĳ":9879,"sect":9880,"Li":9881,"ĠHu":9882,"çļ®":9883,"ĠJan":9884,"ç³»ç»ŁçļĦ":9885,"ĠComparison":9886,"Ġtro":9887,"Ġpopulations":9888,"Ġturned":9889,"Ġmotivated":9890,"arter":9891,"Time":9892,"Ġlocalization":9893,"ĠThough":9894,"ĠMult":9895,"Ġhouse":9896,"asure":9897,"lab":9898,"Ġdegrad":9899,"Ġä¸į":9900,"Ġdownload":9901,"Ġhundreds":9902,"å¦ĤæŃ¤":9903,"Ġ2019":9904,"æĬ¥åĳĬ":9905,"venue":9906,"icated":9907,"ĠFP":9908,"ĠKL":9909,"Ġdynamically":9910,"Ġcounts":9911,"æĭ¬åı·":9912,"åĬłå¼º":9913,"Ġdetecting":9914,"=\\{":9915,"çļĦè¿ĩç¨ĭ":9916,"çļĦåŁºæľ¬":9917,"biased":9918,"Ġguidance":9919,"çŃīäºİ":9920,"åıĺæĪĲ":9921,"Ġinject":9922,"Var":9923,"similar":9924,"predict":9925,"ĠOper":9926,"sis":9927,"æ¯ķ":9928,"Ġsuggestions":9929,"organ":9930,"irectional":9931,"GA":9932,"çĩ":9933,"çļĦå®ŀçİ°":9934,"Ġafford":9935,"ĠSun":9936,"Ġawareness":9937,"aj":9938,"Ġlambda":9939,"éļıæľº":9940,"textsf":9941,"ĠSan":9942,"Ġparser":9943,"Ġoriginally":9944,"apse":9945,"mp":9946,"çº³":9947,"ascal":9948,"Ġproofs":9949,"Ġ~*":9950,"Ġneither":9951,"exists":9952,"Ġheat":9953,"attention":9954,"èµĦæĸĻ":9955,"Ġready":9956,"Ġassistants":9957,"ĠFeature":9958,"oon":9959,"Ġdiscovered":9960,"through":9961,"ĠFin":9962,"(*":9963,"ä»Ģä¹Īæĺ¯":9964,"Ġcovered":9965,"Ġsingular":9966,"avas":9967,"åĽ°éļ¾":9968,"Ġequivalence":9969,"Ġunion":9970,"ĠNAS":9971,"Array":9972,"bullet":9973,"ĠTheory":9974,"Ġkept":9975,"Ġcompilers":9976,"Ġcompl":9977,"Ġå¯¹":9978,"Ġagricult":9979,"ĠScala":9980,"å¤§éĩıçļĦ":9981,"çī©çĲĨ":9982,"\";":9983,"asters":9984,"unct":9985,"ĠClassification":9986,"è´Łè´£":9987,"rant":9988,"Ġproviders":9989,"æķ°åĢ¼":9990,"New":9991,"rian":9992,"ĠGet":9993,"itors":9994,"ĠCompared":9995,"ading":9996,"ĠPark":9997,"ĠExamples":9998,"äºĭå®ŀ":9999,"){\\":10000,"Ġtemplates":10001,"Ġsecure":10002,"Ġintegrate":10003,"QA":10004,"Ġcircum":10005,"å¹¶æ²¡æľī":10006,"æ°§":10007,"Ġpoll":10008,"Ġ37":10009,"plot":10010,"Ġwa":10011,"ĠRef":10012,"Ġdigit":10013,"Ġxs":10014,"Ġpredicate":10015,"pan":10016,"ensus":10017,"Ġpurch":10018,"Ġnight":10019,"short":10020,"è¿Ļä¹Ī":10021,"Ġimm":10022,"Ġconverted":10023,"ĠAust":10024,"]{}[":10025,"çŁ©":10026,"Ġcast":10027,"Ġinitially":10028,"imodal":10029,"ĠZhang":10030,"anguages":10031,"åĲĮä¸Ģä¸ª":10032,"Ġè¯Ńè¨Ģ":10033,"HS":10034,"Ġ204":10035,"Ġphrases":10036,"ioned":10037,"Ġboard":10038,"tag":10039,"Ġmotivation":10040,"Ġtens":10041,"Ġdifferently":10042,"Ġamaz":10043,"Sim":10044,"ship":10045,"Ġclaims":10046,"You":10047,"Ð¿":10048,"RegEx":10049,"supp":10050,"Ġ93":10051,"ruit":10052,"Ġmys":10053,"uracies":10054,"Ġsup":10055,"Ġ42":10056,"Ġcolors":10057,"ny":10058,"Ġextens":10059,"Ġscalar":10060,"ĠSR":10061,"æ°¸":10062,"score":10063,"Ġdiseases":10064,"Ġemiss":10065,"Ġunf":10066,"éĵ¾æİ¥":10067,"Ġemerging":10068,"æ±½è½¦":10069,"ä½łéľĢè¦ģ":10070,"Py":10071,"Ġagreement":10072,"han":10073,"Ġproportion":10074,"scape":10075,"é¢Ħæµĭ":10076,"ĠInterest":10077,"Ġspir":10078,"å©ļ":10079,"Ġ150":10080,"ĠText":10081,"mic":10082,"Ġsensory":10083,"Ġelegant":10084,"version":10085,"ä¸Ģèĩ´":10086,"æīĢç¤º":10087,"çĳ":10088,"äº®":10089,"Ġoptimizer":10090,"Ġreceives":10091,"Ġorders":10092,"Ġ202":10093,"Ġveloc":10094,"èĩ³å°ĳ":10095,"count":10096,"Ġcontrad":10097,"éĢĤå½ĵ":10098,"PE":10099,"Ġlowest":10100,"roy":10101,"è¯ĨåĪ«":10102,"åİħ":10103,"ĠCambridge":10104,"ractable":10105,"åİĤ":10106,"ä¹ĭå¤ĸ":10107,"\\!\\":10108,"Ġtold":10109,"çĽ¸ä¼¼":10110,"Ġdecade":10111,"AA":10112,"oto":10113,"Ġmarketing":10114,"çļĦåľ°æĸ¹":10115,"tu":10116,"Ġaudience":10117,"Ġthoughts":10118,"Ġformed":10119,"^{{\\":10120,"za":10121,"Ġwouldn":10122,"DC":10123,"science":10124,"éĻĦ":10125,"Ġhon":10126,"Ġopposite":10127,"Ġatoms":10128,"Ġflat":10129,"Ġportion":10130,".-":10131,"è°ĥè¯ķ":10132,"Ġstories":10133,"Ġpriors":10134,"rs":10135,"($":10136,"å¹³åĿĩ":10137,"rich":10138,"system":10139,"everal":10140,"scal":10141,"Ġå½ĵçĦ¶":10142,"Ġ94":10143,"Ġgarbage":10144,"Ġslower":10145,"ĠCle":10146,"actor":10147,"Ġinformed":10148,"ĠOnly":10149,"([":10150,"Ġbackward":10151,"liu":10152,"enance":10153,"anches":10154,"odies":10155,"æĦıæĢĿ":10156,"Ġquantity":10157,"FF":10158,"diag":10159,"ĠStart":10160,"ĠColle":10161,"ĠCy":10162,"ĠCurrent":10163,"Ġbriefly":10164,"Ġourselves":10165,"Ġcarbon":10166,"ĠIntel":10167,"Ġpredicts":10168,"Ġwish":10169,"ĠTree":10170,"ampling":10171,"Ġcircle":10172,"structured":10173,"Ġtele":10174,"Ġflag":10175,"Ġrational":10176,"ĠStanford":10177,"Ġ91":10178,"Ã§Ã£o":10179,"{$\\":10180,"çļĦåŁºç¡Ģ":10181,"ĠDon":10182,"Ġthereby":10183,"Ġhappy":10184,"åĳ¨æľŁ":10185,"Ġscientist":10186,"Ġclause":10187,"Ġtexture":10188,"date":10189,"}/":10190,"æīĭæľº":10191,"åŁ¹è®Ń":10192,"Ġindustrial":10193,"Ġrealize":10194,"Ġverb":10195,"bel":10196,"}&":10197,"coming":10198,"Ġbinding":10199,"}[\\":10200,"ĠPC":10201,"ias":10202,"rc":10203,"eness":10204,"Ġacquisition":10205,"}^{*":10206,"èĶ":10207,"ĠMax":10208,"ĠRed":10209,"icking":10210,"çļĦç¨ĭåºı":10211,"that":10212,"åįıè®®":10213,"Ġrealized":10214,"çļĦåĬŁèĥ½":10215,"Ġexhibit":10216,"uk":10217,"195":10218,"æľīè¶£":10219,"éªĮè¯ģ":10220,"Ġrecognized":10221,"optim":10222,"+.":10223,"Ġ65":10224,"Ġanc":10225,"Ġkeyword":10226,"ilding":10227,"Ġcombines":10228,"ĠDan":10229,"åĶ¯":10230,"displaystyle":10231,"Ġsession":10232,"Ġjump":10233,"}},\\":10234,"There":10235,"iteRegEx":10236,"è±Ĩ":10237,"orest":10238,"ĠANN":10239,"Ġsolid":10240,"GI":10241,"ameter":10242,"è·Ŀç¦»":10243,"å°½ç®¡":10244,"ĠBr":10245,"éĢĤåºĶ":10246,"bas":10247,"æľīå¾Īå¤ļ":10248,"auses":10249,"åŃ¦ä¼ļ":10250,"Ġplayed":10251,"ĠOtherwise":10252,"åħ¬åħ±":10253,"æĮĩå¯¼":10254,"Ġbasically":10255,"}:":10256,"ĠEM":10257,"å¹³è¡¡":10258,"éľĢè¦ģæ³¨æĦı":10259,"Ġhabit":10260,"=\".":10261,"çĭ¬çī¹":10262,"Ġassessment":10263,"çļĦæĵįä½ľ":10264,"Ġguaranteed":10265,"é¼ĵ":10266,"ĠRight":10267,"Ġaxis":10268,"ĠReview":10269,"æĽ¿æį¢":10270,"ĠSmall":10271,"åĪĽæĸ°":10272,"Ġdeno":10273,"uitively":10274,"Ġorientation":10275,"Ġsimilarities":10276,"ĠChar":10277,"Ġnarrow":10278,"Ġaddressing":10279,"Ġfairness":10280,"GC":10281,"èĩªèº«":10282,"Ġcharacteristic":10283,"othing":10284,"entropy":10285,"ç»ıåħ¸":10286,"fn":10287,"ĠPR":10288,"Ġ38":10289,"vis":10290,"IEEE":10291,")}$.":10292,"èī²çļĦ":10293,"Ġapps":10294,"å·¨":10295,"Ġfreed":10296,"Ġsleep":10297,"ä»»æĦı":10298,"uel":10299,"lass":10300,"Ġ39":10301,"åĪĿåŃ¦":10302,"Ġimplements":10303,"Ġren":10304,"Ġaddresses":10305,"Ġtranslate":10306,"çļĦæĥħåĨµ":10307,"ĠTwitter":10308,"ĠNav":10309,"ING":10310,"è®©ä½ł":10311,"*(*":10312,"ĠLo":10313,"Ġaggregation":10314,"erson":10315,"Ġcovers":10316,"oul":10317,"Ġtouch":10318,"DB":10319,"ĠSeveral":10320,"åıªéľĢè¦ģ":10321,"$^":10322,"ĠError":10323,"ĠTer":10324,"intenance":10325,"Ġassociation":10326,"æĺ¯ä¸į":10327,"ĠÐ´":10328,"prise":10329,"Ġstake":10330,"obj":10331,"Ġsupervision":10332,"åĲ¯åĬ¨":10333,"æİªæĸ½":10334,"ĠAlgorithms":10335,"Ġhyperparameter":10336,"ĠOff":10337,"Ġevolve":10338,"Ġpanel":10339,"Ġlinearly":10340,"Ġconnectivity":10341,"Ġfuzzy":10342,"çİ¯ä¿Ŀ":10343,"éŃ":10344,"ĠKe":10345,"Ġpolitical":10346,"íķ":10347,"Ġprimarily":10348,"è¿Ļæ®µ":10349,"Ġsaw":10350,"Ġtheories":10351,"ĠAdapt":10352,"ĠMart":10353,"ĠEuropean":10354,"ĠNevertheless":10355,"Ġdrawback":10356,"riendly":10357,"Ġavailability":10358,"Ġsimplified":10359,"å®ł":10360,"Ġhypotheses":10361,"æ¸©åº¦":10362,"ĠEduc":10363,"ĠSk":10364,"ollary":10365,"Ġmovie":10366,"çİĭ":10367,"Ġcompletion":10368,"Ġpoem":10369,"åĽŀè°ĥ":10370,"Ġbiggest":10371,"Ġseek":10372,")}$,":10373,"author":10374,"Ġrecommendation":10375,"çģ¯":10376,"ĠLin":10377,"åĻ¨çļĦ":10378,"neural":10379,"So":10380,"option":10381,"Ġunlike":10382,"agent":10383,"è¶ĭåĬ¿":10384,"ĠPeople":10385,"è¦ĨçĽĸ":10386,"ifiers":10387,"UN":10388,"avascript":10389,"ĠScient":10390,"holders":10391,"ĠConc":10392,"å®¡":10393,"è¡£":10394,"Ð¾Ð»":10395,"leton":10396,"ĠAssociation":10397,"å°ļ":10398,"Ġperce":10399,"æĶ»":10400,"Ġsignature":10401,"plicate":10402,"Ġ203":10403,"Ġintensity":10404,"Ġoptical":10405,".:":10406,"Ġdescriptions":10407,"æĪĳä»¬åľ¨":10408,"return":10409,"Ġshorter":10410,"æĶ¾åħ¥":10411,"}}}{\\":10412,"Ġmyself":10413,"æľīåĬ©äºİ":10414,"çĽĲ":10415,"ĠMLP":10416,"^[":10417,"Ġlearner":10418,"Ġmanaged":10419,"Ġ190":10420,"CMC":10421,"ĠControl":10422,"ĠArchitect":10423,"Ġobjectives":10424,"Ġimmediate":10425,"ĠToday":10426,"Ġcompilation":10427,"Ġcalculations":10428,"åĲ¸å¼ķ":10429,"Test":10430,"Ġdesigns":10431,"ĠCould":10432,"Ġfamous":10433,"çļĦç±»åŀĭ":10434,"æİ¥æĶ¶":10435,".\",":10436,"Ġbelongs":10437,"\\][":10438,"ĠGC":10439,"Ġcompleted":10440,"stackrel":10441,"æĦıè¯Ĩ":10442,"Ġempirically":10443,"Ġgeometry":10444,"Ġä¸İ":10445,"Ġpredictor":10446,"Ġmitigate":10447,"æĭ¿":10448,"ĠDevelopment":10449,"Col":10450,"house":10451,"ĠLinear":10452,"rench":10453,"tfrac":10454,"åĲįçļĦ":10455,"ĠSociety":10456,"Ġ84":10457,"éĻ¢":10458,"æ¼ı":10459,"ĠChen":10460,"Ġdetermines":10461,"Se":10462,"Ġmodes":10463,"Ġhop":10464,"rought":10465,"rab":10466,"æİ¥ä¸ĭæĿ¥":10467,"Ġbug":10468,"expected":10469,"Ġevaluations":10470,"Ġcritic":10471,"Ġblic":10472,"æ¯ĶèµĽ":10473,"Ġrace":10474,"Ġfacilitate":10475,"aa":10476,"Ġradius":10477,"Ġgrasp":10478,"ĠÑ":10479,"textnormal":10480,"Ġsearc":10481,"Ġyes":10482,"Ġparagraph":10483,"^-":10484,"rediction":10485,"æŁ¥è¯¢":10486,"å®Ī":10487,"ider":10488,"Ġconstructs":10489,"ĠConvolutional":10490,"ĠReal":10491,"urrency":10492,"ĠVol":10493,"Ġformulated":10494,"Ġmodelling":10495,"è½®":10496,"Ġä»£çłģ":10497,"ĠSl":10498,"Ġfacts":10499,"Ġpreserve":10500,"Ġhit":10501,"Ġfr":10502,"ĠTyp":10503,"Ġmanufacturing":10504,"çľĭçľĭ":10505,"Ġnucle":10506,"æ·±åº¦":10507,"Ġstyles":10508,"ĠCho":10509,"Ġphon":10510,"Ġconsiderations":10511,"èľ":10512,"At":10513,"Ġmim":10514,"éĿĴ":10515,"åĮĹ":10516,"Ð°Ð½":10517,"rick":10518,"Ġjournal":10519,"Ġheap":10520,"Ġcounting":10521,"Ġhistogram":10522,"Ġcollective":10523,"pmatrix":10524,"ÑĤÑĮ":10525,"Ġworker":10526,"012":10527,"çĽ¸ä¿¡":10528,"ä¸Ńå¿ĥ":10529,"ĠSciences":10530,"Ġprotected":10531,"å¤±è´¥":10532,"çļĦçº¿ç¨ĭ":10533,"ĠUSA":10534,"Ġminds":10535,"ĠLR":10536,"\\}\\":10537,"Ġtherap":10538,"ĠDefinition":10539,"å¯Ħ":10540,"conc":10541,"Ġexponentially":10542,"Ġmistakes":10543,"DT":10544,"lr":10545,"Ġbott":10546,"Ġmaximal":10547,"-{\\":10548,"Ġmanipulation":10549,"Ġsynaptic":10550,"Ġlisted":10551,"ĠTrue":10552,"Ġchemical":10553,"éĩĩåıĸ":10554,"Ġlinguistic":10555,"Ġ</":10556,"Ġnan":10557,"ĠAR":10558,"CVPR":10559,"ns":10560,"ĠPract":10561,"Ġthanks":10562,"ä¸ĢçĤ¹":10563,"cut":10564,"izable":10565,"ĠBest":10566,"Ġdot":10567,"åĬ¨ä½ľ":10568,"shop":10569,"ĠIP":10570,"åķĨåĵģ":10571,"èĥĮæĻ¯":10572,"åª":10573,"ĠCLOS":10574,"å®łçī©":10575,"Ġaligned":10576,"Ġ89":10577,"Ġpartners":10578,"ĠRobotics":10579,"All":10580,"static":10581,"Ġspend":10582,"}},{\\":10583,"Ġexpectations":10584,"notag":10585,"porary":10586,"Ġmodular":10587,"è¸":10588,"è¿Ļä¸¤ä¸ª":10589,"}}_{{\\":10590,"Ġprimitive":10591,"Ġtranslated":10592,"æł·çļĦ":10593,"Ġfa":10594,"Ġsummarize":10595,"Ġoccl":10596,"+)":10597,"ĠACM":10598,"Ġaccepted":10599,"æĿİ":10600,"syn":10601,"éĹŃåĮħ":10602,"Ġequip":10603,"Ġapparent":10604,"US":10605,"onical":10606,"ĠYet":10607,"è°ĵ":10608,"Ġquantitative":10609,"ĠMemory":10610,"äº¤äºĴ":10611,"å°¤":10612,"SQL":10613,"rag":10614,"Ġseeing":10615,"Ġclients":10616,"è§ĤçĤ¹":10617,"Ġcontents":10618,"Ġwarn":10619,"Ġconstructing":10620,"åºķå±Ĥ":10621,"Ġhear":10622,"_{{":10623,"':":10624,"æ¥ļ":10625,"Ġantic":10626,"irected":10627,"spired":10628,"determin":10629,"è®¡æķ°":10630,"ĠWikipedia":10631,"Ġfiction":10632,"çº¯":10633,"Sm":10634,"æľ¬æĸĩ":10635,"Ġnormally":10636,"Ġcounterpart":10637,"iler":10638,"Ġindicated":10639,"Ġspeakers":10640,"åı¥è¯Ŀ":10641,"zen":10642,"abs":10643,"Rec":10644,"æĿ¥èĩª":10645,"ä¸įåĨį":10646,"std":10647,"æľīä»Ģä¹Ī":10648,"Ġdivide":10649,"å°ıçļĦ":10650,"Ġletters":10651,"uits":10652,"Ġroun":10653,"Ġassumes":10654,"ä¼ļè¢«":10655,"Ġfloat":10656,"Ġpus":10657,"æĹ¦":10658,"Ġdiscipl":10659,"Ġswe":10660,"aker":10661,"Pl":10662,"Ġfeeling":10663,"ĠIo":10664,"seq":10665,"CO":10666,"ç»ĵæŀĦä½ĵ":10667,"ĠCarlo":10668,"Ġgenerations":10669,"Ġperturbations":10670,"Ġplane":10671,"ĠTom":10672,"ĠKnowledge":10673,"Ġbus":10674,"å°½éĩı":10675,"Ġbeautiful":10676,"CH":10677,"likelihood":10678,"Ġmarked":10679,"Exception":10680,"æįķ":10681,"alg":10682,"oles":10683,"åĲĪéĢĤçļĦ":10684,"ĠMachines":10685,"arith":10686,"Ġinspect":10687,"oplus":10688,"Ġcaptures":10689,"Ġnotes":10690,"`]{}":10691,"Ġeigenvalues":10692,"Ġfoo":10693,"ĠEnt":10694,"äºĴèģĶç½ĳ":10695,"Ġnested":10696,"aching":10697,"Ġsupply":10698,"Ġrenew":10699,"å»¶":10700,"Ġstudying":10701,"Ġpressure":10702,"Ġgather":10703,"ĠJVM":10704,"Ġoriented":10705,"Ġobtaining":10706,"åģļåĩº":10707,"ĠGen":10708,"Ġenumer":10709,"Ġcareer":10710,"ä½¿çĶ¨äºĨ":10711,"æ²Ļ":10712,"expl":10713,"ifact":10714,"196":10715,"tree":10716,"Ġfrequent":10717,"æĵİ":10718,"adapt":10719,"Ġaveraging":10720,"ilies":10721,"åĩĢ":10722,"pix":10723,"Ġdifferentiable":10724,"æĤī":10725,"Ġhands":10726,"Ġexperienced":10727,"âĶ":10728,"Ġmonad":10729,"Ġordered":10730,"å¹¶åľ¨":10731,"Ġchose":10732,"ĠPres":10733,"æĹ¶çļĦ":10734,"Ġdesirable":10735,"Ð½Ð¾":10736,"Out":10737,"disp":10738,"å¼ķæĵİ":10739,"iations":10740,"Ġexpertise":10741,"sch":10742,"Ġconcurrent":10743,"good":10744,"Ġconsiders":10745,"Ġtech":10746,"Wave":10747,"Ġperfectly":10748,"arian":10749,"ĠInc":10750,"Ġ86":10751,"è½¬æį¢ä¸º":10752,"ĠÐ¼":10753,"Ġprofessionals":10754,"Ġtags":10755,"Ġcolleag":10756,"Ġaccuracies":10757,"Ġbranches":10758,"è®²è§£":10759,"Ġvertical":10760,"æĻļ":10761,"Co":10762,"ocket":10763,"Ġdark":10764,"ilingual":10765,"Ġtexts":10766,"JS":10767,"æłĩè¯Ĩ":10768,"å¢ŀéķ¿":10769,"åĶ¯ä¸Ģ":10770,"Ġ87":10771,"vas":10772,"Ġ198":10773,"prec":10774,"Ġbytes":10775,"ĠRemember":10776,"Ġack":10777,"Ġencaps":10778,"æ··åĲĪ":10779,"ĠDiscussion":10780,"ç»Łè®¡":10781,"Ġ=\"":10782,"Ġfresh":10783,"^[@":10784,"çĽ®å½ķ":10785,"Ġvehicle":10786,"Ġprotein":10787,"img":10788,"ĠUK":10789,"éĤ£ä¸ª":10790,"API":10791,"Ġethics":10792,"ĠCreate":10793,"ĠPrinc":10794,"FL":10795,"My":10796,"mentioned":10797,"è£ħé¥°":10798,"æ³¨éĩį":10799,"mt":10800,"iginal":10801,"æŃ£åĪĻ":10802,"Ġinvent":10803,"alax":10804,"Ġ81":10805,"Ġpreference":10806,"Ġexecut":10807,"liers":10808,"mc":10809,"Ġcompares":10810,"Ġmodification":10811,"æľ«":10812,"Ġmomentum":10813,"ĠName":10814,"ĠCase":10815,"åĢŁ":10816,"Ġaffects":10817,"ĠAuto":10818,"ĠAmong":10819,"Ġdecreasing":10820,"ç¬¬äºĮä¸ª":10821,"åħ¶æ¬¡":10822,"æµ®":10823,"Trans":10824,"orts":10825,"Ġ82":10826,"Me":10827,"ĠSQL":10828,"è°ĥåº¦":10829,"Ġwrites":10830,"è¯Ħä¼°":10831,"åĩłä¹İ":10832,"ä¼ļåľ¨":10833,"Ġpromoting":10834,"Ġdamage":10835,"Ġintrinsic":10836,"Ġä¸ºäºĨ":10837,"ä¹Łä¸į":10838,"Ġengineers":10839,"åĲİéĿ¢":10840,"Ġmovements":10841,"Ġcalculating":10842,"192":10843,"ä¸Ģå®ļçļĦ":10844,"bur":10845,"Ġ72":10846,"ĠCS":10847,"Ġmoved":10848,"åįĥ":10849,"Ġbiology":10850,"èŃ":10851,"Ġdriven":10852,"Ġresist":10853,"pur":10854,"æĬĺ":10855,"ĠColl":10856,"columnwidth":10857,"ĠSpace":10858,"Ġparse":10859,"amm":10860,"Ġexchange":10861,"craft":10862,"ĠMA":10863,"alls":10864,"computer":10865,"Ġtopology":10866,"triangleq":10867,"æ¸ħæ¥ļ":10868,"Ġposes":10869,"formula":10870,"ĠThom":10871,"ĠRepresent":10872,"Ġdiscard":10873,"Ġasking":10874,"\").":10875,"Ġprefix":10876,"Ġsigmoid":10877,"è¯Ĺ":10878,"åĬłä¸Ĭ":10879,"Ġdiscussions":10880,"Ġdeclared":10881,"oken":10882,"åİŁåŃĲ":10883,"è¶ħè¿ĩ":10884,"Ġrepeat":10885,"Ġcenters":10886,"rd":10887,"illance":10888,"Ñİ":10889,"åħĥç´łçļĦ":10890,"ĠMake":10891,"Ġtargeted":10892,"Ġduration":10893,"Ġfunding":10894,"Ġquantization":10895,"Ġroles":10896,"Ġamazing":10897,"ĠAUC":10898,"ibly":10899,"ç©¿":10900,"Ġaward":10901,"likely":10902,"BA":10903,"Ġobj":10904,"Ġont":10905,"ĠSpar":10906,"Ġ83":10907,"å¤§éĥ¨åĪĨ":10908,"ĠâĢ¢":10909,"Ġlexical":10910,"ĠApplications":10911,"æīĢéľĢ":10912,"ĠPos":10913,"Ġopposed":10914,"ĠJu":10915,"ĠFunctions":10916,"vs":10917,"inner":10918,"Ġintegral":10919,"çĿ¡":10920,"ĠXML":10921,"ashed":10922,"ĠSpe":10923,"Ġmotor":10924,"å®ŀçİ°äºĨ":10925,"çļĦè®¾è®¡":10926,"Ġproxim":10927,"Ġ512":10928,"Ġadequ":10929,"Ġpurely":10930,"ĠHist":10931,"Ġdevelopments":10932,"ĠOptimization":10933,"åĢ¼å¾Ĺ":10934,"().":10935,"äºĮè¿ĽåĪ¶":10936,"ĠéĤ£ä¹Ī":10937,"ĠVision":10938,"Ġposs":10939,"Ġautoencoder":10940,"Ġatomic":10941,"Ġå¯¹è±¡":10942,"Ġimplicitly":10943,".;":10944,"å®ļæľŁ":10945,"å®½":10946,"Ġanticip":10947,"Ġdistinction":10948,"åĨĮ":10949,"ski":10950,"FP":10951,"Ġgreedy":10952,"Ġequilibrium":10953,"Ġpeak":10954,"Ġconfusion":10955,"being":10956,"metric":10957,"Ġpointed":10958,"hash":10959,"Ġ-(":10960,"ĠRO":10961,"Ġlatt":10962,"ĠConst":10963,"Ġwants":10964,"Ġsubstantial":10965,"Ġoracle":10966,"ç»ĺ":10967,"Ġinnovative":10968,"æĺİæĺ¾":10969,"can":10970,"ĠTask":10971,"è¯ģæĺİ":10972,"Ġapproximations":10973,"Ġfocusing":10974,"Ġæ³¨æĦı":10975,"çļĦä¿¡æģ¯":10976,"ĠWrite":10977,"ĠDL":10978,"Ġgains":10979,"è·ĳ":10980,"Ġprocessors":10981,"å°±åĥı":10982,"çľĭèµ·æĿ¥":10983,"çļĦæ¦Ĥå¿µ":10984,"çĤĴ":10985,"ino":10986,"Ġ$\\|\\":10987,"ĠChall":10988,"ç¬¬ä¸ī":10989,";\\;\\":10990,"ĠMind":10991,"Ġç±»":10992,"åĮĸåŃ¦":10993,"del":10994,"å®ŀçİ°çļĦ":10995,"Ġcharacterized":10996,"By":10997,"äºļ":10998,"Ġregist":10999,"}.\\":11000,"Ġri":11001,"Ġovers":11002,"æĺ¯æľĢ":11003,"complete":11004,"ç¥¨":11005,"é£Łåĵģ":11006,"ç»ĳ":11007,"Ġaccomplish":11008,"cur":11009,"å°ıè¯´":11010,"ĠErlang":11011,"}}_\\":11012,"éĢĲæ¸Ĳ":11013,"Ġdedu":11014,"Ġsigns":11015,"ç¯ĩæĸĩç«ł":11016,"åĨ°":11017,"ician":11018,"ĠCloud":11019,"ĠWhich":11020,"orrow":11021,"Ġtwice":11022,"FS":11023,"Box":11024,"Ġshr":11025,"ĠView":11026,"çİ°å®ŀ":11027,"Ġsolver":11028,"En":11029,"Ġstores":11030,"post":11031,"Ġinclusion":11032,"ivil":11033,"Ġmapped":11034,"Ġmes":11035,"pet":11036,"æīĵå¼Ģ":11037,"blue":11038,"åĨ³çŃĸ":11039,"}}}^":11040,"ourier":11041,"æĭ·":11042,"ĠCity":11043,"_+":11044,"Ġtackle":11045,"Ġanonym":11046,"Ġsensing":11047,"Ġlimitation":11048,"Ġstationary":11049,"Ġ78":11050,"Ġgrows":11051,"çļĦåºĶçĶ¨":11052,"Ġrarely":11053,"Ġpermutation":11054,"ipp":11055,"å¼ºè°ĥ":11056,"lem":11057,"ilton":11058,"æ³Ľåŀĭ":11059,"Ġleaf":11060,"åıĳéĢģ":11061,"Ġfitting":11062,"Ġ68":11063,"}}^\\":11064,"ĠUpd":11065,"Ġabsence":11066,"ĠBERT":11067,"ato":11068,"orch":11069,"Ġspl":11070,"Ġincred":11071,"Ġpursu":11072,"Ġmaintenance":11073,"Ġwomen":11074,"éħ¸":11075,"Ġconsensus":11076,"Ġseparated":11077,"Ġmerely":11078,"Ã¼":11079,"æĿ¯":11080,"Ġheavy":11081,"orough":11082,"Value":11083,"ione":11084,"æķ°çļĦ":11085,"ama":11086,"æĴŃ":11087,"^*(":11088,"Ġconclusions":11089,"æĦŁåıĹ":11090,"Ġ(\\[]),":11091,"çİ©å®¶":11092,"Ġproposition":11093,"ĠGra":11094,"ĠProv":11095,"ĠAA":11096,"Ġplastic":11097,"æĪĳæĥ³":11098,"Ġimbal":11099,"Ġends":11100,"Ġserial":11101,"Ġrain":11102,"Ġdriver":11103,"ĠDetail":11104,"ä»¥åĲİ":11105,"æī§è¡ĮçļĦ":11106,"Ġdeath":11107,"Ġpasses":11108,"Ġ41":11109,"Ġ43":11110,"Ġbeings":11111,"Ġ76":11112,"Ġintersection":11113,"dfrac":11114,"åıĬæĹ¶":11115,"æ½ľ":11116,"Ġplants":11117,"Ġä½Ĩæĺ¯":11118,"è´£ä»»":11119,"Ġstreams":11120,"çĨŁæĤī":11121,"Ġpromise":11122,"/(":11123,"Ġ49":11124,"æľ¬è´¨":11125,"åªĴ":11126,"è®¢":11127,"Gener":11128,"Ġclosure":11129,"Equ":11130,"ĠFeb":11131,"è¿½æ±Ĥ":11132,"Ġcapital":11133,"ä¸¥æł¼":11134,"åħ¨éĥ¨":11135,"åħħåĪĨ":11136,"å¼ĢæºĲ":11137,"æĭ·è´Ŀ":11138,"Ġ\\*":11139,"LI":11140,"åİŁå§ĭ":11141,"èį¯":11142,"Ġunbiased":11143,".*,":11144,"ç©ºæ°Ķ":11145,"Ġavoiding":11146,"Ġfulfill":11147,"LEU":11148,"gn":11149,"ponent":11150,"Ġphilosophy":11151,")^\\":11152,"å·®å¼Ĥ":11153,"=[":11154,"Ġderivation":11155,"ĠBoolean":11156,"'_{":11157,"writing":11158,"Ġapproximated":11159,"grained":11160,"æĥħç»ª":11161,"Ġmedian":11162,"ĠDNNs":11163,"Ġ~~~":11164,"Ġroll":11165,"ä¸ĭçļĦ":11166,"âĢĶ":11167,"lig":11168,"Ġengage":11169,"Is":11170,"ĠBN":11171,"cluded":11172,"impro":11173,"Ġpackages":11174,"Ġpolymorphism":11175,"Ġ\\[]),":11176,"ĠEffect":11177,"ĠThose":11178,"å¼ĥ":11179,"Ġprotot":11180,"Ġ*[":11181,"Ġvelocity":11182,"åº§":11183,"æĲŃéħį":11184,"room":11185,"åħħæ»¡":11186,"Ġtells":11187,"Model":11188,"Ġparametric":11189,"println":11190,"Ġrestaurant":11191,"è®¤è¯Ĩ":11192,"empty":11193,"æĬĽåĩº":11194,"Ġdedicated":11195,"å¤§åŃ¦":11196,"éĢīé¡¹":11197,"Ġsimplify":11198,"rout":11199,"Ind":11200,"Ġartifact":11201,"ĠVAE":11202,"Ġ47":11203,"Ġskip":11204,"Ġassistant":11205,"åķĨä¸ļ":11206,"Ġcollaborative":11207,"outine":11208,"HE":11209,"çĤ¼":11210,"ĠFramework":11211,"ĠSelf":11212,"Ġboot":11213,"Ġadjacent":11214,"ç®Ģæ´ģ":11215,"ooking":11216,"Ġbeliefs":11217,"unte":11218,"å±Ĥæ¬¡":11219,"}{(":11220,"åħ·ä½ĵçļĦ":11221,"ĠEmb":11222,"core":11223,"Ġreads":11224,"å°½åı¯èĥ½":11225,"Ġchecks":11226,"Ġoffset":11227,"Ġrecommended":11228,"ä¸ŃéĹ´":11229,"Ġstakeholders":11230,"å¿½":11231,"power":11232,"æĺ¯åĽłä¸º":11233,"Ġ73":11234,"å¹¶è¡Į":11235,"Ġä¸ĬéĿ¢":11236,"actory":11237,"Ġlic":11238,"VC":11239,"Ġconsec":11240,"loop":11241,"Ġoptimum":11242,"OG":11243,"Ġpreferred":11244,"null":11245,"æ´ĭ":11246,"Thread":11247,"çºª":11248,"Ġ79":11249,"èĵĿ":11250,"ĠDigital":11251,"ĠâĢľ":11252,"ĠIR":11253,"approxim":11254,"ĠTool":11255,"Ġfamilies":11256,"ae":11257,"Ġsimplest":11258,"æ±¡":11259,"parison":11260,"Ġengaging":11261,"Ġexciting":11262,"Learning":11263,"çĶµèĦĳ":11264,"å±ı":11265,"å®¶åħ·":11266,"ä¸ĢæĿ¡":11267,"Ġfelt":11268,"Ġwasn":11269,"ÑĢÐ°Ð":11270,"è½»æĿ¾":11271,"åĬĽåĴĮ":11272,"More":11273,"ĠSpeech":11274,"Ġputting":11275,"çļĦäºĭæĥħ":11276,"Ġaccum":11277,"Ġbrings":11278,"Ġ[(":11279,"high":11280,"FC":11281,"GE":11282,"Ġ197":11283,"è§Ħå®ļ":11284,"ĠLaboratory":11285,"ashing":11286,"vy":11287,"Ġ51":11288,"Ġstimuli":11289,"Ġindependence":11290,"Ġrelational":11291,"ountain":11292,"ĠLibrary":11293,"false":11294,"Ġsaliency":11295,"Ġinferred":11296,"å¤ļæĢģ":11297,"alt":11298,"çĪ¶ç±»":11299,"Ġranging":11300,"Ġadvers":11301,"Ġreaches":11302,"ĠÑĤ":11303,"å¯ĦåŃĺ":11304,"Ġ54":11305,"elebr":11306,"cean":11307,"*{\\":11308,"ĠIdent":11309,"Ġpublicly":11310,"ĠEarth":11311,"éħ±":11312,"æµıè§ĪåĻ¨":11313,"ĠAug":11314,"ĠWrit":11315,"Ġelabor":11316,"crit":11317,"ĠDNA":11318,"ĠInteg":11319,"åħ·å¤ĩ":11320,"Ġfailed":11321,"win":11322,"acles":11323,"Ġsevere":11324,"Left":11325,"Ġrewrite":11326,"parametric":11327,"åī§":11328,"ĠIter":11329,"BO":11330,"ĠCT":11331,"Ġsorting":11332,"Ġinterpolation":11333,"Ġacts":11334,"ç¾İåĽ½":11335,"Ġple":11336,"phr":11337,".[^":11338,"ĠAbout":11339,"ĠAP":11340,"Ġglob":11341,"çº¿ç¨ĭçļĦ":11342,"Ġdescriptors":11343,"Ġsubtle":11344,"æĽ¾":11345,"ĠLocal":11346,"ĠVer":11347,"ĠJS":11348,"deg":11349,"Ð¾Ð¼":11350,"Ġconfir":11351,"Ð¾Ð´":11352,"ologists":11353,"Ġ74":11354,"éĩĮçļĦ":11355,"Ġactor":11356,"åħ¥éĹ¨":11357,"Ġcit":11358,"Ġ56":11359,"Ġapart":11360,"Ġregarded":11361,"dem":11362,"Ġinvestment":11363,"ius":11364,"ĠæīĢä»¥":11365,"æıĲä¾ĽçļĦ":11366,"ĠPoly":11367,"Ġequals":11368,"Ġsoil":11369,"Proceedings":11370,"Ġignore":11371,"ç»ĵçĤ¹":11372,"Ġbottlen":11373,"Ġpreprocessing":11374,"ĠContext":11375,"Ġ52":11376,"ĠProt":11377,"depth":11378,"Ġaccordingly":11379,"^*_":11380,"Ġâī":11381,"Ġeyes":11382,"Ġproportional":11383,"ĠçĶ¨":11384,"å¡«":11385,"ĠDoes":11386,"ĠéĤ£":11387,"Ġgradually":11388,"çº¸":11389,"chain":11390,"Ġprep":11391,"ç¨İ":11392,"two":11393,"è´¢åĬ¡":11394,"æ±ĩç¼ĸ":11395,"ĠImpro":11396,"imation":11397,"ĠLanguages":11398,"redu":11399,"advan":11400,"reet":11401,"conf":11402,"ometimes":11403,"Ġsquares":11404,"Ġfinger":11405,"ened":11406,"çļĦæĥħåĨµä¸ĭ":11407,"large":11408,"Ġ};":11409,"inton":11410,"é¼ĵåĬ±":11411,"Ġunlikely":11412,"anned":11413,"airs":11414,"å·¥ç¨ĭå¸Ī":11415,"Ġdiscount":11416,"å¾Īå®¹æĺĵ":11417,"Ġcoupled":11418,"Ġcompatible":11419,"ĠRecent":11420,"ĠMichael":11421,"lines":11422,"åıī":11423,"é«ĺåº¦":11424,"éĢļä¿¡":11425,"ĠAltern":11426,"JVM":11427,"å·´":11428,"æ³¡":11429,"Ġ\\}":11430,"ĠJune":11431,"Ġscratch":11432,"Ġregulations":11433,"åĲĮä¸Ģ":11434,"Mat":11435,"ĠInput":11436,"çº¿æĢ§":11437,"aby":11438,"Ġsole":11439,"Ġrandomized":11440,"194":11441,"å°¤åħ¶":11442,"åĨ·":11443,"çĶ³":11444,"Ġconsult":11445,"Ġadditive":11446,"èŃ¦":11447,"item":11448,"perty":11449,"æĹ¥æľŁ":11450,"ivation":11451,"Ġbigger":11452,"Ġfreedom":11453,"Ġirrelevant":11454,"Ġda":11455,"ara":11456,"Ġsales":11457,"åŀĥåľ¾åĽŀæĶ¶":11458,"Ġcycles":11459,"ĠSecurity":11460,"Ġä¸ª":11461,"ceptive":11462,"å®ı":11463,"Ġchatbot":11464,"Ġ}}":11465,"Ġhorizontal":11466,"Ġdepicted":11467,"Ġblur":11468,"æĢĿè·¯":11469,"ko":11470,"foo":11471,"Ġdisplace":11472,"Ġfigures":11473,"ĠIO":11474,"rest":11475,"å¤ĦçĲĨåĻ¨":11476,"ader":11477,"GL":11478,"language":11479,"Ġcities":11480,"ç¼ĸè¾ĳ":11481,"asso":11482,"ti":11483,"Ġformally":11484,"Ġvalidate":11485,"One":11486,"final":11487,"Ġseven":11488,"rem":11489,"Ġraise":11490,"Ġsubclass":11491,"ä¿ĥè¿Ľ":11492,"$^{":11493,"ĠGANs":11494,"ĠGlobal":11495,"ĠPoint":11496,"ĠKey":11497,"åı£æĦŁ":11498,"ĠObjective":11499,"ĠMobile":11500,"Ġshell":11501,"Ġsurveillance":11502,"Ġplanet":11503,"Ġur":11504,"Ġä½ľä¸º":11505,"})=":11506,"ç³ķ":11507,"Ġnoun":11508,"chers":11509,"çļĦåıĺéĩı":11510,"Ġrefin":11511,"ĠFunctional":11512,"number":11513,"Ġlooked":11514,"Ġeliminate":11515,"DM":11516,"vable":11517,"Ġhaven":11518,"cf":11519,"Ġpaint":11520,"GM":11521,"ĠCV":11522,"square":11523,"bug":11524,"Ġattain":11525,"Xiv":11526,"ilbert":11527,"Ġfunc":11528,"Ġtuple":11529,"ĠGovern":11530,"åį«":11531,"å·¥åİĤ":11532,"ĠMot":11533,"Ġbehave":11534,"ä¼łåħ¥":11535,"Ġstopping":11536,"asion":11537,"çħ®":11538,"Ġheuristics":11539,"Ġindicator":11540,"trivial":11541,"ĠAssumption":11542,"eros":11543,"å®ĩ":11544,"Cont":11545,"ĠLearn":11546,"Ġ67":11547,"$]{};":11548,"å²ģ":11549,"oked":11550,"Ġformulas":11551,"requency":11552,"éĶħ":11553,"Ġkeywords":11554,"èĭ±è¯Ń":11555,"iet":11556,"Ġstands":11557,"ĠThank":11558,"Ġtaught":11559,"result":11560,"ĠPerson":11561,"alog":11562,"æ¤Ĵ":11563,"Ġ46":11564,"æıĲåĩº":11565,"Ġbalanced":11566,"Ġlie":11567,"Lo":11568,"Ġcool":11569,"()`":11570,"TM":11571,"Ġalternatives":11572,"å¼ķèµ·":11573,"ç¨ĭåºıä¸Ń":11574,"ĠBrit":11575,"rounds":11576,"çļĦæīĢæľī":11577,"Ġcompatibility":11578,"æ°ĶåĢĻ":11579,"middle":11580,"Ġbrought":11581,"åĮĢ":11582,"Ġconsiderable":11583,"Ġcredit":11584,"rown":11585,"vm":11586,"ĠDefine":11587,"Ġvariability":11588,"Ġmeasuring":11589,"ĠOct":11590,"ĠCons":11591,"Ġthorough":11592,"çİ°è±¡":11593,"Ġemissions":11594,"Ġnavigation":11595,"ĠAf":11596,"vdots":11597,"ĠCollege":11598,"æŀļ":11599,"æĹĭ":11600,"èĤ¡":11601,"Ġbelonging":11602,"èĲ¥åħ»":11603,")]{}":11604,"dim":11605,"Ġconsole":11606,"stage":11607,"Ab":11608,"é¸Ł":11609,"zy":11610,"vate":11611,"Ġknowing":11612,"è¡ĮæĺŁ":11613,"éľ²":11614,"Ġparticle":11615,"perp":11616,"oir":11617,"ĠLong":11618,"æĹ¥å¸¸":11619,"ĠAlan":11620,"å®ĥåı¯ä»¥":11621,"ountered":11622,"Ġpron":11623,"Ġdispl":11624,"ĠMus":11625,"æĶ¹åĸĦ":11626,"umulative":11627,"relation":11628,"Ġjourney":11629,"Ġçİ°åľ¨":11630,"ĠPublic":11631,"Ġalph":11632,"cost":11633,"door":11634,"Image":11635,"ĠMSE":11636,"ĠProb":11637,"æĦŁè°¢":11638,"ĠBern":11639,"ropout":11640,"èĤ¤":11641,"ä¿®é¥°":11642,"éĿ¢å¯¹":11643,"talk":11644,"Ġ71":11645,"hent":11646,"necess":11647,"Ġfactorization":11648,"Ġdeclaration":11649,"Ġ69":11650,"åĢį":11651,"åĪĿåŃ¦èĢħ":11652,"Ġcourses":11653,"limin":11654,"ç§ĺ":11655,"Ġspan":11656,"æľ¬åľ°":11657,"Ġç¼ĸåĨĻ":11658,"çī¹å®ļçļĦ":11659,"Ġcollections":11660,"éĨĴ":11661,"Ġä¸ĭéĿ¢":11662,"Ġouter":11663,"VID":11664,"}})\\":11665,"Ġclosest":11666,"Ġenhanced":11667,"Ġdens":11668,"è·¨":11669,"ĠDecision":11670,"é¾Ħ":11671,"Ġleaving":11672,"independent":11673,"inuous":11674,"ĠExperiment":11675,"'$.":11676,"çĽ¸æ¯Ķ":11677,"åĲĮæĹ¶ä¹Ł":11678,"åıĤåĬł":11679,"Ġresearcher":11680,"adata":11681,"Ġencountered":11682,"Ġquantities":11683,"ora":11684,"Ġsupposed":11685,"Ġacquired":11686,"ĠEth":11687,"Ġmemor":11688,"frame":11689,"Ġlogarith":11690,"edy":11691,"Ġbyte":11692,"Ġenfor":11693,"Hz":11694,"general":11695,"æľīæīĢ":11696,"Code":11697,"Ġfear":11698,"Ġcalculus":11699,"ĠOO":11700,"Ġparameterized":11701,"hev":11702,"æľīçĿĢ":11703,"çķĮéĿ¢":11704,"Ġconvolutions":11705,"Ġcontainer":11706,"æ¢¦":11707,"ĠInitial":11708,"ĠProceedings":11709,"Ġbodies":11710,"Ġcorpora":11711,"Ġscheduling":11712,"çļĦä¸»è¦ģ":11713,"ĠFourier":11714,"Ġbid":11715,"Ġ62":11716,"oman":11717,"ĠHTML":11718,"}}|":11719,"Ġeducational":11720,"Ġspirit":11721,"Ġmedium":11722,"open":11723,"Ġongoing":11724,"Ġconsumer":11725,"rig":11726,"Ġrepos":11727,"ounced":11728,"âĶĢ":11729,"ÑĨ":11730,"Ð·":11731,"Ġcooper":11732,"ĠCA":11733,"allow":11734,"spe":11735,"ç±į":11736,"Ġbehavioral":11737,"åı«åģļ":11738,"ĠRather":11739,"è®¾è®¡æ¨¡å¼ı":11740,"Ġmatched":11741,"å¥½å¤Ħ":11742,"Ġdisaster":11743,"Ġobviously":11744,"fi":11745,"ĠWol":11746,"Ġevolved":11747,"æľĢå¥½":11748,"æĶ¶åħ¥":11749,"åįıç¨ĭ":11750,"paign":11751,"friendly":11752,"æ£Ģæµĭ":11753,"åħ³èģĶ":11754,"Ġ57":11755,"vironment":11756,"Ġlayout":11757,"Ġsubstantially":11758,"ket":11759,"Ġequipment":11760,"Ġgenerality":11761,"ĠUser":11762,"},{\\":11763,"Method":11764,"ä¼´":11765,"å¯¹æĸ¹":11766,"å°±èĥ½":11767,"Ġdisplayed":11768,"Ġiteratively":11769,"BS":11770,"ĠMDP":11771,"ĠDepend":11772,"')$":11773,"Ġclauses":11774,"best":11775,"æľºåĻ¨åŃ¦ä¹ł":11776,"Ġprioritize":11777,"Ġintel":11778,"just":11779,"ĠArray":11780,"hot":11781,"Ġstimulus":11782,"æ¶Īè´¹èĢħ":11783,"ĠCM":11784,"èģĬ":11785,"ĠçĶ±äºİ":11786,"åľ¨ä¸Ģèµ·":11787,".}":11788,"çĶ·":11789,"anner":11790,"cy":11791,"æķĻç¨ĭ":11792,"omatic":11793,"é©±":11794,"ĠAdversarial":11795,"Ð½Ñĭ":11796,"åı¯èĥ½æĺ¯":11797,"Ġreflects":11798,"(-\\":11799,"teness":11800,"ĠPascal":11801,"ÐµÐ¼":11802,"Ġgas":11803,"Ġinitialize":11804,"Ġincremental":11805,"åħŃ":11806,"Ġoutliers":11807,"ĠLiu":11808,"Ġpy":11809,"Ġillum":11810,"ĠGreat":11811,"ĠLipschitz":11812,"ether":11813,"rupted":11814,"Ġhumanity":11815,"Ġveget":11816,"ĠFrench":11817,"Ġfavorite":11818,"Ġassistance":11819,"ä¼¤":11820,"With":11821,"iam":11822,"Ġdrug":11823,"rogate":11824,"Ġadm":11825,"Ġ58":11826,"results":11827,"Ġordinary":11828,"çľŁå®ŀ":11829,"ä¸įçĶ¨":11830,"å¯ĦåŃĺåĻ¨":11831,"ĠGradient":11832,"å¥ĸ":11833,"è®©äºº":11834,"åı¦ä¸Ģ":11835,"é¥®é£Ł":11836,"Ġmel":11837,"Ġproposals":11838,"Ġprotocols":11839,"æĺłå°Ħ":11840,"Ġbuilds":11841,"Ġconsecutive":11842,"TL":11843,"æ¯ıå¤©":11844,"çĶŁéķ¿":11845,"Ġfem":11846,"}\\}$":11847,"Ġsuffer":11848,"åħ¬å¼ı":11849,"Ġatom":11850,"ayesian":11851,"Ġfrequencies":11852,"ĠBre":11853,"åĴĮåħ¶ä»ĸ":11854,"çŁ©éĺµ":11855,"Ġprojected":11856,"ĠMap":11857,"isters":11858,"Ġestimators":11859,"Ġmusical":11860,"Ġextracting":11861,"æ¸ħæ´ģ":11862,"Ġ59":11863,"Ġimpressive":11864,"blems":11865,"éĿ¢åĲĳå¯¹è±¡çļĦ":11866,"Ð¾Ð³":11867,"Ġlets":11868,"æľĢå¤§çļĦ":11869,"Ġcareful":11870,"Ġunable":11871,"ĠSource":11872,"erved":11873,"Ġassignments":11874,"ride":11875,"prop":11876,"colon":11877,"bottom":11878,"éĩįè½½":11879,"ĠApr":11880,"Ġresulted":11881,"çıŃ":11882,"Ġtot":11883,"Ġ63":11884,"QN":11885,"ĠChapter":11886,"ireless":11887,"Ġcircuits":11888,"Ġwrap":11889,"ĠUnivers":11890,"ondon":11891,"Ġlazy":11892,"Conv":11893,"apses":11894,"Ġlose":11895,"Ġfaced":11896,"é¢Ŀå¤ĸ":11897,"å¾Īéļ¾":11898,"Ġphotos":11899,"esp":11900,"Ġmaximizing":11901,"Ġ(\\[]).":11902,"Ġcorrectness":11903,"hao":11904,"Ġ53":11905,"ĠUnicode":11906,"Ġdynamical":11907,"Ġresponsibility":11908,"GS":11909,"ects":11910,"Ġanalogy":11911,"Max":11912,"èĮ¶":11913,"Ġcorrection":11914,"ĠSequ":11915,"Ġpul":11916,"Ġsketch":11917,"Ps":11918,"Ġgrand":11919,"\\|_{":11920,"Ġ<>.":11921,"-|":11922,"è¢«ç§°ä¸º":11923,"Ġped":11924,"ĠTV":11925,"ĠMor":11926,"ĠKern":11927,"^*)":11928,"Ġsatisfaction":11929,"æķ´ä½ĵ":11930,"rogram":11931,"æĺ¯éĿŀå¸¸":11932,"Ġcontinuously":11933,"Ġproposes":11934,"Ġasymptotic":11935,"Ġphases":11936,"Ġscoring":11937,"Ġasynchronous":11938,"Ġcategorical":11939,"ĠPrevious":11940,"Ġoperational":11941,"è¿Ńä»£åĻ¨":11942,"Ġqueue":11943,"é¦Ī":11944,"æ¨¡æĭŁ":11945,"å¹´çļĦ":11946,"ĠWhe":11947,"ĠPaul":11948,"Ġfasc":11949,"Ġreliability":11950,"èĨ":11951,"åķĬ":11952,"Ġmoments":11953,"ä¸Ģç»Ħ":11954,"ambigu":11955,"å¾Īå¥½":11956,"Ġinstrument":11957,"title":11958,"iii":11959,"TI":11960,"ç¼ĸç¨ĭçļĦ":11961,"gency":11962,"putation":11963,"Ġease":11964,"ĠBo":11965,"ounder":11966,"Ġå¦Ĥæŀľä½ł":11967,"exper":11968,"è¿ĶåĽŀä¸Ģä¸ª":11969,"Ġengagement":11970,"ĠAnt":11971,"ĠÂ·":11972,"Ġequipped":11973,"feren":11974,"æ³ķå¾ĭ":11975,"èĢĲ":11976,"estion":11977,"Ġofficial":11978,"ĠVirtual":11979,"Ġè¦ģ":11980,"Ġdirector":11981,"è¡¨éĿ¢":11982,"different":11983,"ĠIDE":11984,"Ġdiscret":11985,"Ġexpos":11986,"Ġdisapp":11987,"asi":11988,"heta":11989,"ĠRegular":11990,"repres":11991,"cr":11992,"Ġmig":11993,"dt":11994,"Ġinternet":11995,"echnology":11996,"plane":11997,"uis":11998,"Inter":11999,"åĿĲ":12000,"æľīæķĪçļĦ":12001,"ä¸Ģä½į":12002,"owards":12003,"åı¯ä»¥çĶ¨":12004,"ç±»ä¸Ń":12005,"Ġoptimizations":12006,"dev":12007,"gic":12008,"Ġmovies":12009,"1010":12010,"atorial":12011,"ĠSL":12012,"Ġbegins":12013,"Ġtrunc":12014,"including":12015,"&=":12016,"~,":12017,"Ġthesis":12018,"ĠAcadem":12019,"cat":12020,"NS":12021,"ĠAward":12022,"Ġdenoising":12023,"ĠMI":12024,"Ġweighting":12025,"gressive":12026,"haust":12027,"mosp":12028,"ä¸ĢæĹ¦":12029,"Ġconceptual":12030,"gradient":12031,"çĥĪ":12032,"ĠCP":12033,"Ġ61":12034,"ĠRedu":12035,"pto":12036,"ĠManagement":12037,"Ġ[]":12038,"mutable":12039,"Ġ).":12040,"å¿ħè¦ģçļĦ":12041,"havior":12042,"Ġtuned":12043,"Ġinequalities":12044,"åĢ¼çļĦ":12045,"racking":12046,"atles":12047,"Ġutterance":12048,"Ġimply":12049,"Ġprem":12050,"Ġqualitative":12051,"Ġredundant":12052,"'$,":12053,"utral":12054,"åĨħçļĦ":12055,"Ġincorporated":12056,"ĠYu":12057,"Ġrestrictions":12058,"Ġperspectives":12059,"pop":12060,"ç§Ĵ":12061,"èĻ«":12062,"df":12063,"Ġskin":12064,"å±Ģéĥ¨åıĺéĩı":12065,"Ġrelaxation":12066,"ĠMass":12067,"ails":12068,"^{(\\":12069,"ĠMain":12070,"tra":12071,"çľł":12072,"bigl":12073,"break":12074,"neur":12075,"Ġ\\}$":12076,"ĠStro":12077,"Ġconcatenation":12078,"lbrack":12079,".]{}":12080,"SGD":12081,"machine":12082,"bat":12083,"å®£":12084,"Ġassociate":12085,"èĥľ":12086,"ĠEss":12087,"Ġheard":12088,"æŀļä¸¾":12089,"tiny":12090,"Ġspin":12091,"Ġdiffers":12092,"Ġpreserving":12093,"ĠCEO":12094,"ests":12095,"Ġprotection":12096,"ommod":12097,"æ¡Īä¾ĭ":12098,"grad":12099,"Ġdispar":12100,"$_":12101,"ologically":12102,"=-":12103,"TH":12104,"èĤ¯":12105,"æĤ¨åı¯ä»¥":12106,"isting":12107,"Ġleader":12108,"WE":12109,"éĻ·":12110,"Ġcouldn":12111,"ĠBill":12112,"Ġincons":12113,"ä¼ĳ":12114,"è´µ":12115,"leqslant":12116,"ĠæĿ¥":12117,"ĠBlue":12118,"Ġfool":12119,"ĠSym":12120,"constrained":12121,"}}}{":12122,"Ġcanonical":12123,"aper":12124,"ç¡¬ä»¶":12125,"Ġexecuting":12126,"åĳĪ":12127,"åºĶå¯¹":12128,"æıĲåıĸ":12129,"ĠSimple":12130,"Ġä»¥ä¸Ĭ":12131,"Ġshallow":12132,"dig":12133,",.":12134,"ReLU":12135,"irr":12136,"æľīäºĨ":12137,"hbox":12138,"Ġplaus":12139,"Def":12140,"Ġadvoc":12141,"ä¸ŃæĸŃ":12142,"ĠDynamic":12143,"ih":12144,"Ġhur":12145,"Ġhappened":12146,"Ġmultivariate":12147,"ying":12148,"udes":12149,"ĠApplication":12150,"Ġanch":12151,"è§Ħæ¨¡":12152,"rows":12153,"Ġamplit":12154,"osion":12155,"Ġintellect":12156,"Ġvice":12157,"åįģåĪĨ":12158,"![":12159,"Ġwind":12160,"ä¼ĺåħĪçº§":12161,"æĭĽ":12162,"iration":12163,"TA":12164,"éĴ±":12165,"Ġsustainability":12166,"ÃĹ":12167,"feature":12168,"ĠRich":12169,"tee":12170,"Ġ195":12171,"åĨįæ¬¡":12172,"çĬ¶åĨµ":12173,"vin":12174,"å°Ĭéĩį":12175,"ĠAccuracy":12176,"éĺ²æŃ¢":12177,"_{{{\\":12178,"Ġconfident":12179,"vectors":12180,"ĠBLEU":12181,"ä¸įéĶĻ":12182,"éĤ®":12183,"æĸĩåŃ¦":12184,"ç´¯":12185,"well":12186,"strong":12187,"ĠDP":12188,"åªĴä½ĵ":12189,"nowledgments":12190,"EX":12191,"éĢĤéĩı":12192,"ribute":12193,"Ġtoler":12194,"è´§":12195,"!\"":12196,"Ġunexpected":12197,"uary":12198,"Ġdestroy":12199,"thm":12200,"Ġingred":12201,"ĠThird":12202,"Ġconversations":12203,"Bl":12204,"å¼±":12205,"Ġprepar":12206,"èĶ¬":12207,"Ġanalogous":12208,"Ġaxi":12209,"Ġrenewable":12210,"rbrack":12211,"Ð°Ðº":12212,"notin":12213,"Ġswitching":12214,"Ġpossess":12215,"ĠConclusions":12216,"äºĪ":12217,"Ġutterances":12218,"Ġbackpropagation":12219,"çļĦåİŁåĽł":12220,"Ġreplacement":12221,"Log":12222,"ä¸įçŁ¥éģĵ":12223,"ĠPerhaps":12224,"eral":12225,"Fe":12226,"ĠSM":12227,"ĠNormal":12228,"bone":12229,"ĠDem":12230,"æ²»çĸĹ":12231,"ĠChat":12232,"ĠMS":12233,"åĨħç½®":12234,"å®Ļ":12235,"è§£åĨ³éĹ®é¢ĺ":12236,"plac":12237,"Ġspoken":12238,"Ġincomplete":12239,"gr":12240,"Ġsuited":12241,"Ġafore":12242,"Ġturning":12243,"ĠFast":12244,"idel":12245,"æ¬¡æķ°":12246,"|}":12247,"etime":12248,"Ġmemories":12249,"ogether":12250,"Ġcolleagues":12251,"]'":12252,"Ġblood":12253,"èĲ¥éĶĢ":12254,"ä½ĵç³»":12255,"Acc":12256,"Ġunified":12257,">,":12258,"æļĸ":12259,"Ġregul":12260,"Ġinvestigation":12261,"Ġcomplementary":12262,"ĠDetection":12263,"ourse":12264,"Ġdangerous":12265,"éļ¾ä»¥":12266,"Ġtrigger":12267,"Ġmembership":12268,"div":12269,"åĵªä¸ª":12270,"Ġiff":12271,"TF":12272,"Ġallocated":12273,"ĠMartin":12274,"Sch":12275,"Ġfish":12276,"]-":12277,"Ġcues":12278,"014":12279,"çĪ¬":12280,"Ġmeeting":12281,"poly":12282,"éĩįçĤ¹":12283,"Ġmodifications":12284,"illation":12285,"ĠSwift":12286,"select":12287,"aded":12288,"Ġboolean":12289,"figs":12290,"æļ´":12291,"Ġcelebr":12292,"ĠAustral":12293,"æŃ£åĪĻè¡¨è¾¾å¼ı":12294,"Text":12295,"ä¹¦ç±į":12296,"ĠCross":12297,"bigr":12298,"Ġscalable":12299,"Ġ,\\":12300,"ĠJames":12301,"Ġcrop":12302,"Ġjoin":12303,"iy":12304,"Ġillustration":12305,"åĮ»çĸĹ":12306,"Ġè¯¥":12307,"nergy":12308,"{(\\":12309,"channel":12310,"}}}}\\":12311,"even":12312,"Ġdisadvan":12313,"Ġjudge":12314,"åį±":12315,"è¿ĺéľĢè¦ģ":12316,"Ġranges":12317,"Ġcivil":12318,"åĨĴ":12319,"ĠAndrew":12320,"åįķä½į":12321,"åľ°åĮº":12322,"fulness":12323,"äºĨä¸ĢäºĽ":12324,"åħ¼":12325,"Ġleveraging":12326,"ç½Ĺ":12327,"ĠèĢĮ":12328,"NU":12329,"ĠDeveloper":12330,"æīĢè°ĵ":12331,"æŁĲç§į":12332,"åĨ²çªģ":12333,"adow":12334,"ĠArm":12335,"å¸¸çĶ¨çļĦ":12336,"cel":12337,"ĠOrgan":12338,"Ġepisode":12339,"Ġsongs":12340,"ustrup":12341,"Ġinteracting":12342,"lfloor":12343,"Ġrecognizing":12344,"æºĲçłģ":12345,"åıįé¦Ī":12346,"imag":12347,"essage":12348,"Ġlandscape":12349,"uation":12350,"å®ĩå®Ļ":12351,"Ġ/*":12352,"Ġrelates":12353,"iao":12354,"Ġinfluenced":12355,"è´Ńçī©":12356,"åĽ¾å½¢":12357,"é¡µéĿ¢":12358,"Ġutilizing":12359,"Ġlattice":12360,"æī¹":12361,"VAE":12362,"éģµå¾ª":12363,"è´¡":12364,"æıĲç¤º":12365,"Ġprompt":12366,"vard":12367,"itness":12368,"asser":12369,"{$":12370,")$\\":12371,"noise":12372,"State":12373,"Ġappeared":12374,"slash":12375,"vart":12376,"Ġcoinc":12377,"åĬĽçļĦ":12378,"NP":12379,"Ġrender":12380,"stable":12381,"Ġbelieves":12382,"é¤Ĳåİħ":12383,"inating":12384,"Ġarbitr":12385,"Ġderivatives":12386,"OO":12387,"åŁ¹åħ»":12388,"Face":12389,"Ġmanaging":12390,"inked":12391,"æ¶²":12392,"é½":12393,"ĠAmerica":12394,"ĠGA":12395,"Ġknew":12396,"å¤©æ°Ķ":12397,"sequence":12398,"Ġunnecess":12399,"Ġgalax":12400,"ĠReading":12401,"Ġconjunction":12402,"Ġ120":12403,"Ġdishes":12404,"Ġaid":12405,"Ġelectric":12406,"Ġguided":12407,"ĠReturn":12408,"lets":12409,"mand":12410,"isk":12411,"ĠLoss":12412,"Ġconvenience":12413,"lli":12414,"å¹´é¾Ħ":12415,"Ġphenomena":12416,"ĠEnd":12417,"å¼ºå¤§çļĦ":12418,".\\[":12419,"Ġsympt":12420,"Ġaccommod":12421,"Ġextending":12422,"Ġautomate":12423,"Ġsides":12424,"ights":12425,"ä»¥ç¡®ä¿Ŀ":12426,"Ġanomaly":12427,"ĠFil":12428,"ĠLP":12429,"Ġcircumst":12430,"ĠLondon":12431,"ĠLat":12432,"Ġaggregate":12433,"Ġforth":12434,"Ġreaching":12435,"æ¯Ľ":12436,"ç¥ŀç»ı":12437,"Ġera":12438,"ĠStrate":12439,"Ġverified":12440,"olar":12441,"è´¡çĮ®":12442,"kl":12443,"Ġclick":12444,"Ġsplitting":12445,"ften":12446,"nam":12447,"ĠES":12448,"èĭ±æĸĩ":12449,"Ġintervention":12450,"æ´¾çĶŁ":12451,"Ġstar":12452,"ç¡®å®ŀ":12453,"éģĹ":12454,"Sub":12455,"raise":12456,"Ġaccountability":12457,"Ġaforementioned":12458,"ĠMcC":12459,"çľŁçļĦ":12460,"rfloor":12461,"Ġatmosp":12462,"190":12463,"mo":12464,"å¿ĺ":12465,"llbracket":12466,"Ġcorrespondence":12467,"Ġnavigate":12468,"Ġ*/":12469,"Hash":12470,"é»ĳæ´ŀ":12471,"æĪĳä¼ļ":12472,"mathds":12473,"ĠCur":12474,"ĠBeatles":12475,"ĠSept":12476,"Ġoffered":12477,"Ġconfirm":12478,"Ġanswering":12479,"Ġparticles":12480,"Ġtravers":12481,"Ġmerge":12482,"ä¸ĭä¸Ģä¸ª":12483,"åı¯ä»¥è¢«":12484,"ĠResear":12485,"rrbracket":12486,"åıĬåħ¶":12487,"æīĺ":12488,"Ġfourth":12489,"Ġcompeting":12490,"har":12491,"å¤Ħäºİ":12492,"Ġcoarse":12493,"Ġenabled":12494,"Ġscaled":12495,"Ġprepare":12496,"Ġagriculture":12497,"Ġmatters":12498,"Ġparents":12499,"è¡Ģ":12500,"Ġtreatments":12501,"åŀĭçļĦ":12502,"ĠMaybe":12503,"Ġoccurrence":12504,"edit":12505,"equal":12506,"onomous":12507,"ä¼ļæľī":12508,"Ġoffering":12509,"Ġfeelings":12510,"Ġvirt":12511,"Ġkeys":12512,"older":12513,"Ġpriority":12514,"äº¤æį¢":12515,"çļĦä½įç½®":12516,"ĠJuly":12517,"Ġcapturing":12518,"èĥ½æºĲ":12519,"Ġregularly":12520,"è°¢è°¢":12521,"Ġwider":12522,"æĹ¶ä»£":12523,"éĢĤçĶ¨äºİ":12524,"å¹¶å°Ĩ":12525,"Ġ{{{\\":12526,"ä¸īç§į":12527,"æĳĦ":12528,"æ±¡æŁĵ":12529,"urate":12530,"Ġcortex":12531,"Ġsymmetry":12532,"ç»©":12533,"ĠEducation":12534,"edding":12535,"Ġconvin":12536,"ĠAdvanced":12537,"ĠHess":12538,"Ġclosures":12539,"Ġ2020":12540,"Ġexpressive":12541,"ĠIntelligent":12542,"æĽ´å®¹æĺĵ":12543,"ulum":12544,"äº¬":12545,"loc":12546,"Ġ],":12547,"ĠPrior":12548,"ä¸Ńæĸĩ":12549,"instance":12550,"enses":12551,"è¡¨æĺİ":12552,"ä»£çĲĨ":12553,"ximum":12554,"çī©åĵģ":12555,"ptr":12556,"ĠIS":12557,"Ġä¸ŃçļĦ":12558,"ĠRust":12559,"ĠLogic":12560,"Ġbreat":12561,"ĠEv":12562,"èĶ¬èıľ":12563,"ploys":12564,"pathy":12565,"æļĤ":12566,"Ġdelivery":12567,"cludes":12568,"ĠImplementation":12569,"Ġallev":12570,"Ġappreciate":12571,"Ġexploiting":12572,"Ġfundament":12573,"[{\\":12574,"æ©":12575,"unsupervised":12576,"Ġexponent":12577,"Ġanomal":12578,"Rob":12579,"aped":12580,"Ġtranslations":12581,"Ġgovernments":12582,"ĠNode":12583,"Ġdebate":12584,"close":12585,"Ġformation":12586,"ä¸Ńä½¿çĶ¨":12587,"ĠVector":12588,"ĠPL":12589,"Ġmedicine":12590,"fellow":12591,"\\#":12592,"ĠIncre":12593,"å¦ĤæŀľæĤ¨":12594,"Ġobstacles":12595,"Ġrevers":12596,"Ġcalibration":12597,"ĠTensorFlow":12598,"ĠAng":12599,"Ġchip":12600,"ĠSpringer":12601,"æ¶¦":12602,"cher":12603,"Ġpull":12604,"Ġnets":12605,"ĠNorth":12606,"Ġodd":12607,"Ġselects":12608,"ĠArchitecture":12609,"Ġ}$":12610,"essions":12611,"Ġvolunte":12612,"193":12613,"user":12614,"Ġadversary":12615,"Ġowners":12616,"roph":12617,"ĠNMT":12618,"Ġadvert":12619,"ĠClearly":12620,"Ġbeam":12621,"alley":12622,"åĪĩæį¢":12623,"Ġlabelled":12624,"Ġment":12625,"ĠFrank":12626,"éĩįåĨĻ":12627,"åıĸå¾Ĺ":12628,"Ġpad":12629,"Over":12630,"Ġpione":12631,"ceq":12632,"ĠCustom":12633,"Ġsubjective":12634,"ä¸ŃæľĢ":12635,"Ġplug":12636,"Ġfraud":12637,"Ġparty":12638,"note":12639,"èĤ¥":12640,"Ġcontinued":12641,"çĦ¦":12642,"Ġgold":12643,"atab":12644,"ĠDR":12645,"ĠAPIs":12646,"But":12647,"Ġregress":12648,"éĿ¢ç§¯":12649,"$_{":12650,"Ġnational":12651,"Ġfault":12652,"ç»ĳå®ļ":12653,"è¿Ļå°±æĺ¯":12654,"ĠPop":12655,"åĪĻæĺ¯":12656,"ĠSingularity":12657,"Ġcentered":12658,"Comput":12659,"Ġpark":12660,"classification":12661,"åŁºæľ¬çļĦ":12662,"Ġincome":12663,"Ġ\\|_":12664,"ĠMarch":12665,"Ġcoupling":12666,"Ġrecip":12667,"åı¯è¯»":12668,"Ġfoundation":12669,"propto":12670,"Ġperceptual":12671,"Ġfits":12672,"(\\[":12673,"\\}}":12674,"Ġsmoothing":12675,"void":12676,"ĠRad":12677,"äºĴåĬ¨":12678,"ico":12679,"Ġstrengths":12680,"åĨĻåħ¥":12681,"efined":12682,"å®¢æĪ·ç«¯":12683,"pler":12684,"Ġlengths":12685,"{.":12686,"Ġexhaust":12687,"è°ĥæŁ¥":12688,"Ġhandled":12689,"Ġnewly":12690,"è¿ĲçĶ¨":12691,"Ġbroken":12692,"ç²¾ç¥ŀ":12693,"Ġproving":12694,"æĹ¶å°ļ":12695,"enior":12696,"{|":12697,"band":12698,"Ġmolecular":12699,"Ġrequests":12700,"Ġwriter":12701,"ĠJapanese":12702,"Ġcausing":12703,"ëĭ":12704,"Ġdisag":12705,"Ð±":12706,"ĠMCMC":12707,"ĠNone":12708,"ĠAccess":12709,"ĠCopy":12710,"ĠHamilton":12711,"Ġ\\<":12712,"\\[]":12713,"Read":12714,"ç®Ĺæ³ķçļĦ":12715,"lower":12716,"ĠClus":12717,"ĠBlack":12718,"å¤ľ":12719,"Ġcompressed":12720,"Ġbreaking":12721,"Ġdisjoint":12722,"Ġdiscrep":12723,"draw":12724,"Ġdecent":12725,"HT":12726,"Ġbottleneck":12727,"Ġinterpretable":12728,"Ġdefense":12729,"ĠStroustrup":12730,"å¢Ļ":12731,"ä¸°å¯ĮçļĦ":12732,"åĬŀæ³ķ":12733,"Linux":12734,"ĠåĽłä¸º":12735,"Ġmutation":12736,"stat":12737,"çĬ¯":12738,"eks":12739,"Ġoffice":12740,"Ġshortest":12741,"ĠSil":12742,"Ġsorts":12743,"ĠEEG":12744,"ĠAfric":12745,"eties":12746,"ĠTransformer":12747,"ĠUp":12748,"Ġç»Ļ":12749,"Ġoverload":12750,"cp":12751,"ĠCognitive":12752,"æķĻåŃ¦":12753,"å°ıæĹ¶":12754,"Ġwarm":12755,"Ġvaries":12756,"Ġcha":12757,"Ġfilm":12758,"åŃĺæĶ¾":12759,"åģļæ³ķ":12760,"Ġmetaph":12761,"å¼ıçļĦ":12762,"\\;":12763,"Ġabsolutely":12764,"temporal":12765,"Ġfold":12766,"æį·":12767,"æķı":12768,"Ġcompens":12769,"éĵģ":12770,"Ġcycl":12771,"policy":12772,"éĹ»":12773,"ĠOnline":12774,"Ġcert":12775,"Ġwilling":12776,"Ġaimed":12777,"ĠEvent":12778,"orge":12779,"Ġregisters":12780,"Ġaccessed":12781,"ĠPersonal":12782,"ĠHilbert":12783,"å¤§äºİ":12784,"ĠASR":12785,"è¡ĮåĬ¨":12786,"bounded":12787,"Ġconditioned":12788,"Ġcharacterize":12789,"PO":12790,"æĪĲä¸ºäºĨ":12791,"ĠSuper":12792,"Ġplenty":12793,"Ġheterogeneous":12794,"placian":12795,"512":12796,"Ġadoption":12797,"Node":12798,"Ġmodalities":12799,"æľŁéĹ´":12800,"rat":12801,"gar":12802,"weighted":12803,"120":12804,"Ġä¸Ĭ":12805,"xiety":12806,"Ġoverlapping":12807,"Ġcopies":12808,"Ġfake":12809,"Ġreuse":12810,"arts":12811,"Ġimportantly":12812,"èĳ±":12813,"Ġenorm":12814,"lemma":12815,"Ġquantify":12816,"ĠBell":12817,"example":12818,"Ġarbitrarily":12819,"Ġenforce":12820,")},\\":12821,"*).":12822,"Att":12823,"initely":12824,"åī¯":12825,"Ġkeeps":12826,"æĺ¯å¦Ĥä½ķ":12827,"éº»":12828,"Ġunre":12829,"åº¦åĴĮ":12830,"BL":12831,"NE":12832,"Ġprelimin":12833,"äººçĶŁ":12834,"æłĩå¿Ĺ":12835,"Ġqsort":12836,"Do":12837,"Ġdetectors":12838,"Ġengines":12839,"Bigg":12840,"Ġcovering":12841,"çļĦåħĥç´ł":12842,"smooth":12843,"Ġstoring":12844,"Ġcampaign":12845,"Ġ.$":12846,"Ġcontrolling":12847,"Ġdebugging":12848,"è¿ĩåİ»":12849,"åħ¨å±Ģåıĺéĩı":12850,"Ġteachers":12851,"Ġarch":12852,"Ġbird":12853,"plan":12854,"Ġprepared":12855,"phant":12856,"Ġindirect":12857,"ä»ħä»ħ":12858,"racle":12859,"ĠBP":12860,"é©¶":12861,"çļĦéľĢæ±Ĥ":12862,"Ġphoto":12863,"åĢ¾":12864,"ĠLife":12865,"*),":12866,"Ġfiring":12867,"Ġclar":12868,"Ġalbums":12869,"Ġbeauty":12870,"Ġgained":12871,"Ġuniversity":12872,"umes":12873,"gers":12874,"effects":12875,"Ġtextual":12876,"çļĦåŃ¦ä¹ł":12877,"çļĦä¸Ģç§į":12878,"ĠæĪĸ":12879,"ipe":12880,"Ġsuggesting":12881,"Ġnaive":12882,"Ġacceptable":12883,"rot":12884,"Ġarms":12885,"Ġsubrout":12886,"Ġbot":12887,"ĠMedia":12888,"åŃĹåħ¸":12889,"è¿·":12890,"éĩįæŀĦ":12891,"è§Ĩé¢ĳ":12892,"orous":12893,"Ð¸Ð¼":12894,"Ġembod":12895,"Ġbeat":12896,"Ġlatency":12897,"ç»¼åĲĪ":12898,"Ġ=&":12899,"ä»ĭç»įäºĨ":12900,"Ġwalking":12901,"Ġstaff":12902,"Ġmanipulate":12903,"Ġsurrogate":12904,"Ġsurvival":12905,"éķ¿æľŁ":12906,"generated":12907,"herence":12908,"ĠLM":12909,"å½ĵåľ°":12910,"Ġreconstructed":12911,"æľĢä½³":12912,"èĢģå¸Ī":12913,"tages":12914,"Ġweakly":12915,"å¤«":12916,"ç¾İé£Ł":12917,"Ġcumulative":12918,"Ġfly":12919,"ĠAnn":12920,"ä»¤äºº":12921,"Ġthreats":12922,"oyal":12923,"Ġdelete":12924,"Ġattend":12925,"Ġcube":12926,"Ġbroader":12927,"Ġnoting":12928,"Ġmainstream":12929,"Ġsystematic":12930,"ĠTech":12931,"Ġuma":12932,"mas":12933,"omething":12934,"vacy":12935,"imited":12936,"Ġtotally":12937,"olic":12938,"åı¯è§ģ":12939,"ĠCall":12940,"Ġsea":12941,"Ġscan":12942,"æ³Ħ":12943,"ĠRNNs":12944,"ulus":12945,"ierarchical":12946,"ä¿ĿçķĻ":12947,"Ġeveryday":12948,"recision":12949,"ola":12950,"ĠThread":12951,"Ġcollege":12952,"äº«åıĹ":12953,"PCA":12954,"ĠStruct":12955,"^*\\":12956,"æ»¤":12957,"Ġblind":12958,"yu":12959,"åĲ«ä¹ī":12960,"Ġconvey":12961,"Ġpopularity":12962,"Ġmarkets":12963,"Ġhosp":12964,"é¢Ħç®Ĺ":12965,"Ġinstitutions":12966,"ĠAL":12967,"æĮĩåįĹ":12968,"å³":12969,"ĠHaving":12970,"Ġliteral":12971,"Ġignored":12972,"Ġanalyst":12973,"Ġexpanded":12974,"Ġstere":12975,"ç§Ł":12976,"Ġdifficulties":12977,"Ġemploys":12978,"Ġrestriction":12979,"Ġä¾ĭå¦Ĥ":12980,"Ġminimizes":12981,"è½¬åĮĸ":12982,"owers":12983,"erts":12984,"Ġè¿ĻéĩĮ":12985,"ĠNavy":12986,"illing":12987,"eh":12988,"Ġregime":12989,"å¸¸çĶ¨":12990,"ä½łä¼ļ":12991,"Ġfactory":12992,"HR":12993,"Ġrevealed":12994,"DI":12995,"å¨ģ":12996,"Ġmanager":12997,"åħ³éĹŃ":12998,"ĠPartic":12999,"Ġearth":13000,"aze":13001,"}}}}$":13002,"éĵ¶":13003,"æ°¸è¿ľ":13004,"Ġbright":13005,"Ġproductive":13006,"æĹ§":13007,"Ġpoorly":13008,"ĠStack":13009,"search":13010,"Ġintegrating":13011,"çĽ¸çŃī":13012,"Ġtherapy":13013,"Ġfilled":13014,"Ġå¦Ĥä½ķ":13015,"åħ¶ä¸ŃçļĦ":13016,"Ġintention":13017,"Ġfriendly":13018,"Ġinitiatives":13019,"Ġrefinement":13020,"Ġpartitions":13021,"Ġrelying":13022,"ĠPeter":13023,"jure":13024,"ĠService":13025,"Ġ1980":13026,"ĠCollabor":13027,"âĢĿï¼Į":13028,"çĸ¾":13029,"å¾Īå¥½çļĦ":13030,"åĬĽéĩı":13031,"Ġstride":13032,"è¶³å¤ŁçļĦ":13033,"Ġ<-":13034,"Ġ\\_[":13035,"Ġstreet":13036,"iro":13037,"ando":13038,"æīĢåľ¨":13039,"Ġresolve":13040,"Ġplain":13041,"æĺ¯éĢļè¿ĩ":13042,"ĠRobert":13043,"Ġfirm":13044,"endOffset":13045,"Ġslowly":13046,"inn":13047,"019":13048,"ought":13049,"ester":13050,"startOffset":13051,"Ġoptimality":13052,"Ġexcess":13053,"referenceID":13054,"015":13055,"æĺĵäºİ":13056,"æºĲä»£çłģ":13057,"ags":13058,"éĽ¨":13059,"æĭĮ":13060,"è¸ª":13061,"Ġwindows":13062,"è¾Ĩ":13063,"ĠConf":13064,"æŀĦæĪĲ":13065,"Ġautomata":13066,"åĲįä¸º":13067,"ĠSal":13068,"Ġterminal":13069,"åĿĩåĮĢ":13070,"ben":13071,"}}+":13072,"æĮ¥":13073,"Ġroute":13074,"ä¹±":13075,"Ġtimest":13076,"robust":13077,"Ġrn":13078,"vision":13079,"250":13080,"ĠAAAI":13081,"Ġposts":13082,"å¾Īæľī":13083,"ĠEns":13084,"ĠThree":13085,"MO":13086,"ĠMeta":13087,"ĠHessian":13088,"ikes":13089,"Ġdominant":13090,"Ġbandwidth":13091,"ĠSouth":13092,"Ġmoder":13093,"ç±»åĪ«":13094,"åı¯ä»¥è®©":13095,"ĠHum":13096,"ĠOffice":13097,"é¥Ń":13098,"Ġgest":13099,"Ġraised":13100,"Ġconstantly":13101,"Ġstatistically":13102,"å¥ı":13103,"Ġdivision":13104,"safe":13105,"é¢Ĩå¯¼":13106,"mix":13107,"ĠJac":13108,"ĠäºĮ":13109,"èĩªå®ļä¹ī":13110,"Ġå®ŀä¾ĭ":13111,"Ġvaried":13112,"ĠRos":13113,"Ġmasks":13114,"Ġolder":13115,"å¼¹":13116,"Ġspecifies":13117,"ĠHome":13118,"Ġcorner":13119,"Ġcrowd":13120,"æĹħæ¸¸":13121,"ĠStill":13122,"éĶ»":13123,"æ¹¿":13124,"åľ¨è¿ĻéĩĮ":13125,"changed":13126,"urable":13127,"åĽłä¸ºå®ĥ":13128,"Ġchains":13129,"Ġsynapses":13130,"ĠCombining":13131,"Ġnotable":13132,"åľ¨ä½¿çĶ¨":13133,"Ġsubgraph":13134,"hern":13135,"ears":13136,"Ġvisually":13137,"ĠSent":13138,"ĠMC":13139,"åºľ":13140,"func":13141,"Ġanxiety":13142,"Ġcomfortable":13143,"åĨľ":13144,"lee":13145,"ĠHyper":13146,"nowledgements":13147,"Ġinhib":13148,"urban":13149,"Hello":13150,"etry":13151,"Ġgone":13152,"çļĦä¸ľè¥¿":13153,"RO":13154,"ilder":13155,"ĠDE":13156,"Ġlimiting":13157,"Ġrectangle":13158,"ĠFac":13159,"encoders":13160,"ĠUlt":13161,"æĭ¼":13162,"è¿Ľè¡ĮäºĨ":13163,"Input":13164,"Ġsolely":13165,"imer":13166,"æĺİçĻ½":13167,"éĶ»çĤ¼":13168,"Ġconcentration":13169,"ysi":13170,"ĠFirstly":13171,"åĵ²":13172,"ĠUpdate":13173,"Ġhack":13174,"bits":13175,"ĠCD":13176,"åı¯éĿł":13177,"echan":13178,"ĠJanuary":13179,"ĠInnov":13180,"Ġauthent":13181,"å®īæİĴ":13182,"ĠDetails":13183,"å®ļä½į":13184,"Ġdisplacement":13185,"Ġvend":13186,"Ġevolving":13187,"visual":13188,"Ġhighlighted":13189,"åµĮå¥Ĺ":13190,"è¿ŀç»Ń":13191,"017":13192,"è¿ĻæĦıåĳ³çĿĢ":13193,"car":13194,"ĠLI":13195,"ppings":13196,"Ġhour":13197,"åĪĽä½ľ":13198,"sets":13199,",\\,\\":13200,"ĠValue":13201,"oving":13202,"Ġanalytical":13203,"}}}$,":13204,"Ġemployee":13205,"\"}\\":13206,"utter":13207,"aterial":13208,"ĠDC":13209,"ĠCarn":13210,"ĠnumOf":13211,"ĠDel":13212,"Ġhappening":13213,"Ġgraphics":13214,"æĪ¿éĹ´":13215,"Ġcognition":13216,"Ġargued":13217,"105":13218,"Ġemphasis":13219,"ĠNASA":13220,"istry":13221,"æµĵ":13222,"åĪĨæĶ¯":13223,"decoder":13224,"espread":13225,"VA":13226,"Ġformulate":13227,"oved":13228,"ĠçĶŁæĪĲ":13229,"Ġpollution":13230,"anglement":13231,"æ¯ıä¸ªäºº":13232,"ĠGPUs":13233,"Ġsubsection":13234,"unit":13235,"Ġ196":13236,"termin":13237,"ä¸Ńæľī":13238,"Ġtraits":13239,"Ġdistortion":13240,"âĶĢâĶĢ":13241,")_":13242,"æĥĬ":13243,"ipping":13244,"Ġwidespread":13245,"Ġcosine":13246,"åłĨæłĪ":13247,"æĶ»åĩ»":13248,"dy":13249,"åį·":13250,"ĠAbstract":13251,"ians":13252,"cember":13253,"é©±åĬ¨":13254,"å¹´è½»":13255,"Ġvoting":13256,"Ġrestaurants":13257,"éĺ¿":13258,"purpose":13259,"Ġeigenvalue":13260,"lceil":13261,"ĠLee":13262,"ĠVis":13263,"Ġ&=\\":13264,"Ġrelate":13265,"æķ°æį®åĪĨæŀĲ":13266,"æ¼«":13267,"ĠImag":13268,"Ġkn":13269,"ethe":13270,"æİĪ":13271,"æľĢå°ı":13272,"mathbbm":13273,"orders":13274,"Ġbreakthrough":13275,"Ed":13276,"ĠWho":13277,"æĢ¥":13278,"Dec":13279,"ĠHarvard":13280,"arger":13281,"adv":13282,"æĺ¯æľī":13283,"Ġcontributed":13284,"Ġremarkable":13285,"Ġtransmission":13286,"intelligence":13287,"Bu":13288,"Ġadvent":13289,"åĲĳéĩı":13290,"Ġconvention":13291,"ulty":13292,")-(":13293,"osh":13294,"Ġuniqu":13295,"åĵģè´¨":13296,"define":13297,"çľŁæŃ£çļĦ":13298,"ille":13299,"ander":13300,"åĪ«äºº":13301,"WS":13302,"lay":13303,"Ġnic":13304,"Ġsecret":13305,"Ġemphasize":13306,"Ġheads":13307,"ober":13308,"ĠNeuro":13309,"OF":13310,"Ġgreatest":13311,"ĠWhite":13312,"ä¸Ģå®ļè¦ģ":13313,"Ġsolves":13314,"Ġweap":13315,"ĠHave":13316,"Ġdrawing":13317,"ĠStudy":13318,"Ġresemb":13319,"ĠHMM":13320,"erving":13321,"Ġprime":13322,"ĠHand":13323,"ĠDA":13324,"ruption":13325,"aylor":13326,"Ġreflection":13327,"Ġmoral":13328,"}}}^{":13329,"åĨĻçļĦ":13330,",(":13331,"Ġinductive":13332,"Ġacquire":13333,"\"})":13334,"æĵįä½ľç¬¦":13335,"memory":13336,"modal":13337,"Ġstead":13338,"Ġanonymous":13339,"Ġdesigners":13340,"ĠApril":13341,"}}-":13342,"Ġboosting":13343,"ä¸¥éĩį":13344,"Ġpiv":13345,"Ġhal":13346,"åģļçļĦ":13347,"ä¸Ŀ":13348,"æĬĢæľ¯çļĦ":13349,"Ġexercises":13350,"\",\"":13351,"\"),":13352,"ä¸ĢåĲį":13353,"ruary":13354,"Ġexempl":13355,"rceil":13356,"ĠPower":13357,"insky":13358,"å®īåħ¨çļĦ":13359,"æľºåĻ¨äºº":13360,"Ġtheme":13361,"anal":13362,"ĠProlog":13363,"æĸ¥":13364,"textup":13365,"ĠCam":13366,"atter":13367,"çĹĩ":13368,"Ġnut":13369,"Ġinvert":13370,"icity":13371,"é¾Ļ":13372,"Ġartifacts":13373,"iance":13374,"td":13375,"ä¼ļå¯¼èĩ´":13376,"]]":13377,"Ġresil":13378,"Ġoccurred":13379,"center":13380,"ĠImport":13381,"å¼ĢåıĳçļĦ":13382,"Ġvisualize":13383,")`":13384,"ç¾İä¸½":13385,"Ġ+=":13386,"underbrace":13387,"Ġwatch":13388,"ĠVB":13389,"Ġexamined":13390,"Ġreadily":13391,"Ġsessions":13392,"iques":13393,"sia":13394,"urch":13395,"Ġserved":13396,"Ġwildlife":13397,"Ġmechanical":13398,"æ·±åĪ»":13399,"formed":13400,"aming":13401,"ĠPredictive":13402,"å¿Ĩ":13403,"Ġchecked":13404,"çĭ¬çī¹çļĦ":13405,"Ġgenerators":13406,"Ġemerge":13407,"013":13408,"acher":13409,"åº¦çļĦ":13410,"ä¸Ģä¸ªåĩ½æķ°":13411,"æ¯ıä¸Ģ":13412,"}~":13413,"itatively":13414,"æ¯«":13415,"Ġ250":13416,"}\\|\\":13417,"scrib":13418,"={\\":13419,"Ġaffine":13420,"ä¼ĺç§ĢçļĦ":13421,"'}$":13422,"ĠSometimes":13423,"Ġsector":13424,"ä¸Ģç³»åĪĹ":13425,"DNN":13426,"NLP":13427,"Ġsharp":13428,"MNIST":13429,"æĶ¯ä»ĺ":13430,"Ġunnecessary":13431,"Ġconsiderably":13432,"æĹı":13433,"ĠCore":13434,"Ġraises":13435,"Ġconnecting":13436,"Visual":13437,"bing":13438,"ications":13439,"è¯Ńä¹ī":13440,"Ġwaiting":13441,"Ġclarity":13442,"Ġsynchronization":13443,"ĠResearchers":13444,"å±ĭ":13445,"backslash":13446,"å¹ķ":13447,"UB":13448,"ĠIndust":13449,"Gu":13450,"ĠEconom":13451,"Ġconverting":13452,"ht":13453,"Ġencounter":13454,"åıįå°Ħ":13455,"Ġobserving":13456,"ĠFC":13457,"ĠEp":13458,"è¿Ļæĺ¯ä¸Ģä¸ª":13459,"ÐµÐ½Ð¸":13460,"ĠFIG":13461,"ĠMag":13462,"Ġ$({\\":13463,"Ġdiffusion":13464,"Ġregularized":13465,":*]{}":13466,"RN":13467,"Ġautomaton":13468,"ĠChallenge":13469,"ĠSeptember":13470,"Ġscalability":13471,"ĠSyn":13472,"Ġvital":13473,"})=\\":13474,"Ġocean":13475,"ĠJul":13476,"Ġclassifying":13477,"Ġcoff":13478,"bA":13479,"Stream":13480,"å¤§åŀĭ":13481,"aint":13482,"ĠPubl":13483,"å¼ĢæĶ¾":13484,"ĠLL":13485,"ĠInterestingly":13486,"egie":13487,"tanh":13488,"ĠBob":13489,"include":13490,"ĠIntuitively":13491,"Ġneuroscience":13492,"Ġincent":13493,"ĠPear":13494,"VI":13495,"ĠFLAT":13496,"Ġslice":13497,"also":13498,"å·¦åı³":13499,"ä¾§":13500,"ĠEvolution":13501,"Ġminima":13502,"ien":13503,"Ġê":13504,"Ġcircumstances":13505,"ĠAGI":13506,"çĶµè§Ĩ":13507,"åĿļæĮģ":13508,"Point":13509,"åĵįåºĶ":13510,"engio":13511,"Ġtagging":13512,"Ġextensively":13513,"çĸ¾çĹħ":13514,"uscript":13515,"æµģè¡Į":13516,"çļĦåħ³éĶ®":13517,"Ġweeks":13518,"å¹¸ç¦ı":13519,"Dist":13520,"pirical":13521,"ilinear":13522,"èĤĮ":13523,"ĠRegression":13524,"ĠFix":13525,"Ġfav":13526,"imitives":13527,"ĠMix":13528,"ä¸įåĪ°":13529,"ĠCF":13530,"problem":13531,"ĠSeg":13532,"åĴĮæĸ¹æ³ķ":13533,"ĠQual":13534,"ellon":13535,"åħ«":13536,"æ°Ľ":13537,"Ġservers":13538,"éĽħ":13539,"Ġpredefined":13540,"åŃĹèĬĤçłģ":13541,"________________":13542,"Ġtensors":13543,"Ġpictures":13544,"ĠAverage":13545,"initial":13546,"cape":13547,"Ġperm":13548,"downarrow":13549,"ĠFLATOW":13550,"kit":13551,"}}}$.":13552,"é¦Ĩ":13553,"^*,":13554,"Id":13555,"ç«ĭåį³":13556,"ĠPOS":13557,"Ġslot":13558,"æİ¨å¹¿":13559,"ĠÐ±":13560,"dual":13561,"æ±ī":13562,"èĤ¯å®ļ":13563,"ĠBost":13564,"ĠHol":13565,"äºİæĺ¯":13566,"scious":13567,"Ġalphabet":13568,"ira":13569,"Ġtailored":13570,"vartheta":13571,"cil":13572,"å¹ħ":13573,"åı¯æĮģç»Ń":13574,"Ġcraft":13575,"åī©":13576,"Ġbrand":13577,"CB":13578,"å°º":13579,"OCO":13580,"Sw":13581,"Ġexcited":13582,"Ġcasc":13583,"åŃĲçļĦ":13584,"æĸĩä»¶ä¸Ń":13585,"Ġaccounts":13586,"otherwise":13587,"Ġ(<":13588,"çĶ³è¯·":13589,"ĠBook":13590,"016":13591,"imp":13592,"å¤ı":13593,"Ġclock":13594,"iability":13595,"Ġgraduate":13596,"Ġmixing":13597,"020":13598,"Ġflaw":13599,"Ġsand":13600,"Ġtang":13601,"quant":13602,"emph":13603,"isson":13604,"uses":13605,"ĠTaking":13606,"Ġseemed":13607,"Ġprojections":13608,"-(":13609,"pret":13610,"ĠConvers":13611,"EP":13612,"Ġranked":13613,"åįłçĶ¨":13614,"ĠAT":13615,"ja":13616,"æĢ§è´¨":13617,"product":13618,"ĠTheore":13619,"Ġreceptive":13620,"Ġcaption":13621,"ramid":13622,"mathrel":13623,"Ġschools":13624,"asserstein":13625,"prior":13626,"asy":13627,"unning":13628,"Ġoffline":13629,"SNR":13630,"speech":13631,"urance":13632,"Ġedition":13633,"Ġbars":13634,"æķ´çĲĨ":13635,"Ġä»¥ä¸ĭ":13636,"æľªæĿ¥çļĦ":13637,"ç¼ĵåĨ²":13638,"^{[":13639,"Ġconcise":13640,"Ġsequencing":13641,"ĠSS":13642,"Ġaccelerate":13643,"Ġpredictors":13644,"security":13645,"Ġrepository":13646,"ibbs":13647,"ĠFigures":13648,"Eng":13649,"yang":13650,"Ġcores":13651,"ĠLag":13652,"å§Ķ":13653,"Ġintra":13654,"Ġlearners":13655,"æİ¥è§¦":13656,"ä¸įè¶³":13657,"ĠRegard":13658,"Ġretail":13659,"Ġ})":13660,"ĠSD":13661,"åĳ¼åĲ¸":13662,"æīĢè¿°":13663,"Ġappropriately":13664,"Ġforecasting":13665,"correct":13666,"åºĶè¯¥æĺ¯":13667,"Ġtone":13668,"æĬ½è±¡ç±»":13669,"æ´²":13670,"ä½įäºİ":13671,"Ġpublication":13672,"import":13673,"ĠVideo":13674,"bigcup":13675,"Ġsymptoms":13676,"md":13677,"Ġbank":13678,"Ġedit":13679,"arks":13680,"è®©æĪĳ":13681,"æĶ¾æĿ¾":13682,"Ġsolar":13683,"heng":13684,"èģĺ":13685,"Ġcoffee":13686,"eting":13687,"Ġforced":13688,"water":13689,"}\\|_":13690,"Ġdescriptor":13691,"Ġ.\\":13692,"ä¹ı":13693,"[[":13694,"oster":13695,"nol":13696,"Ġtermination":13697,"Ġwebsites":13698,"Ġtherm":13699,"ĠPhD":13700,"ĠNE":13701,"raint":13702,"Ġrounds":13703,"Ġenormous":13704,"ĠSemantic":13705,"è¹":13706,"æ¡Į":13707,"è´¹çĶ¨":13708,"Ġtrip":13709,"ĠRus":13710,"Ġexplores":13711,"ç¼Ģ":13712,"align":13713,"consum":13714,"Ġï¼Ī":13715,"ĠFree":13716,"éĩİ":13717,"åĨħåŃĺä¸Ń":13718,"Ġpromin":13719,"Ġoperates":13720,"çĿ¡çľł":13721,"Ġexploited":13722,"ux":13723,"æİ¢è®¨":13724,"Ġwear":13725,"HN":13726,"ĠDev":13727,"æĴ°":13728,"æĺ¥":13729,"åĩºæĿ¥çļĦ":13730,"Ġconce":13731,"istency":13732,"Ġsplits":13733,"éĢĤå½ĵçļĦ":13734,"udio":13735,"current":13736,"ura":13737,"æĽ´æĶ¹":13738,"ĠAbs":13739,"ĠReport":13740,"Ġtiny":13741,"Ġdemonstration":13742,"ĠnÃ£o":13743,"Ġconcurrency":13744,"éĥ½èĥ½":13745,"Ġenhancement":13746,"};\\":13747,"Ġchief":13748,"Ġevaluates":13749,"Ġarises":13750,"icted":13751,"Ġmission":13752,"æĸĩä»¶çļĦ":13753,"Ġdegradation":13754,"ĠEarly":13755,").[]{":13756,"Ġconsumers":13757,"Ġpriori":13758,"Ġfragment":13759,"ĠKn":13760,"Ġrecursively":13761,"èĭ¦":13762,"Ġdisplays":13763,"ĠSI":13764,"Ġintent":13765,"ç¨į":13766,"å¼ĢéĶĢ":13767,"åĵ²åŃ¦":13768,"ette":13769,"Ġexport":13770,"material":13771,"Opt":13772,"global":13773,"äºĭçī©":13774,"Ġemploying":13775,"}$:":13776,"Ġshouldn":13777,"sparse":13778,">\\":13779,"Ġindividually":13780,"çļĦæĸ°":13781,"Ġratings":13782,"Ġangles":13783,"Ġnotions":13784,"æłĩçŃ¾":13785,"ç¢³":13786,"åľ¨çº¿":13787,"calc":13788,"å¹´ä»£":13789,"ĠLarge":13790,"Ġtheoretically":13791,"èĥ½éĩı":13792,"Ġsch":13793,"Ġpartner":13794,"Ġretrieve":13795,"Ġanti":13796,"ĠFebruary":13797,"Ġopinions":13798,"å¤ļæł·":13799,"ARPA":13800,"ĠGUI":13801,"åĵĪå¸Į":13802,"Ġtransforms":13803,"Ġpositives":13804,"æĤ£":13805,"unt":13806,"ĠDecember":13807,"ĠURL":13808,"azine":13809,"Ġvulnerable":13810,"æķ°æį®éĽĨ":13811,"}}{{\\":13812,"Ġhighlights":13813,"adam":13814,"ĠPrograms":13815,"Ġexecutable":13816,"Ġentertain":13817,"\\,\\":13818,"æ¦Ĥçİĩ":13819,"åĩłç§į":13820,"Ġnamespace":13821,"opic":13822,"çĪ±æĥħ":13823,"Ġdeleg":13824,"Ġpuzz":13825,"ÑģÑı":13826,"çĻ»":13827,"Ġphilosophical":13828,"ĠAugust":13829,"phones":13830,"Ð»Ð¸":13831,"Ġdil":13832,"crafted":13833,"makers":13834,"ĠGod":13835,"æĿ¥æºĲ":13836,"ido":13837,"Ġartists":13838,"Ġstrange":13839,"Ġidentifies":13840,"emic":13841,"å½ĵä½ł":13842,"ategory":13843,"å¾Īå¤§çļĦ":13844,"\\^":13845,"Ġoccurring":13846,"Ġelectro":13847,"Ġabstractions":13848,"Ġå®ļä¹ī":13849,"mem":13850,"ĠUnderstanding":13851,"cv":13852,"æ±¤":13853,"employ":13854,"æĺ¯å¯¹":13855,"Ġscripts":13856,"çľĭåĩº":13857,"æģ¢":13858,"frequency":13859,"Ġnoticed":13860,"ijk":13861,"Ġdramatically":13862,"æµ®çĤ¹":13863,"çĽ¸åıį":13864,"180":13865,"mathbin":13866,"pred":13867,"Ġod":13868,"éĢļçĶ¨":13869,"å´":13870,"Ġreceiving":13871,"Ġpreliminary":13872,"Ġcommunications":13873,"pooling":13874,"hevsky":13875,"Ġgray":13876,"hs":13877,"Ġ@].":13878,"Ġtopological":13879,"Ġcombinatorial":13880,"agers":13881,"å®ŀçĶ¨":13882,"minist":13883,"}({":13884,"Ġ![*":13885,"inct":13886,"ĠHash":13887,"Ġpredicates":13888,"ĠAnalytics":13889,"ĠFR":13890,"Ġtiming":13891,"]=":13892,"Ġsumm":13893,"Ġvir":13894,"æ±ģ":13895,"ĠGame":13896,"æĹ¶éĹ´åĴĮ":13897,"iled":13898,"PN":13899,"Ġtrains":13900,"ç»ĵè®º":13901,"ResNet":13902,"Ġfascinating":13903,"riented":13904,"å¿½çķ¥":13905,"Ġconcatenated":13906,"Ġdoubt":13907,"è¿Ļä¸ĢçĤ¹":13908,"Ġglobally":13909,"Ġreasonably":13910,"è¿Ļæľ¬ä¹¦":13911,"viously":13912,"Ġoppon":13913,"aneous":13914,"Mod":13915,"ĠçĦ¶åĲİ":13916,"æģĴ":13917,"Ġthemes":13918,"åı¯ä»¥å°Ĩ":13919,"ĠCorollary":13920,"ĠRBM":13921,"æĪĳä»¬è¦ģ":13922,"offs":13923,"second":13924,"Ġrelig":13925,"æĹħè¡Į":13926,"Ġ[-":13927,"éļĲèĹı":13928,"Based":13929,"Ġsafely":13930,"Ġdiscusses":13931,"æµªè´¹":13932,")}}\\":13933,"Ġentre":13934,"ĠSecondly":13935,"Ġbirth":13936,"Ġurban":13937,"Ġengineer":13938,"çļĦå°ı":13939,"Google":13940,"ĠLayer":13941,"Ġpace":13942,"Ġbrack":13943,"Ġmistake":13944,"Ġmetadata":13945,"Step":13946,"Ġå®ĥ":13947,"ä»Ķ":13948,"Ġobtains":13949,"æ»¡æĦı":13950,"Ġbackbone":13951,"Ġemployment":13952,"123":13953,"Ġflows":13954,"Ġsequentially":13955,"spaces":13956,"Ġwalks":13957,"ĠAttention":13958,"Ġbases":13959,"Ġimagery":13960,"ĠLaplacian":13961,"Ġstock":13962,"Ġunus":13963,"Ġintellectual":13964,"oor":13965,"ĠCurrently":13966,"Ġthresholds":13967,"}@":13968,"Ġspecifications":13969,"Ġpsychology":13970,"Ġleak":13971,"æģ¢å¤į":13972,"Ġinvoked":13973,"Ġevident":13974,"MR":13975,"Ġosc":13976,"Ġexplaining":13977,"Ġmas":13978,"robot":13979,"ĠEnergy":13980,"\\},":13981,"Ġsake":13982,"å¯¸":13983,"Ġprices":13984,"è§£éĩĬåĻ¨":13985,"å°±ä¸į":13986,"å½¼":13987,"æ»ĳ":13988,"ĠIL":13989,"ĠQuantum":13990,"ĠForest":13991,"Ġproves":13992,"elli":13993,"iota":13994,"ĠCount":13995,"Ġdoctors":13996,"è§¦åıĳ":13997,"Ġfight":13998,"ĠFed":13999,"vity":14000,"å®Įç¾İ":14001,"åĮ»çĶŁ":14002,"ç®ĢåĮĸ":14003,"ĠBlub":14004,"opher":14005,"Ġfinished":14006,"ĠFeatures":14007,"qq":14008,"çļĦä¸ĢäºĽ":14009,"whel":14010,"æľīæĹ¶":14011,"Ġfalls":14012,"Ġtit":14013,"strap":14014,"Ġseason":14015,"ĠHard":14016,"Ġscripting":14017,"Ġalter":14018,"çŃīæĸ¹éĿ¢":14019,"ielding":14020,"Ġlisten":14021,"Ġbreaks":14022,"ĠAdaptive":14023,"Ġdrift":14024,"Ġsmarter":14025,"\\_\\_":14026,"Ġremainder":14027,"æľīçĤ¹":14028,"incre":14029,"make":14030,"Ġlighting":14031,"~~~~~~~~":14032,"çł´åĿı":14033,"scriptscriptstyle":14034,"Ġworkplace":14035,"Ġdepartment":14036,"ida":14037,"èĸª":14038,"Ġtune":14039,"Ġprimal":14040,"åŁºç±»":14041,"Ġheader":14042,"wer":14043,"æľĢå¥½çļĦ":14044,"Ġè¯Ńåı¥":14045,"Ġbrowser":14046,"dden":14047,"Ġdisk":14048,"Ġarrange":14049,"Inst":14050,"äºĭåĬ¡":14051,"Ġflight":14052,"éĿ¢ä¸´":14053,"}\\!":14054,"ĠMF":14055,"driving":14056,"Ġchair":14057,"antly":14058,"ä¹Łè®¸":14059,"Ġtalks":14060,"Ġbirds":14061,"ä¹ĭå¤Ħ":14062,"åģ¥èº«":14063,"MB":14064,"subject":14065,"åĺ":14066,"é½Ĳ":14067,"æįķèİ·":14068,"Ġdefinite":14069,"ä¹łé¢ĺ":14070,"information":14071,"Ġ!=":14072,"åĲĪå¹¶":14073,"Ġbattle":14074,"ĠCarnegie":14075,"Ġplausible":14076,"è®¾æĸ½":14077,"çļĦæĸĩç«ł":14078,"å®ŀä¾ĭåĮĸ":14079,"Ġreveals":14080,"Ġparticipate":14081,"Ġamplitude":14082,"ww":14083,"åĳĪçİ°":14084,"cccc":14085,"Ġpretrained":14086,"Ġwealth":14087,"Ġnuclear":14088,"ovember":14089,"ART":14090,"Rep":14091,"Ġassigning":14092,"Ġproxy":14093,"shape":14094,"çļĦæĬĢæľ¯":14095,"èµŀ":14096,"Ġsky":14097,"Xi":14098,"Ġmanuscript":14099,"Ġ);":14100,"âĢĿãĢĤ":14101,"Ġdict":14102,"minim":14103,"åĨĻä¸Ģç¯ĩ":14104,"è¯Ńè¨Ģä¸Ń":14105,"Ġdiscussing":14106,"Ġfarmers":14107,"Ġsearches":14108,"Ġperiods":14109,"BI":14110,"Ġspiking":14111,"Ġdeals":14112,"Ġweakness":14113,"Ġfacing":14114,"Iter":14115,"çĥ§":14116,"plet":14117,"çļĦè¿ĩç¨ĭä¸Ń":14118,"ĠMellon":14119,"ĠComputation":14120,"omed":14121,"Ġadequate":14122,"copy":14123,"gression":14124,"urrences":14125,"Ġexhibits":14126,"æĶ¿åºľ":14127,"Ġfrustr":14128,"Ġsudden":14129,"åıĹæ¬¢è¿İ":14130,"å½¢è±¡":14131,")}(\\":14132,"æ¥¼":14133,"Ġalgebraic":14134,"igher":14135,"Ġessence":14136,"å½¢çĬ¶":14137,"åįķçĭ¬":14138,"ç«Ł":14139,"Ġcitiz":14140,"ĠCat":14141,"Ġfootprint":14142,"ras":14143,"ĠFalse":14144,"Ġsubstitution":14145,"atabase":14146,"ĠGRU":14147,"Ġoutlined":14148,"ĠCost":14149,"ilt":14150,"UL":14151,"å¸¸å¸¸":14152,"dataset":14153,"Ġä»¥":14154,"æīĭæ®µ":14155,"rip":14156,"})^{":14157,"exec":14158,"oltz":14159,"ĠBritish":14160,"âĢĲ":14161,"Ġrepeatedly":14162,"ĠSqu":14163,"erm":14164,"Ġ1950":14165,")[(":14166,"Ġbold":14167,"rb":14168,"ĠAction":14169,"Ġsuit":14170,"Ġambiguity":14171,"Ġnumeric":14172,"æĮĤ":14173,"ĠâĪĪ":14174,"Ġattached":14175,"rizhevsky":14176,"Ġmaintained":14177,"ä¸Ģä¸ªå¯¹è±¡":14178,"Ġreproduce":14179,"Ġfacilities":14180,"ĠFisher":14181,"Man":14182,"ĠMAP":14183,"çĶ¨æ³ķ":14184,"kins":14185,"æ¶ĪèĢĹ":14186,"ĠÐ·":14187,"Ġstars":14188,"Ġinev":14189,"ogen":14190,"Ġprimitives":14191,"Ġnorms":14192,"åıĸåĨ³":14193,"ĠHel":14194,"jo":14195,"Ġstatistic":14196,"Ġlect":14197,"ĠMaterial":14198,"Ġsummer":14199,"prototype":14200,"otechnology":14201,"Ġcallback":14202,"Ġwel":14203,"è¯ļ":14204,"ĠOutput":14205,"ĠUnix":14206,"Ġprocedural":14207,"Ġbutton":14208,"ä¸Ģä¸ªç±»":14209,"Rel":14210,"Ġwall":14211,"ĠGermany":14212,"Ġbul":14213,"ĠEdition":14214,"ĠBlock":14215,"Ġdrawbacks":14216,"Em":14217,"Â°":14218,"station":14219,"Ġç¨ĭåºı":14220,"atisf":14221,"Ġdisp":14222,"Ġdecreased":14223,"ĠÑĩ":14224,"ĠRAM":14225,"ĠFortran":14226,"Ġfut":14227,"ĠPrediction":14228,"sel":14229,"Ġgates":14230,"Ġbridge":14231,"Ġwinning":14232,"ĠConsidering":14233,"uble":14234,"Ġmechanics":14235,"ĠTesting":14236,"Ġprofiles":14237,"åı¯ä»¥æĺ¯":14238,"ĠPolicy":14239,"Min":14240,"ĠTor":14241,"controll":14242,"éĤ®ä»¶":14243,"Sort":14244,"Ġnearby":14245,"ĠTechnical":14246,"Ġbuck":14247,"ASIC":14248,"çĩĥ":14249,"Ġpros":14250,"Ġappendix":14251,"ĠSpan":14252,"Ġstabil":14253,"Ġmultimodal":14254,"performance":14255,"Ġvac":14256,"Ð»Ñı":14257,"Ġemergency":14258,"æ²ī":14259,"Ġecosystems":14260,"original":14261,",\\\\":14262,"ĠNor":14263,"éĥ½éľĢè¦ģ":14264,"Ġtransaction":14265,"ĠMeanwhile":14266,"Ġmacros":14267,"Ġexposure":14268,"åĳĬè¯īæĪĳ":14269,"Ġsynthesized":14270,"ç»Łä¸Ģ":14271,"åīĤ":14272,"è¿ĺè¦ģ":14273,"Ġfat":14274,"çº§åĪ«":14275,"é¢ĺçĽ®":14276,"åĪĨè§£":14277,"Ġconcerning":14278,"Ġsending":14279,"Ġdestination":14280,"clear":14281,"åıĸåĨ³äºİ":14282,"lands":14283,"è¿Ļç¯ĩæĸĩç«ł":14284,"tuned":14285,"Ġ`\\":14286,"Ġcaught":14287,"å®¤åĨħ":14288,"Ġmappings":14289,"front":14290,"åįķä¾ĭ":14291,"Ġdesk":14292,"éĢļçŁ¥":14293,"rones":14294,"Ġmimic":14295,"Ġsees":14296,"Ġperceptron":14297,"onomy":14298,"Ġelectron":14299,"ĠJon":14300,"adaptive":14301,"Ġoverwhel":14302,"Ġreservoir":14303,"ĠSample":14304,"ĠDu":14305,"Ġneighboring":14306,"Î±":14307,"atial":14308,";\\;":14309,"rule":14310,"Ġ${{":14311,"SH":14312,"å¼ºåĪ¶":14313,"çļĦä¾ĭåŃĲ":14314,"+(":14315,"Ġdiver":14316,"Ġharmon":14317,"åĽĽä¸ª":14318,"æĸĩåŃĹ":14319,"ãģ®":14320,"ĠWin":14321,"èĢĮä¸į":14322,"ĠYe":14323,"tensor":14324,"Ġplotted":14325,"Ãª":14326,"Ġseeking":14327,"kernel":14328,"ĠNumer":14329,"wood":14330,"èĥ¡":14331,"çļĦçİ¯å¢ĥ":14332,"æĽ´ä¸º":14333,"æ¦":14334,"umps":14335,"ä¿¡ä»»":14336,"tec":14337,"lojure":14338,"erated":14339,"entially":14340,"Ġfeedforward":14341,"ĠHR":14342,"Ġredundancy":14343,"Ġ\\|^":14344,"ĠApproach":14345,"Ġencodes":14346,"Ġoptimisation":14347,"fun":14348,"éĹ²":14349,"åĩ½æķ°å¼ı":14350,"#,":14351,"018":14352,"ä½ĵçİ°":14353,"emplate":14354,"ä»£çłģåĿĹ":14355,"amin":14356,"ĠLow":14357,"ĠBal":14358,"ä¸ªæķ°":14359,"æľīä¸ĢäºĽ":14360,"illed":14361,"Ġinterpretability":14362,"ĠReinforcement":14363,"çļĦèĥ½åĬĽ":14364,"ĠKing":14365,"Ġmaximization":14366,"Ġmultiply":14367,"Vec":14368,"oulli":14369,"ĠJack":14370,"æ¸ħåįķ":14371,"nolimits":14372,"you":14373,"Ġil":14374,"ĠGenerally":14375,"ĠCalc":14376,"IV":14377,"'=":14378,"Ġmil":14379,"invariant":14380,"\"?":14381,"World":14382,"Ġcir":14383,"Ġpaired":14384,"é¡¿":14385,"Ġparallelism":14386,"Ġrein":14387,"igms":14388,"Ġforeign":14389,"Ġ}{\\":14390,"Ġimmutable":14391,"Ġundefined":14392,"è¿ĽæŃ¥":14393,"Ġtrait":14394,"PY":14395,"idelity":14396,"Ġcontrary":14397,"Ġbelieved":14398,"Ġwireless":14399,"Ġgrouped":14400,"ĠTry":14401,"stud":14402,"åĳ¨åĽ´":14403,"inality":14404,"ĠâĨĴ":14405,"æĪĳä»¬åºĶè¯¥":14406,"ĠDescription":14407,"Ġcollecting":14408,"Ġrandomness":14409,"ç±»ä¼¼äºİ":14410,"Ġmarine":14411,"Not":14412,"Ġoptional":14413,"çĶ¨åĪ°":14414,".).":14415,"Cor":14416,"ĠWhether":14417,"æŁĶ":14418,"ĠEnvironment":14419,"çļĦçĬ¶æĢģ":14420,"çĹĽ":14421,"æĽ´å¿«":14422,"ĠConnect":14423,"Ġenterprise":14424,"jk":14425,"ĠKernel":14426,"Ġobservable":14427,"Ġsusp":14428,"ĠOR":14429,"æĹ¶åĪ»":14430,"ÑĪ":14431,"conditional":14432,"Ġ192":14433,"ills":14434,"catch":14435,"Ġ^{":14436,"æĶ¿çŃĸ":14437,"Des":14438,"ĠDense":14439,"Ġpersonality":14440,"Ġanywhere":14441,"è°±":14442,"try":14443,"å¾Īå¤§":14444,"Ġfingerprint":14445,"ĠNovember":14446,"Ġatmosphere":14447,"True":14448,"ĠIndia":14449,"riers":14450,"éĢĢåĩº":14451,"Ġomitted":14452,"ĠCheck":14453,"ye":14454,"Ã³n":14455,"å¸ģ":14456,"å¦Ļ":14457,"æ²³":14458,"eping":14459,"Ġpaid":14460,"Function":14461,"techn":14462,"èĦ±":14463,"Ġmirr":14464,"åĮħåĲ«äºĨ":14465,"sent":14466,"Ġtransactions":14467,"æł¹æľ¬":14468,"Ġlandmarks":14469,"GN":14470,"Ġdiscrepancy":14471,"èĪª":14472,")\"":14473,"TT":14474,"ASS":14475,"rand":14476,"fin":14477,"Ġsubtract":14478,"Ġarrive":14479,"Ġacceptance":14480,"types":14481,
[...]
